{"<|endoftext|>":0,"<|pad|>":1,"<|user|>":2,"<|assistant|>":3,"!":4,"\"":5,"#":6,"$":7,"%":8,"&":9,"'":10,"(":11,")":12,"*":13,"+":14,",":15,"-":16,".":17,"/":18,"0":19,"1":20,"2":21,"3":22,"4":23,"5":24,"6":25,"7":26,"8":27,"9":28,":":29,";":30,"<":31,"=":32,">":33,"?":34,"@":35,"A":36,"B":37,"C":38,"D":39,"E":40,"F":41,"G":42,"H":43,"I":44,"J":45,"K":46,"L":47,"M":48,"N":49,"O":50,"P":51,"Q":52,"R":53,"S":54,"T":55,"U":56,"V":57,"W":58,"X":59,"Y":60,"Z":61,"[":62,"\\":63,"]":64,"^":65,"_":66,"`":67,"a":68,"b":69,"c":70,"d":71,"e":72,"f":73,"g":74,"h":75,"i":76,"j":77,"k":78,"l":79,"m":80,"n":81,"o":82,"p":83,"q":84,"r":85,"s":86,"t":87,"u":88,"v":89,"w":90,"x":91,"y":92,"z":93,"{":94,"|":95,"}":96,"~":97,"¡":98,"¢":99,"£":100,"¤":101,"¥":102,"¦":103,"§":104,"¨":105,"©":106,"ª":107,"«":108,"¬":109,"®":110,"¯":111,"°":112,"±":113,"²":114,"³":115,"´":116,"µ":117,"¶":118,"·":119,"¸":120,"¹":121,"º":122,"»":123,"¼":124,"½":125,"¾":126,"¿":127,"À":128,"Á":129,"Â":130,"Ã":131,"Ä":132,"Å":133,"Æ":134,"Ç":135,"È":136,"É":137,"Ê":138,"Ë":139,"Ì":140,"Í":141,"Î":142,"Ï":143,"Ð":144,"Ñ":145,"Ò":146,"Ó":147,"Ô":148,"Õ":149,"Ö":150,"×":151,"Ø":152,"Ù":153,"Ú":154,"Û":155,"Ü":156,"Ý":157,"Þ":158,"ß":159,"à":160,"á":161,"â":162,"ã":163,"ä":164,"å":165,"æ":166,"ç":167,"è":168,"é":169,"ê":170,"ë":171,"ì":172,"í":173,"î":174,"ï":175,"ð":176,"ñ":177,"ò":178,"ó":179,"ô":180,"õ":181,"ö":182,"÷":183,"ø":184,"ù":185,"ú":186,"û":187,"ü":188,"ý":189,"þ":190,"ÿ":191,"Ā":192,"ā":193,"Ă":194,"ă":195,"Ą":196,"ą":197,"Ć":198,"ć":199,"Ĉ":200,"ĉ":201,"Ċ":202,"ċ":203,"Č":204,"č":205,"Ď":206,"ď":207,"Đ":208,"đ":209,"Ē":210,"ē":211,"Ĕ":212,"ĕ":213,"Ė":214,"ė":215,"Ę":216,"ę":217,"Ě":218,"ě":219,"Ĝ":220,"ĝ":221,"Ğ":222,"ğ":223,"Ġ":224,"ġ":225,"Ģ":226,"ģ":227,"Ĥ":228,"ĥ":229,"Ħ":230,"ħ":231,"Ĩ":232,"ĩ":233,"Ī":234,"ī":235,"Ĭ":236,"ĭ":237,"Į":238,"į":239,"İ":240,"ı":241,"Ĳ":242,"ĳ":243,"Ĵ":244,"ĵ":245,"Ķ":246,"ķ":247,"ĸ":248,"Ĺ":249,"ĺ":250,"Ļ":251,"ļ":252,"Ľ":253,"ľ":254,"Ŀ":255,"ŀ":256,"Ł":257,"ł":258,"Ń":259,"Ġt":260,"he":261,"Ġa":262,"čĊ":263,"in":264,"Ġo":265,"Ġthe":266,"re":267,"Ġw":268,"er":269,"Ġs":270,"on":271,"at":272,"nd":273,"is":274,"Ġof":275,"it":276,"Ġb":277,"en":278,"es":279,"Ġc":280,"Ġm":281,"Ġp":282,"Ġto":283,"ed":284,"or":285,"Ġf":286,"Ġand":287,"ing":288,"an":289,"ou":290,"Ġin":291,"Ġh":292,"Ġth":293,"al":294,"ic":295,"ar":296,"Ġd":297,"ion":298,"Ġn":299,"**":300,"as":301,"le":302,"om":303,"Ġbe":304,"Ġe":305,"se":306,"Ġwh":307,"ot":308,"ly":309,"st":310,"Ġis":311,"ce":312,"ll":313,"ct":314,"ent":315,"ut":316,"ve":317,"Ġl":318,"im":319,"Ġre":320,"Ġor":321,"Ġthat":322,"Ġg":323,"Ġ(":324,"Ġit":325,"Ġas":326,"ow":327,"ir":328,"id":329,"Ġu":330,"her":331,"ĠT":332,".)":333,"ver":334,".):":335,"Ġon":336,"ur":337,"Ġfor":338,"Ġan":339,"ich":340,"Ġha":341,"ith":342,"et":343,"ĠI":344,"Ġhe":345,"ro":346,"ld":347,"Ġcon":348,"ig":349,"ĠA":350,"Ġnot":351,"Ġwhich":352,"ay":353,"ch":354,"if":355,"Ġwith":356,"ation":357,"Ġwe":358,"ain":359,"ess":360,"us":361,"Ġby":362,"od":363,"am":364,"ad":365,"th":366,"ul":367,"Ġsu":368,"il":369,"ter":370,"ity":371,"Ġare":372,"pe":373,"Ġex":374,"Ġfr":375,"Ġst":376,"Ġhis":377,"ore":378,"os":379,"the":380,"qu":381,"ĠThe":382,"and":383,"ht":384,"iv":385,"ill":386,"ate":387,"ble":388,"ist":389,"ol":390,"ĠS":391,"em":392,"ra":393,"ure":394,"Ġy":395,"âĢ":396,"ak":397,"Ġse":398,"Ġthey":399,"ould":400,"ci":401,"Ġfrom":402,"Ġso":403,"Ġwho":404,"ge":405,"Ġv":406,"ous":407,"est":408,"Ġall":409,"Ġat":410,"um":411,"Ġde":412,"Ġhave":413,"Ġman":414,"Ġbut":415,"Ġthis":416,"all":417,"pp":418,"ive":419,"Ġpro":420,"Ġsh":421,"ect":422,"Ġcom":423,"ther":424,"res":425,"Ġthem":426,"Ġwas":427,"Ġtheir":428,"sel":429,"ust":430,"Ġr":431,"ere":432,"to":433,"ĠC":434,"ant":435,"Ġal":436,"Ġone":437,"ers":438,"ac":439,"Ġk":440,"our":441,"ind":442,"Ġwhe":443,"nt":444,"ies":445,"Ġne":446,"op":447,"ence":448,"Ġhim":449,"art":450,"oug":451,"ight":452,"ose":453,"ie":454,"Ġother":455,"ĠP":456,"ome":457,"ĠB":458,"ame":459,"ions":460,"pt":461,"per":462,"reat":463,"Ġtr":464,"ment":465,"Ġdo":466,"Ġthere":467,"ĠH":468,"Ġno":469,"ard":470,"Ġme":471,"very":472,"Ġch":473,"Ġany":474,"Ġwor":475,"tain":476,"un":477,"Ġgo":478,"Ġun":479,"able":480,"ff":481,"Ġim":482,"ort":483,"Ġwill":484,"Ġle":485,"Ġup":486,"ag":487,"ally":488,"ong":489,"self":490,"Ġpr":491,"ance":492,"el":493,"cc":494,"Ġcan":495,"ĠO":496,"Ġyou":497,"ide":498,"pl":499,"ast":500,"ans":501,"Ġus":502,"out":503,"Ġ.":504,"ud":505,"ings":506,"ĠW":507,"Ġhas":508,"Ġdis":509,"ost":510,"Ġmore":511,"Ġar":512,"ue":513,"Ġper":514,"ound":515,"ri":516,"Ġab":517,"Ġwhat":518,"ĠM":519,"Ġob":520,"Ġif":521,"con":522,"ĠF":523,"red":524,"now":525,"--":526,"Ġour":527,"Ġpl":528,"Ġits":529,"ine":530,"ab":531,"of":532,"Ġpart":533,"so":534,"ĠG":535,"Ġwhen":536,"Ġmay":537,"Ġhad":538,"ke":539,"ough":540,"act":541,"ject":542,"Ġwere":543,"Ġthan":544,"ap":545,"au":546,"ake":547,"av":548,"ass":549,"ary":550,"Ġonly":551,"Ġad":552,"Ġj":553,"ice":554,"ical":555,"Ġwould":556,"Ġgreat":557,"one":558,"nder":559,"fore":560,"Ġnat":561,"ĠE":562,"Ġqu":563,"Ġact":564,"ish":565,"ree":566,"Ġbeing":567,"Ġen":568,"Ġthose":569,"Ġsome":570,"Ġev":571,"ire":572,"ition":573,"ens":574,"Ġcont":575,"are":576,"ĠL":577,"ry":578,"ne":579,"ness":580,"ord":581,"Ġli":582,"Ġ_":583,"Ġmy":584,"ace":585,"Ġknow":586,"Ġcons":587,"ĠTh":588,"Ġsuch":589,"Ġinto":590,"wn":591,"Ġag":592,"ise":593,"Ġfe":594,"Ġsa":595,"ple":596,"other":597,"ĠTo":598,"og":599,"uch":600,"ated":601,"Ġupon":602,"Ġsp":603,"ces":604,"ign":605,"Ġbeen":606,"Ġmen":607,"wh":608,"ime":609,"Ġform":610,"te":611,"Ġind":612,"ĠN":613,"ite":614,"Ġthese":615,"Ġcomm":616,"ves":617,"ult":618,"ount":619,"ade":620,"oc":621,"not":622,"be":623,"iff":624,"ious":625,"Ġsub":626,"ause":627,"Ġbec":628,"ress":629,"pos":630,"Ġout":631,"hing":632,"we":633,"du":634,"ĠBut":635,"Ġalso":636,"Ġgood":637,"age":638,"ason":639,"ays":640,"Ġshould":641,"ĠIt":642,"Ġ\"":643,"bl":644,"ang":645,"Ġam":646,"Ġspe":647,"Ġsame":648,"Ġgr":649,"ĠR":650,"aw":651,"ations":652,"ove":653,"Ġacc":654,"ĠD":655,"Ġgen":656,"for":657,"cl":658,"ife":659,"Ġown":660,"Ġpre":661,"ach":662,"Ġmust":663,"iz":664,"ee":665,"ible":666,"ok":667,"ought":668,"ual":669,"ertain":670,"hy":671,"Ġdes":672,"cess":673,"The":674,"ĠAnd":675,"Ġunder":676,"hed":677,"irst":678,"ber":679,"Ġthings":680,"Ġpe":681,"ĠIn":682,"Ġ1":683,"ful":684,"cept":685,"itt":686,"Ġtime":687,"ase":688,"Ġide":689,"ower":690,"led":691,"resent":692,"ial":693,"Ġevery":694,"ied":695,"Ġtw":696,"ither":697,"ru":698,"'s":699,"ip":700,"Ġrel":701,"Ġint":702,"int":703,"Ġlike":704,"Ġcall":705,"Ġvery":706,"Ġres":707,"Ġmost":708,"ory":709,"Ġdiff":710,"uth":711,"ving":712,"Ġbr":713,"âĢĶ":714,"ars":715,"Ġsaid":716,"selves":717,"ates":718,"Ġwithout":719,"âĢľ":720,"Ġthen":721,"ction":722,"Ġhow":723,"ily":724,"Ġnature":725,"ty":726,"Ġimp":727,"Ġsay":728,"Ġpo":729,"ink":730,"Ġpers":731,"oss":732,"âĢĿ":733,"Ġfirst":734,"Ġlife":735,"ian":736,"hen":737,"Ġapp":738,"Ġreason":739,"ality":740,"Ġem":741,"Ġbet":742,"fter":743,"ood":744,"Ġcl":745,"ict":746,"ath":747,"Ġmind":748,"ĠFor":749,"Ġagain":750,"that":751,"Ġmuch":752,"ile":753,"nds":754,"Ġmade":755,"atter":756,"erm":757,"ex":758,"Ġmake":759,"Ġdist":760,"oth":761,"hil":762,"Ġgener":763,"Ġwhere":764,"Ġhimself":765,"ular":766,"Ġobject":767,"omet":768,"âĢĻ":769,"urn":770,"ib":771,"ract":772,"ered":773,"ced":774,"Ġtwo":775,"Ġbod":776,"Ġmany":777,"oll":778,"Ġlaw":779,"Ġanother":780,"ved":781,"own":782,"Ġsee":783,"Ġrem":784,"ia":785,"ook":786,"oy":787,"der":788,"ople":789,"Ġeven":790,"ward":791,"ave":792,"vers":793,"Ġperson":794,"Ġcomp":795,"ĠSee":796,"ĠHe":797,"Ġoff":798,"ffect":799,"ors":800,"Ġstate":801,"Ġinf":802,"ĠGod":803,"Ġinst":804,"less":805,"Ġap":806,"ĠâĢľ":807,"Ġrep":808,"ism":809,"Ġbel":810,"Ġpass":811,"Ġover":812,"hes":813,"inci":814,"Ġte":815,"Ġher":816,"Ġfl":817,"pect":818,"ner":819,"Ġreg":820,"ather":821,"ever":822,"ities":823,"ents":824,"Ġposs":825,"ng":826,"lect":827,"ack":828,"Ġafter":829,"nce":830,"su":831,"Ġitself":832,"Ġpower":833,"old":834,"cy":835,"asure":836,"Ġ,":837,"ense":838,"Ġsupp":839,"Ġcertain":840,"Ġworld":841,"Ġjust":842,"Ġthr":843,"Ġpeople":844,"Ġshall":845,"ute":846,"Ġend":847,"Ġnow":848,"ific":849,"com":850,"Ġbecause":851,"osop":852,"Ġyet":853,"ĠCh":854,"ph":855,"hilosop":856,"Ġhum":857,"ived":858,"Ġyour":859,"Ġcould":860,"ater":861,"Ġnor":862,"Ġatt":863,"Ġcalled":864,"ug":865,"Ġhaving":866,"Ġtherefore":867,"ledge":868,"li":869,"over":870,"its":871,"Ġdiffere":872,"Ġple":873,"Ġchar":874,"Ġgiv":875,"Ġexp":876,"Ġwr":877,"peri":878,"which":879,"Ġexist":880,"Ġword":881,"Ġi":882,"Ġabout":883,"ks":884,"les":885,"Ġac":886,"ser":887,"ĠAn":888,"Ġop":889,"Ġlong":890,"Ġwell":891,"pro":892,"ning":893,"Ġser":894,"Ġbl":895,"Ġappe":896,"aking":897,"Ġnever":898,"Ġfar":899,"form":900,"iness":901,"Ġthought":902,"als":903,"eth":904,"Ġthemselves":905,"Ġnecess":906,"ild":907,"Ġbefore":908,"ural":909,"Ġkind":910,"Ġthink":911,"ep":912,"Ġent":913,"Ġart":914,"Ġcannot":915,"Ġothers":916,"Ġprinci":917,"ius":918,".\"":919,"Ġsomet":920,"Ġpresent":921,"imes":922,"Ġcommon":923,"Ġway":924,"get":925,"ished":926,"ative":927,"Ġbody":928,"ians":929,"Ġ--":930,"Ġdoes":931,"ollow":932,"Ġsy":933,"Ġdisc":934,"ubl":935,"thing":936,"me":937,"Ġnothing":938,"ility":939,"Ġdef":940,"ix":941,"with":942,"irt":943,"ating":944,"Ġplace":945,"Ġconsid":946,"Ġpur":947,"Ġthing":948,"ond":949,"Ġcount":950,"here":951,"Ġuse":952,"ven":953,"sh":954,"Ġmight":955,"man":956,"ety":957,"Ġright":958,"ivid":959,"Ġwhole":960,"ince":961,"Ġra":962,"ten":963,"cre":964,"ief":965,"Ġhuman":966,"up":967,"Ġthough":968,"ways":969,"Ġprodu":970,"ĠOne":971,"Ġstr":972,"Ġfound":973,"tern":974,"Ġmor":975,"Ġref":976,"Ġro":977,"Ġsm":978,"Ġagainst":979,"ution":980,"ween":981,"oul":982,"ail":983,"Ġye":984,"Ġhapp":985,"Ġboth":986,"Ġconf":987,"Ġseem":988,"ĠThis":989,"uc":990,"ently":991,"ĠJ":992,"Ġused":993,"Ġext":994,"ark":995,"stand":996,"ick":997,"Ġ2":998,"Ġtrue":999,"de":1000,"Ġsubject":1001,"Ġphilosop":1002,"pr":1003,"ined":1004,"edi":1005,"Ġeither":1006,"read":1007,"hat":1008,"Ġorder":1009,"Ġknowledge":1010,"Ġcor":1011,"ublic":1012,"Ġfind":1013,"Ġthrough":1014,"Ġless":1015,"Ġsuff":1016,"Ġsc":1017,"Ġfollow":1018,"Ġmanner":1019,"Ġes":1020,"Ġdid":1021,"Ġadv":1022,"ments":1023,"rib":1024,"_,":1025,"Ġgeneral":1026,"Ġca":1027,"ittle":1028,"Ġshe":1029,"Ġass":1030,"Ġocc":1031,"Ġear":1032,"ĠV":1033,"Ġalways":1034,"Ġmatter":1035,"Ġconst":1036,"Ġpartic":1037,"by":1038,"Ġhig":1039,"Ġbetween":1040,"Ġcol":1041,"rist":1042,"taining":1043,"Ġgover":1044,"Ġcond":1045,"Ġtoo":1046,"ually":1047,"akes":1048,"ances":1049,"acter":1050,"Ġrest":1051,"Ġequ":1052,"ording":1053,"Ġeach":1054,"Ġjud":1055,"Ġdifferent":1056,"Ġmeans":1057,"Ġproper":1058,"ull":1059,"ted":1060,"Ġcar":1061,"cer":1062,"rom":1063,"Ġgive":1064,"Ġvirt":1065,"Ġlet":1066,"Ġgovern":1067,"Ġnum":1068,"Ġtake":1069,"erest":1070,"ĠOf":1071,"Ġsl":1072,"Ġwar":1073,"Ġtruth":1074,"his":1075,"ives":1076,"ons":1077,"ren":1078,"Ġmere":1079,"Ġsoul":1080,"Ġfact":1081,"Ġwhom":1082,"ude":1083,"ob":1084,"Ġopp":1085,"Ġsim":1086,"Ġset":1087,"Ġrec":1088,"Ġfrie":1089,"Ġinde":1090,"ics":1091,"Ġinv":1092,"Ġval":1093,"ange":1094,"fect":1095,"ope":1096,"Ġcontr":1097,"Ġest":1098,"Ġput":1099,"Ġstill":1100,"cond":1101,"Ġwork":1102,"gether":1103,"Ġlittle":1104,"Ġnatural":1105,"Ġcr":1106,"Ġamong":1107,"Ġpoint":1108,"Ġmod":1109,"air":1110,"Ġbeg":1111,"Ġnew":1112,"ĠIf":1113,"Ġname":1114,"Ġdet":1115,"ited":1116,"),":1117,"tend":1118,"und":1119,"Ġthus":1120,"ples":1121,"Ġmean":1122,"Ġsmall":1123,"Ġideas":1124,"II":1125,"ants":1126,"Ġsens":1127,"Ġidea":1128,"Ġsoci":1129,"Ġaw":1130,"ination":1131,"tr":1132,"Ġcase":1133,"ceed":1134,"Ġconsider":1135,"Ġeffect":1136,"Ġregard":1137,"Ġadm":1138,"itions":1139,"aken":1140,"ax":1141,"Ġco":1142,"ividual":1143,"pre":1144,"ourse":1145,"ĠWe":1146,".âĢĿ":1147,"ident":1148,"iss":1149,"Ġarm":1150,",\"":1151,"Ġsense":1152,"Ġfeel":1153,"olog":1154,"ention":1155,"lf":1156,"ides":1157,"vel":1158,"perience":1159,"In":1160,"Ġcome":1161,"Ġinter":1162,"sequ":1163,"omen":1164,"ception":1165,"Ġwhile":1166,"ts":1167,"cul":1168,"Ġaff":1169,"mon":1170,"ught":1171,"Ġimm":1172,"Ġgiven":1173,"cies":1174,"ĠY":1175,"cious":1176,"uthor":1177,"ature":1178,"Ġcharacter":1179,"Ġcountry":1180,"Ġparticular":1181,"pend":1182,"Ġdiv":1183,"Ġabs":1184,"Ġever":1185,"Ġprop":1186,"irit":1187,"ene":1188,"Ġwhether":1189,"Ġhand":1190,"Ġ3":1191,"ici":1192,"ĠSt":1193,"ines":1194,"Ġopin":1195,"att":1196,"par":1197,"Ġcause":1198,"Ġins":1199,"adv":1200,"HE":1201,"Ġinterest":1202,"Ġtrans":1203,"ged":1204,"Ġwords":1205,"any":1206,"ĠThey":1207,"Ġgl":1208,"ised":1209,"ages":1210,"Ġhowever":1211,"Ġpres":1212,"aving":1213,"alth":1214,"Ġread":1215,"Ġpleasure":1216,"Ġhon":1217,"ivers":1218,"Ġsur":1219,"ĠAs":1220,"ote":1221,"Ġself":1222,"iew":1223,"hys":1224,"Ġcap":1225,"wards":1226,"Ġvar":1227,"mer":1228,"Ġel":1229,"Ġoften":1230,"ceived":1231,"TE":1232,"Ġexam":1233,"ains":1234,"ting":1235,"Ġpublic":1236,"Ġfam":1237,"Ġ'":1238,"Ġought":1239,"Ġret":1240,"arch":1241,"ft":1242,"Ġbetter":1243,"Ġlove":1244,"Ġgreater":1245,"Ġmot":1246,"ceive":1247,"Ġday":1248,"Ġdire":1249,"iving":1250,"ned":1251,"inct":1252,"Ġsomething":1253,"row":1254,"Ġaccording":1255,"Ġlar":1256,"lat":1257,"err":1258,"Ġexpress":1259,"ired":1260,"Ġshow":1261,"ods":1262,"ec":1263,"them":1264,"Ġobser":1265,"igin":1266,"Ġbest":1267,"Ġcle":1268,"Ġdem":1269,"most":1270,"Ġpract":1271,"end":1272,"Ġreal":1273,"app":1274,"part":1275,"Ġhere":1276,"sem":1277,"ately":1278,"irc":1279,"Ġindividual":1280,"Ġappear":1281,"Ġlast":1282,"aster":1283,"Ġunderstand":1284,"osed":1285,"Ġet":1286,"Ġdeath":1287,"uty":1288,"..":1289,"Ġlight":1290,"Ġneed":1291,"Ġevil":1292,"Ġold":1293,"ternal":1294,"Ġ[":1295,"then":1296,"Ġrather":1297,"ird":1298,"Ġstand":1299,"Ġquest":1300,"Ġvirtue":1301,"ĠK":1302,"ences":1303,"Ġexperience":1304,"ont":1305,"Ġdown":1306,"know":1307,"Ġsent":1308,"Ġfre":1309,"cience":1310,"empt":1311,"ĠThere":1312,"Ġadd":1313,"Ġgu":1314,"ared":1315,"Ġrequ":1316,"Ġcaus":1317,"Ġsubst":1318,"Ġthree":1319,"they":1320,"Ġrelig":1321,"stem":1322,"ĠU":1323,"land":1324,"Ġonce":1325,"But":1326,".,":1327,"Ġmoral":1328,"ases":1329,"ins":1330,"ouse":1331,"Ġcontin":1332,"poss":1333,"Ġeas":1334,"Ġchild":1335,"inite":1336,"cons":1337,"lu":1338,"Ġpertaining":1339,"ists":1340,"aps":1341,"Ġauthor":1342,"Ġview":1343,"ck":1344,"Ġlaws":1345,"Ġbecome":1346,"ement":1347,"icult":1348,"Ġaccount":1349,"Ġaction":1350,"Ġlook":1351,"Ġwhose":1352,"Ġparts":1353,"rates":1354,"ures":1355,"Ġsince":1356,"Ġanim":1357,"Ġdr":1358,"men":1359,"Ġgovernment":1360,"Ġnumber":1361,"Ġturn":1362,"And":1363,"ploy":1364,"ool":1365,"sw":1366,"oub":1367,"Ġrespect":1368,"tained":1369,"Ġfree":1370,"ior":1371,"Ġnecessary":1372,"Ġking":1373,"Ġconcer":1374,"Ġfore":1375,"aid":1376,"Ġprof":1377,"dom":1378,"ock":1379,"Ġdone":1380,"Ġterm":1381,"Ġincl":1382,"Ġjudg":1383,"eness":1384,"Ġbelie":1385,"Ġpossess":1386,"their":1387,"oura":1388,"Ġey":1389,"aug":1390,"ained":1391,"olit":1392,"Ġenem":1393,"peci":1394,"isf":1395,"str":1396,"rop":1397,"ub":1398,"ii":1399,"Ġaway":1400,"orn":1401,"Ġlear":1402,"Ġindeed":1403,"Ġimag":1404,"position":1405,"Ġcity":1406,"Ġpossible":1407,"abl":1408,"Ġtogether":1409,"Ġformer":1410,"Ġspeak":1411,"Ġsort":1412,"Ġexistence":1413,"Ġsign":1414,"Ġobjects":1415,"Ġspirit":1416,"Ġdeg":1417,"yr":1418,"Ġpain":1419,"Ġill":1420,"Ġorigin":1421,"oman":1422,"ament":1423,"posed":1424,"just":1425,"Ġed":1426,"Ġmem":1427,"Ġdra":1428,"Ġperfect":1429,"duct":1430,"Ġfall":1431,"Ġcomple":1432,"oun":1433,"Ġbook":1434,"this":1435,"Ġconsequ":1436,"ae":1437,"une":1438,"ably":1439,"oid":1440,"ize":1441,"ency":1442,"ĠThat":1443,"Ġsystem":1444,"there":1445,"Ġmar":1446,"ale":1447,"Ġfriends":1448,"ument":1449,"Ġquality":1450,"Ġanything":1451,"cur":1452,"ational":1453,"aced":1454,"ises":1455,"Ġele":1456,"from":1457,"Ġmet":1458,"Ġdeterm":1459,"wise":1460,"what":1461,"Ġemploy":1462,"but":1463,"âĢĲ":1464,"ĠWhen":1465,"Ġsays":1466,"Ġprinciple":1467,"pecially":1468,"wor":1469,"Ġtaken":1470,"ues":1471,"irm":1472,"Ġansw":1473,"Ġsever":1474,"Ġopinion":1475,"Ġrepresent":1476,"Ġearth":1477,"have":1478,"cient":1479,"Ġtem":1480,"haps":1481,"ready":1482,"aring":1483,"iver":1484,"Ġord":1485,"Ġaffect":1486,"Ġcirc":1487,"ric":1488,"Ġlab":1489,"ss":1490,"ON":1491,"fe":1492,"ized":1493,"Ġsecond":1494,"ogn":1495,"eep":1496,"Ġwant":1497,".;":1498,"ours":1499,"ĠSo":1500,"Ġmakes":1501,"use":1502,"pose":1503,"Ġetc":1504,"Ġappl":1505,"Ġserv":1506,"Ġland":1507,"Ġstre":1508,"ium":1509,"ision":1510,".]":1511,"oot":1512,"Ġabove":1513,"br":1514,"dis":1515,"Ġprov":1516,"Ġmain":1517,"arly":1518,"Ġdirect":1519,"lig":1520,"Ġback":1521,"Ġlarge":1522,"rit":1523,"ortion":1524,"atic":1525,"Ġneither":1526,"oney":1527,"ger":1528,"ield":1529,"Ġquestion":1530,"ier":1531,"olute":1532,"Ġforce":1533,"itude":1534,"ĠWhat":1535,"ices":1536,"hip":1537,"Ġprev":1538,"ccess":1539,"Ġfa":1540,"ased":1541,"Ġphilosophy":1542,"asion":1543,"Ġside":1544,"angu":1545,"Ġyears":1546,"Ġmon":1547,"ters":1548,"bit":1549,"den":1550,"Ġsometimes":1551,"It":1552,"ried":1553,"Ġexpl":1554,"Ġlive":1555,"uous":1556,"ustom":1557,"Ġru":1558,"Ġleast":1559,"Ġut":1560,"Ġfur":1561,"him":1562,"inary":1563,"Ġbea":1564,"Ġcare":1565,"Ġfort":1566,"Ġable":1567,"Ġ4":1568,"**:":1569,"Ġask":1570,"ĠChrist":1571,"Ġcondition":1572,"Ġhard":1573,"Ġhead":1574,"Ġconstit":1575,"igh":1576,"Ġsing":1577,"IN":1578,"cri":1579,"Ġcame":1580,"Ġsat":1581,"Ġess":1582,"ern":1583,"Ġespecially":1584,"Ġimport":1585,"Ġmerely":1586,"Ġdifficult":1587,"Ġlo":1588,"gr":1589,"Ġspecies":1590,"anger":1591,"Ġhold":1592,"itted":1593,"will":1594,"ys":1595,"Ġground":1596,"ened":1597,"._":1598,"Ġdesire":1599,"Ġpriv":1600,"ying":1601,"Ġdoub":1602,"Ġdest":1603,"Ġdel":1604,"mp":1605,"oint":1606,"ering":1607,"Ġtreat":1608,"Ġseveral":1609,"Ġcur":1610,"Ġheav":1611,"vol":1612,"ruct":1613,"Ġtimes":1614,"Ġdec":1615,"Ġmis":1616,"Ġacqu":1617,"Ġcommand":1618,"like":1619,"ires":1620,"Ġinc":1621,"iter":1622,"Ġwater":1623,"Ġprinciples":1624,"Ġtra":1625,"Ġpersons":1626,"usion":1627,"Ġir":1628,").":1629,"ell":1630,"ank":1631,"ĠEng":1632,"itiz":1633,"Ġsil":1634,"Ġleg":1635,"Ġelse":1636,"who":1637,"Ġmo":1638,"ingu":1639,"ison":1640,"Ġcontrary":1641,"atever":1642,"Ġclass":1643,"Ġseems":1644,"tic":1645,"Ġcourse":1646,"pir":1647,"cing":1648,"ead":1649,"Ġalone":1650,"ĠHaving":1651,"Ġfew":1652,"Ġpure":1653,"Ġalready":1654,"Ġstrong":1655,"Ġlim":1656,"Ġkeep":1657,"ane":1658,"erence":1659,"erc":1660,"uted":1661,"Ġarg":1662,"nect":1663,"Ġphys":1664,"Ġwis":1665,"where":1666,"osition":1667,"tell":1668,"ery":1669,"though":1670,"Ġmag":1671,"arily":1672,"Ġvalue":1673,"ury":1674,"gan":1675,"Ġwithin":1676,"iol":1677,"ĠGree":1678,"Ġsk":1679,"ĠPlat":1680,"under":1681,"Ġimmedi":1682,"ified":1683,"Ġhigh":1684,"Ġsociety":1685,"RA":1686,"Ġbrought":1687,"ener":1688,"Ġfear":1689,"Ġallow":1690,"unt":1691,"Ġpar":1692,"Ġche":1693,"Ġhar":1694,"ctr":1695,"gg":1696,"Ġmaking":1697,"ption":1698,"icient":1699,"ured":1700,"Ġperhaps":1701,"Ġconduct":1702,"Ġfour":1703,"ets":1704,"Ġbelong":1705,"possible":1706,"alse":1707,"Ġsac":1708,"Ġheart":1709,"ology":1710,"Ġlead":1711,"ibility":1712,"Ġmoney":1713,"Ġmeth":1714,"Ġjustice":1715,"Th":1716,"Ġhist":1717,"Ġgods":1718,"ew":1719,"ĠAr":1720,"Ġscience":1721,"Ġknown":1722,"Ġrelation":1723,"Ġbad":1724,"sy":1725,"Ġworth":1726,"Ġfull":1727,"Ġcent":1728,"Ġproceed":1729,"Ġsuccess":1730,"kind":1731,"was":1732,"ocrates":1733,"aves":1734,"aterial":1735,"Ġunivers":1736,"Ġbegin":1737,"Ġresult":1738,"meric":1739,"ousand":1740,"Ch":1741,"Ġgenus":1742,"Ġauthority":1743,"alk":1744,"Ġbre":1745,"reg":1746,"cont":1747,"Ġden":1748,"sembl":1749,"Ġder":1750,"sc":1751,"ges":1752,"ling":1753,"ĠX":1754,"Ġenough":1755,"Ġfamily":1756,"Ġleft":1757,"Ġgrow":1758,"Ġbring":1759,"ising":1760,"Ġlangu":1761,"Ġbeh":1762,"uring":1763,"ĠNot":1764,"Ġreturn":1765,"Ġliber":1766,"ĠCon":1767,"Ġdoubt":1768,"Ġbus":1769,"Ġstud":1770,"antage":1771,"Ġconsist":1772,"rel":1773,"Ġpurpose":1774,"Ġenemy":1775,"Ġsw":1776,"itive":1777,"Ġbene":1778,"HA":1779,"iar":1780,"oly":1781,"Ġhor":1782,"Ġchief":1783,"Ġarr":1784,"Ġproduce":1785,"iment":1786,"Ġbu":1787,"Ġsoon":1788,"Ġyoung":1789,"ounds":1790,"amp":1791,"ony":1792,"âĢĺ":1793,"oice":1794,"Ġ&":1795,"Ġhands":1796,"Ġrul":1797,"Ġshort":1798,"llow":1799,"Ġseen":1800,"Ġx":1801,"Ġage":1802,"Ġmin":1803,"Ġprocess":1804,"Ġprom":1805,"Ġgreatest":1806,"Ġopen":1807,"yond":1808,"umst":1809,"iting":1810,"Ġestabl":1811,"idence":1812,"Ġhy":1813,"Ġ.;":1814,"owers":1815,"Ġfac":1816,"cial":1817,"ames":1818,"Ġmeasure":1819,"bers":1820,"Ġmyself":1821,"Ġinflu":1822,"Ġphilosopher":1823,"Ġfav":1824,"Ġourselves":1825,"istic":1826,"ĠEur":1827,"tellig":1828,"Ġpolit":1829,"Ġchildren":1830,"ĠAmeric":1831,"Ġactions":1832,"ev":1833,"rem":1834,"alities":1835,"ca":1836,"Ġcreat":1837,"Ġhappiness":1838,"Ġdev":1839,"iety":1840,"Ġmus":1841,"Ġdegree":1842,"Ġav":1843,"Ġchange":1844,"Ġsubstance":1845,"ert":1846,"no":1847,"can":1848,",âĢĿ":1849,"Ġmer":1850,"ellect":1851,"Ġabsolute":1852,"orm":1853,"Ġhouse":1854,"Ġmark":1855,"Ġbecom":1856,"xt":1857,"ites":1858,"Ġtell":1859,"Ġabst":1860,"certain":1861,"oph":1862,"Ġbelieve":1863,"Ġoccasion":1864,"âĢĲâĢĲ":1865,"do":1866,"Ġfalse":1867,"Ġreligion":1868,"AN":1869,"Ġpun":1870,"Ġcauses":1871,"ĠOF":1872,"Ġign":1873,"que":1874,"Ġcitiz":1875,"Ġconnect":1876,"ĠRe":1877,"Ġsol":1878,"arent":1879,"ipp":1880,"ĠAthen":1881,"Ġmotion":1882,"aint":1883,"ĠPlato":1884,"Ġconscious":1885,"LE":1886,"Ġsepar":1887,"Ġdistinct":1888,"undred":1889,"Ġfurther":1890,"Ġequal":1891,"ification":1892,"Ġentire":1893,"Ġ5":1894,"Ġmaster":1895,"ash":1896,"vere":1897,"Ġsold":1898,"ĠBe":1899,"bod":1900,"ĠInd":1901,"TI":1902,"Ġsatisf":1903,"ched":1904,"Ġexample":1905,"Ġappro":1906,"Ġincre":1907,"Ġforms":1908,"tended":1909,"aim":1910,"Ġget":1911,"alf":1912,"Ġreally":1913,"iction":1914,"ĠCom":1915,"Ġthousand":1916,"Ġalmost":1917,"_.":1918,"Ġ*":1919,"Ġunderstanding":1920,"cell":1921,"Ġgra":1922,"attle":1923,"Ġbar":1924,"io":1925,"THE":1926,"Ġfin":1927,"joy":1928,"mat":1929,"vation":1930,"Ġwise":1931,"ĠThus":1932,"Ġbodies":1933,"Ġdoctr":1934,"Ġdesign":1935,"Ġwhatever":1936,"ivil":1937,"Ġviol":1938,"Ġver":1939,"Ġlatter":1940,"velop":1941,"Ġoper":1942,"ishment":1943,"henomen":1944,"ator":1945,"ret":1946,"Ġarmy":1947,"ĠWh":1948,"adj":1949,"Ġthou":1950,"Ġwhy":1951,"olly":1952,"ixed":1953,"ĠTHE":1954,"ify":1955,"omin":1956,"action":1957,"Ġquant":1958,"lp":1959,"Ġbeyond":1960,"Ġmaterial":1961,"Ġeduc":1962,"ining":1963,"Ġson":1964,"pic":1965,"Ġsuper":1966,"bs":1967,"Ġneg":1968,"ication":1969,"Ġconcl":1970,"Ġsocial":1971,"used":1972,"Ġusually":1973,"Ġquite":1974,"aces":1975,"cend":1976,"Ġvol":1977,"Ġbo":1978,"ung":1979,"Ġeyes":1980,"oment":1981,"Ġpay":1982,"Ġideal":1983,"alt":1984,"Ġcustom":1985,"Ġchang":1986,"Ġpra":1987,"edom":1988,"ĠEurope":1989,"Ġsum":1990,"ĠSp":1991,"ided":1992,"Ġdistingu":1993,"Ġtowards":1994,"ĠOr":1995,"Ġexc":1996,"unity":1997,"ĠThese":1998,"Ġfriend":1999,"Ġlanguage":2000,"ĠâĢĺ":2001,"ĠAt":2002,"airs":2003,"Ġhundred":2004,"Ġgave":2005,"Ġfather":2006,"Ġeasily":2007,"This":2008,"Ġdanger":2009,"ĠNow":2010,"gress":2011,"Ġanswer":2012,"outh":2013,"Ġancient":2014,"well":2015,"Ġsea":2016,"lection":2017,"uss":2018,"ann":2019,"eng":2020,"Ġplay":2021,"ĠState":2022,"Ġsupport":2023,"let":2024,"gy":2025,"illed":2026,"Ġpast":2027,"Ġsun":2028,"ries":2029,"ĠOn":2030,"ital":2031,"ically":2032,"acc":2033,"itu":2034,"amed":2035,"Ġeff":2036,"Ġeng":2037,"Ġeverything":2038,"Ġmove":2039,"Ġdecl":2040,"Ġve":2041,"ental":2042,"Ġprob":2043,"Ġrun":2044,"ceptions":2045,"Ġhence":2046,"Ġerr":2047,"ancy":2048,"ĠSocrates":2049,"Ġtook":2050,"imate":2051,"go":2052,"Ġstreng":2053,"imin":2054,"ĠIs":2055,"Ġcircumst":2056,"pers":2057,"itable":2058,"Ġbusiness":2059,"ĠHis":2060,"Ġwrong":2061,"Ġclear":2062,"acy":2063,"rodu":2064,"Ġten":2065,"eav":2066,"Ġair":2067,"ias":2068,"Ġnecessity":2069,"Ġadvantage":2070,"Ġprivate":2071,"Ġfig":2072,"Ġliving":2073,"Ġorgan":2074,"Ġconception":2075,"ĠAl":2076,"Ġfeeling":2077,"Ġlay":2078,"Ġcal":2079,"EN":2080,"prop":2081,"hab":2082,"overed":2083,"Ġcomb":2084,"more":2085,"Ġph":2086,"Ġmeaning":2087,"utes":2088,"ĠAll":2089,"ively":2090,"Ġexerc":2091,"Ġvarious":2092,"Ġjudgment":2093,"ross":2094,"iful":2095,"Ġcomplete":2096,"fer":2097,"crib":2098,"des":2099,"Ġlonger":2100,"Ġtend":2101,"arm":2102,"Ġduty":2103,"Ġcarry":2104,"sub":2105,"Ġgives":2106,"Ġsound":2107,"ilar":2108,"perior":2109,"hest":2110,"00":2111,"rew":2112,"otion":2113,"Ġ)":2114,"Ġperform":2115,"Ġresembl":2116,"Ġconv":2117,"sp":2118,"Ġdifference":2119,"soci":2120,"US":2121,"Ġsch":2122,"athe":2123,".âĢĶ":2124,"For":2125,"ishing":2126,"Ġexpect":2127,"Ġoblig":2128,"ĠPr":2129,"Ġpeace":2130,"Ã¦":2131,"imp":2132,"cret":2133,"new":2134,"There":2135,"Ġsimple":2136,"Ġwomen":2137,"Ġproperty":2138,"Ġaccom":2139,"Ġweak":2140,"Ġspace":2141,"Ġinfluence":2142,"Ġunt":2143,"Ġsupposed":2144,"when":2145,"Ġimpossible":2146,"Ġvis":2147,"iers":2148,"por":2149,",--":2150,"az":2151,"ourage":2152,"rect":2153,"Ġmethod":2154,"Ġdivine":2155,"ĠFr":2156,"Ġrule":2157,"rees":2158,"ached":2159,"Ġenjoy":2160,"would":2161,"He":2162,"ext":2163,"nat":2164,"Ġ18":2165,"Ġ;":2166,"reason":2167,"urd":2168,"urch":2169,"ouble":2170,"Ġqualities":2171,"Ġcomes":2172,"Ġbes":2173,"Ġintellect":2174,"Ġsingle":2175,"Ġfail":2176,"ike":2177,"oud":2178,"ivity":2179,"aste":2180,"Ġpassion":2181,"Ġinclud":2182,"Ġce":2183,"Ġproportion":2184,"Ġdraw":2185,"Ġphenomen":2186,"Ġhigher":2187,"together":2188,"Ġsaying":2189,"ring":2190,"great":2191,"Ġcases":2192,"Ġinj":2193,"Ġignor":2194,"Ġexternal":2195,"ĠHow":2196,"Ġgenerally":2197,"urally":2198,"Ġmoment":2199,"ander":2200,"Ġke":2201,"plied":2202,".'":2203,"Ġsight":2204,"Ġhath":2205,"ron":2206,"iously":2207,"Ġhistory":2208,"Ġconsidered":2209,"Ġprot":2210,"Ġhelp":2211,"Ġwisdom":2212,"Ġuniversal":2213,"Ġbro":2214,"Ġintellig":2215,"ĠSame":2216,"Ġcour":2217,"uture":2218,"ĠBy":2219,"Ġpreser":2220,"Ġdepend":2221,"Ġmankind":2222,"ient":2223,"ilit":2224,"Ġbenef":2225,"If":2226,"Ġsure":2227,"ship":2228,"iet":2229,"bec":2230,"char":2231,"Ġinstr":2232,"equ":2233,"Ġhome":2234,"you":2235,"Ġbecomes":2236,"king":2237,"uit":2238,"Ġcut":2239,"ches":2240,"utions":2241,"ories":2242,"oses":2243,"RE":2244,"ĠCa":2245,"ĠDe":2246,"Ġgold":2247,"Ġthird":2248,"enty":2249,"Ġminds":2250,"ishes":2251,"my":2252,"We":2253,"Ġcivil":2254,"Ġremain":2255,"Ġquantity":2256,"Ġsufficient":2257,"Ġdesp":2258,"fully":2259,"Ġconditions":2260,"Ġagree":2261,"ĠRom":2262,"onder":2263,"bar":2264,"ech":2265,"Ġfacult":2266,"Ġwent":2267,"ability":2268,"ĠRome":2269,"Ġattempt":2270,"Ġimpro":2271,"Ġfreedom":2272,"Ġtax":2273,"ued":2274,"rupt":2275,"Ġimpress":2276,"uls":2277,"ords":2278,"Ġreceived":2279,"Ġnone":2280,"SO":2281,"Ġsle":2282,"Ġalthough":2283,"Ġbeauty":2284,"St":2285,"Ġhabit":2286,"Ġdevelop":2287,"Ġcarried":2288,",âĢĶ":2289,"Ġfortune":2290,"Ġvict":2291,"pass":2292,"yl":2293,"atch":2294,"Ġinfinite":2295,"Ġsuperior":2296,"rol":2297,"alled":2298,"Ġfire":2299,"Ġfaith":2300,"Ġsus":2301,"Ġexcept":2302,"HAP":2303,"Ġpie":2304,"ration":2305,"emon":2306,"Ġabstract":2307,"Ġstrength":2308,"diff":2309,"erable":2310,"Ġcoun":2311,"Ġstates":2312,"Ġleave":2313,"osite":2314,"TES":2315,"het":2316,"Ġann":2317,"Ġnear":2318,"upon":2319,"ĠArist":2320,"orrow":2321,"Ġaim":2322,"Ġpoet":2323,"Ġwish":2324,"ows":2325,"ards":2326,"Ġliberty":2327,"inate":2328,"Ġappears":2329,"Ġsuppose":2330,"Ġrelations":2331,"ĠNo":2332,"icate":2333,"ĠLet":2334,"ruction":2335,"Ġdoctrine":2336,"Ġyear":2337,"some":2338,"erent":2339,"ĠUn":2340,"Ġfun":2341,"Ġconcerning":2342,"Ġanimal":2343,"augh":2344,"Ġsix":2345,"mn":2346,"inter":2347,"Ġtill":2348,"itting":2349,"mb":2350,"Ġendeav":2351,"present":2352,"Ġinstance":2353,"Ġ6":2354,"Ġpop":2355,"Ġlost":2356,"ume":2357,"uments":2358,"Ġnotion":2359,"Ġant":2360,"Ġnext":2361,"aught":2362,"ades":2363,"ential":2364,"ival":2365,"What":2366,"Ġacid":2367,"reme":2368,"Ġline":2369,"Ġreality":2370,"ĠEngland":2371,"Ġblood":2372,"Ġinvol":2373,"Ġapplied":2374,"ĠZ":2375,"Ġproduced":2376,"Ġanimals":2377,"lying":2378,"oup":2379,"Ġprice":2380,"AS":2381,"Ġcontent":2382,"ĠPh":2383,"Ġcapable":2384,"fact":2385,"Ġthy":2386,"idd":2387,"those":2388,"apable":2389,"Ġ17":2390,"Ġfrequ":2391,"Ġcult":2392,"Ġty":2393,"Ġhope":2394,"Ġredu":2395,"elt":2396,"Ġsenses":2397,"Ġund":2398,"ĠAny":2399,"Ġrecogn":2400,"Ġordinary":2401,"Ġservice":2402,"Ġplain":2403,"ertaining":2404,"only":2405,"such":2406,"Ġwoman":2407,"Ġcitizens":2408,"being":2409,"gar":2410,"itation":2411,"Ġdead":2412,"jud":2413,"ounded":2414,"ms":2415,"Ġbelief":2416,".--":2417,"ifest":2418,"Ġtemper":2419,"Ġheaven":2420,"were":2421,"Ġpen":2422,"Ġmed":2423,"itten":2424,"than":2425,"Ġunto":2426,"these":2427,"Ġbur":2428,"Ġwood":2429,"Ġthoughts":2430,"Ġlabour":2431,"Ġsacr":2432,"roy":2433,"Ġgoods":2434,"perfect":2435,"ĠNor":2436,"lected":2437,"ĠQ":2438,"Ġnight":2439,"Ġsaw":2440,"Ġdemand":2441,"Ġtaking":2442,"Ġwhite":2443,"Ġhorse":2444,"Ġdisp":2445,"Ġsimilar":2446,"anch":2447,"Re":2448,"Ġfuture":2449,"antly":2450,"should":2451,"resp":2452,"Ġlow":2453,"Ġforth":2454,"ĠSuch":2455,"Ġclose":2456,"Ġeye":2457,"val":2458,"ressed":2459,"ott":2460,"Ġdoing":2461,"inction":2462,"ission":2463,"Ġterms":2464,"has":2465,"bel":2466,"Ġaffairs":2467,"hib":2468,"stit":2469,"Ġfollowing":2470,"Ġpat":2471,"fort":2472,"Ġdays":2473,"Ġinfer":2474,"Ġmeet":2475,"overn":2476,"Ġtyr":2477,"erous":2478,"ĠLaw":2479,"Ġcertainly":2480,"ER":2481,"ream":2482,"icer":2483,"Ġdeal":2484,"Ġfollows":2485,"TER":2486,"things":2487,"lex":2488,"Ġpractice":2489,"Ġeducation":2490,"Ġbird":2491,"ored":2492,"Ġcircumstances":2493,"CRA":2494,"ĠWith":2495,"That":2496,"acity":2497,"Ġexact":2498,"Ġpolitical":2499,"ĠPro":2500,"pet":2501,"body":2502,"ES":2503,"Ġcry":2504,"Ġnaturally":2505,"Ġequally":2506,"utiful":2507,"Ġotherwise":2508,"ĠChristian":2509,"leg":2510,"Ġpractical":2511,"Ġheld":2512,"Ġsitu":2513,"Ġmist":2514,"Ġoccur":2515,"When":2516,"Ġplant":2517,"Ġhalf":2518,"Ġheard":2519,"III":2520,"Ġworks":2521,"Ġentirely":2522,"CRATES":2523,"lled":2524,"Ġhighest":2525,"had":2526,"Ġspeaking":2527,"Ġtheory":2528,"hens":2529,"Ġbooks":2530,"Un":2531,"Ġdue":2532,"Ġnecessarily":2533,"iverse":2534,"uly":2535,"standing":2536,"dist":2537,"necess":2538,"ĠPertaining":2539,"Ġexcell":2540,"Ġformed":2541,"ils":2542,"Ġemployed":2543,"SOCRATES":2544,"Con":2545,"Ġship":2546,"ulation":2547,"Ġsole":2548,"aus":2549,"Ġswe":2550,"Ġimmediately":2551,"Ġwind":2552,"Ġlog":2553,"ighb":2554,"An":2555,"lict":2556,"Ġheat":2557,"Ġinqu":2558,"Ġexcl":2559,"Ġunless":2560,"Ġmult":2561,"comm":2562,"Ġreligious":2563,"Ġacts":2564,"spe":2565,"Ġpoor":2566,"Ġargument":2567,"right":2568,"Ġstri":2569,"Ġthinking":2570,"Ġhonour":2571,"Ġarms":2572,"Ġenc":2573,"Ġforeign":2574,"Ġhear":2575,"ĠSy":2576,"Ġful":2577,"Ġdise":2578,"knowledge":2579,"ister":2580,"iments":2581,"ension":2582,"ox":2583,"Ġactual":2584,"Ġmagn":2585,"face":2586,"Ġhealth":2587,"Ġpursu":2588,"Ġdiscover":2589,"ĠRoman":2590,"As":2591,"ization":2592,"ĠEx":2593,"eal":2594,"Ġtrade":2595,"cent":2596,"Ġconce":2597,"apt":2598,"without":2599,"Ġmatters":2600,"Ġcommonly":2601,"Ġconsciousness":2602,"Ġfit":2603,"urb":2604,"Ġbeginning":2605,"AL":2606,"aly":2607,"habit":2608,"Ġbattle":2609,"eds":2610,"Ġoffice":2611,"Ġtakes":2612,"Ġbear":2613,"Ġreceive":2614,"Ġasser":2615,"hood":2616,"ĠAnt":2617,"exist":2618,"cip":2619,"Ġattrib":2620,"tains":2621,"Ġnames":2622,"Ġeasy":2623,"owed":2624,"Ġproof":2625,"Ġrational":2626,"Ġavoid":2627,"aries":2628,"stood":2629,"Ġoccup":2630,"themselves":2631,"iod":2632,"may":2633,"Ġposition":2634,"ingly":2635,"Ġobtained":2636,"Ġinstead":2637,"lish":2638,"Ġfive":2639,"Ġhappy":2640,"Ġjudge":2641,"Ġgot":2642,"Ġsuffer":2643,"Ġround":2644,"ift":2645,"race":2646,"ops":2647,"Ġappearance":2648,"Ġgod":2649,"ĠYou":2650,"Ġnations":2651,"To":2652,"Ġnar":2653,"ider":2654,"ests":2655,"ĠPar":2656,"every":2657,"XX":2658,"ilt":2659,"Ġ7":2660,"Ġunity":2661,"Ġtold":2662,"Ġmusic":2663,"eem":2664,"Ġsour":2665,"Ġface":2666,"ulous":2667,"mit":2668,"Ġpecul":2669,"Ġopinions":2670,"ones":2671,"Ġindepend":2672,"Ġregarded":2673,"rest":2674,"Ġang":2675,"Ġred":2676,"gener":2677,"nature":2678,"order":2679,"Ġimagination":2680,"Ġfood":2681,"Ġfoot":2682,"Ġschool":2683,"how":2684,"uck":2685,"Ġlives":2686,"Ġreven":2687,"Ġrich":2688,"plic":2689,"Ġoriginal":2690,"co":2691,"Ġasked":2692,"ĠRomans":2693,"utation":2694,"Ġcho":2695,"rog":2696,"Ġfurn":2697,"Ġspec":2698,"Ġcolor":2699,"....":2700,"Ġdeep":2701,"Ġinn":2702,"Ġpost":2703,"verse":2704,"Ġpassions":2705,"Ġappre":2706,"Ġbas":2707,"Ġves":2708,"Ġknows":2709,"Ġattack":2710,"ls":2711,"Ġseek":2712,"Ġ8":2713,"Ġmention":2714,"appe":2715,"Ġgroup":2716,"Ġfine":2717,"aded":2718,"ibly":2719,"Ġgiving":2720,"osing":2721,"Ġeffects":2722,"bly":2723,"cure":2724,"omy":2725,"Ġdeli":2726,"Ġstudy":2727,"Ġident":2728,"Ġaccept":2729,"IS":2730,"Ġafterwards":2731,"Ġexpression":2732,"Ġremem":2733,"Ġsoldiers":2734,"De":2735,"day":2736,"Ġesp":2737,"himself":2738,"Ġimportant":2739,"Ġinstrument":2740,"Ġconsequently":2741,"ging":2742,"hand":2743,"Ġuntil":2744,"Ġfellow":2745,"enes":2746,"Ġderived":2747,"Ġattention":2748,"Ġrid":2749,"Ġenv":2750,"cript":2751,"Ġprim":2752,"Ġdifficulty":2753,"Ġnation":2754,"Ġphilosophers":2755,"ral":2756,"icism":2757,"Ġmanifest":2758,"Ġfight":2759,"Ġprogress":2760,"Ġconstitution":2761,"respond":2762,"Ġbound":2763,"happ":2764,"Ġmodern":2765,"?\"":2766,"Ġdog":2767,"Ġevident":2768,"Ġfool":2769,"Ġreplied":2770,"Ġnoble":2771,"ological":2772,"mind":2773,"comp":2774,"after":2775,"Ġways":2776,"Ġplaces":2777,"Ġestablished":2778,"Ġtown":2779,"ey":2780,"ogra":2781,"Ġphysical":2782,"empl":2783,"fl":2784,"good":2785,"Ġpowers":2786,"Ġrender":2787,"acle":2788,"Ġinterests":2789,"bet":2790,"Ġuseful":2791,"aining":2792,"Ġfield":2793,"ape":2794,"asts":2795,"Ġmass":2796,"Ġwritten":2797,"ixt":2798,"TION":2799,"into":2800,"Ġwit":2801,"Ġones":2802,"Ġpleas":2803,"Ġpersonal":2804,"ĠAmerica":2805,"philosop":2806,"enth":2807,"aching":2808,"much":2809,"Ġdistance":2810,"Ġvessel":2811,"Ġseeing":2812,"Ġrules":2813,"aff":2814,"Ġopposed":2815,"Ġcourage":2816,"Ġmemory":2817,"aj":2818,"Ġprevent":2819,"Ġyouth":2820,"Ġamb":2821,"positions":2822,"rench":2823,"ole":2824,"Ġexcess":2825,"ĠAN":2826,"object":2827,"ength":2828,"opp":2829,"ĠMar":2830,"poses":2831,"Ġrestr":2832,"ĠThen":2833,"justice":2834,"Ex":2835,"oral":2836,"cribed":2837,"Ġamount":2838,"ats":2839,"esar":2840,"Ġfixed":2841,"olic":2842,"ieve":2843,"Ġsecret":2844,"Ġguard":2845,"see":2846,"irth":2847,"axim":2848,"ĠSh":2849,"Ġdeb":2850,"Ġenter":2851,"ĠGreek":2852,"rate":2853,"Ġclaim":2854,"Ġformerly":2855,"Ġconsequence":2856,"Ġwealth":2857,"redit":2858,"Tr":2859,"ifice":2860,"amm":2861,"Ġneighb":2862,"Ġaltogether":2863,"Ġpersu":2864,"pire":2865,"Ġplants":2866,"Ġcourt":2867,"pot":2868,"hon":2869,"Ġduring":2870,"Ġwholly":2871,"Ġweight":2872,"theless":2873,"suff":2874,"Ġwonder":2875,"Ġelect":2876,"che":2877,"come":2878,"fr":2879,"Ġinstit":2880,"Ġprofess":2881,"Ġends":2882,"racy":2883,"Ġtest":2884,"Ġjoy":2885,"Ġbeautiful":2886,"ata":2887,"wealth":2888,"aged":2889,"astic":2890,"Ġemb":2891,"Ġenemies":2892,"Ġpeculiar":2893,"oke":2894,"arer":2895,"ns":2896,"Ġfair":2897,"Ġperception":2898,"Ġdiscuss":2899,"ĠEnglish":2900,"band":2901,"Ġwrit":2902,"Ġmother":2903,"Ġconqu":2904,"Ġopposite":2905,"Ġindust":2906,"Ġid":2907,"hend":2908,"Ġdistinction":2909,"Ġgoing":2910,"ivided":2911,"Ġready":2912,"Ġrepe":2913,"Ġprior":2914,"ĠDo":2915,"sych":2916,"ken":2917,"ously":2918,"Ġdep":2919,"Ġprove":2920,"Ġprotect":2921,"Ġassoci":2922,"Ġspeech":2923,"Ġsilver":2924,"ĠTr":2925,"law":2926,"aped":2927,"Ġobserve":2928,"aemon":2929,"ĠYet":2930,"Ġdark":2931,"ux":2932,"ots":2933,"because":2934,"Ġkept":2935,"Ġcountries":2936,"hether":2937,"Ġmorality":2938,"riage":2939,"Ġdeser":2940,"Ġobserved":2941,"ĠKing":2942,"Ġexec":2943,"Ġutter":2944,"Ġ16":2945,"ners":2946,"ortal":2947,"Ġdestroy":2948,"Ġbuild":2949,"ear":2950,"Ġpred":2951,"iven":2952,"Ġsymp":2953,"natural":2954,"gu":2955,"atory":2956,"Ġresol":2957,"Ġlaid":2958,"Ġquar":2959,"ĠNature":2960,"Ġfruit":2961,"Ġ19":2962,"Ġharmon":2963,"arp":2964,"ctions":2965,"Ġkinds":2966,"known":2967,"Ġsen":2968,"Ġdie":2969,"Ġplaced":2970,"Ġremark":2971,"Ġcompany":2972,"Ġtor":2973,"Ġlie":2974,"Ġjo":2975,"Ġfamil":2976,"Ġimmediate":2977,"dden":2978,"ially":2979,"oe":2980,"Ġalong":2981,"again":2982,"Ġpassed":2983,"long":2984,"Ġhonor":2985,"ĠPer":2986,"Ġconsists":2987,"Ġcommun":2988,"Ġcre":2989,"Ġinform":2990,"Ġprincip":2991,"cceed":2992,"Ar":2993,"Ġcontrad":2994,"Ġresembling":2995,"Ġdiss":2996,"ps":2997,"upp":2998,"Ġsal":2999,"ĠMan":3000,"princi":3001,"ina":3002,"Ġwife":3003,"Ġlearned":3004,"OR":3005,"been":3006,"Ġadmit":3007,"Ġscar":3008,"ggest":3009,"isc":3010,"Ġrevol":3011,"ĠSe":3012,"Ġcast":3013,"Ġled":3014,"elf":3015,"Ġintrodu":3016,"Ġremains":3017,"Ġextreme":3018,"Ġtalk":3019,"overnment":3020,"tle":3021,"Ġwall":3022,"Ġmount":3023,"ĠWhere":3024,"Ġbegan":3025,"gain":3026,"rent":3027,"Ġborn":3028,"imm":3029,"Ġassist":3030,"Ġlegis":3031,"Ġpoints":3032,"thr":3033,"Ġarts":3034,"Ġphenomena":3035,"Ġloss":3036,"Ġcapital":3037,"Ġserve":3038,"Ġextra":3039,"Ġrequire":3040,"hum":3041,"off":3042,"Ġsake":3043,"12":3044,"Ġlower":3045,"athy":3046,"Ġdivision":3047,"ĠFrance":3048,"therefore":3049,"10":3050,"ulate":3051,"acedaemon":3052,"Ġtrust":3053,"either":3054,"inst":3055,"Ġintu":3056,"Ġsudden":3057,"Ġconsisting":3058,"ask":3059,"Ġterr":3060,"cle":3061,"uties":3062,"Ġleaves":3063,"iles":3064,"Ġ9":3065,"Ġnon":3066,"Ġconceive":3067,"cor":3068,"supp":3069,"ators":3070,"nex":3071,"Pro":3072,"Ġsin":3073,"Ġinhabit":3074,"af":3075,"aled":3076,"bles":3077,"Ġexercise":3078,"Ġthee":3079,"Ġlength":3080,"Ġallowed":3081,"Ġcultiv":3082,"Ġtruly":3083,"Ġvariety":3084,"Ġparty":3085,"Ġpos":3086,"way":3087,"ĠLord":3088,"Ġhur":3089,"Ġfeet":3090,"Ġtree":3091,"Ġpossession":3092,"Ġeternal":3093,"Ġstep":3094,"Ġshown":3095,"Ġspecial":3096,"Â§":3097,"Ġsensible":3098,"Ġforces":3099,"IL":3100,"oved":3101,"ensive":3102,"Ġextent":3103,"owing":3104,"thought":3105,"ĠBrit":3106,"Ġtit":3107,"Ġplan":3108,"ocracy":3109,"Ġlearn":3110,"iddle":3111,"must":3112,"ĠHim":3113,"Ġfacts":3114,"Ġdirection":3115,"IT":3116,"aches":3117,"âĢĲâĢĲâĢĲâĢĲ":3118,"Ġessence":3119,"Ġlies":3120,"Ġyield":3121,"Ġrise":3122,"Ġuniverse":3123,"Ġ15":3124,"Ġincrease":3125,"Ġempir":3126,"Ġgent":3127,"Ġanal":3128,"Ġdelight":3129,"Ġbecame":3130,":âĢĶ":3131,"Ġcoming":3132,"car":3133,"hold":3134,"Ġbra":3135,"another":3136,"icked":3137,"Ġmut":3138,"Ġaffirm":3139,"Ġ),":3140,"orts":3141,"eration":3142,"Ġfollowed":3143,".[":3144,"cil":3145,"side":3146,"erate":3147,"anced":3148,"Ġdrink":3149,"ience":3150,"Ġsomewhat":3151,"place":3152,"Ġmyst":3153,"lling":3154,"Ġcompre":3155,"inf":3156,"curity":3157,"AR":3158,"light":3159,"isions":3160,"Ġdream":3161,"Ġcorrespond":3162,"HAPTER":3163,"Ġfault":3164,"acher":3165,"Ġpraise":3166,"inces":3167,"Ġcrit":3168,"Ġtot":3169,"icial":3170,"change":3171,"Ġnative":3172,"iation":3173,"chan":3174,"thy":3175,"Ġseries":3176,"Ġsurface":3177,"Ġerror":3178,"Ġtaste":3179,"Ġfif":3180,"Ġlikely":3181,"ĠGods":3182,"yn":3183,"inity":3184,"itself":3185,"Ġsav":3186,"others":3187,"Ġdemon":3188,"oken":3189,"conscious":3190,"Ġlearning":3191,"ĠCaesar":3192,"Ġdetermined":3193,"ĠThou":3194,"iqu":3195,"ables":3196,"Ġfigure":3197,"Ġpopular":3198,"Ġfelt":3199,"ĠHer":3200,"Ġperiod":3201,"uff":3202,"Ġcompl":3203,"Ġunderstood":3204,"ref":3205,"Ġpleasures":3206,"met":3207,"Ġimagine":3208,"Ġconvers":3209,"Ġcompar":3210,"Ġrace":3211,"ĠAmerican":3212,"usband":3213,"Ġseemed":3214,"Ġdesires":3215,"wo":3216,"icles":3217,"time":3218,"sec":3219,"ĠAp":3220,"idity":3221,"Ġprep":3222,"Ġwhereas":3223,"Ġcontaining":3224,"ush":3225,"iber":3226,"tis":3227,"ato":3228,"Ġmental":3229,"CLE":3230,"oted":3231,"Ġdisci":3232,"Ġcorrect":3233,"IV":3234,"lt":3235,"Ġhappen":3236,"iform":3237,"ĠGerm":3238,"edu":3239,"Ġesteem":3240,"atus":3241,"Ġgain":3242,"Ġcapt":3243,"Ġmode":3244,"rs":3245,"13":3246,"Ġz":3247,"Ġglory":3248,"Ġdrawn":3249,"course":3250,"Ġamongst":3251,"Ġabsurd":3252,"Ġvan":3253,"Ġpros":3254,"mod":3255,"ply":3256,"Ġperceive":3257,"Ġcomplex":3258,"uses":3259,"Ġindividuals":3260,"Ġchiefly":3261,"Ġvoice":3262,"aper":3263,"Ġbesides":3264,"power":3265,"Ġtaught":3266,"rid":3267,"say":3268,"oms":3269,"Ġquick":3270,"Ġkingdom":3271,"Gree":3272,"Ġknew":3273,"apter":3274,"Ġsituation":3275,"otle":3276,"Ġnote":3277,"Ġmaintain":3278,"Ġsucceed":3279,"set":3280,"ulus":3281,"Ġknowing":3282,"Ġintellectual":3283,"Ġincluding":3284,"Ġmir":3285,"Ġstra":3286,"Ġcold":3287,"Ġmilit":3288,"same":3289,"Ġrend":3290,"els":3291,"Ġelements":3292,"Ġtwenty":3293,"Ġpassage":3294,"Ġsubjects":3295,"Ġtouch":3296,"Ġanger":3297,"Ġrequired":3298,"Ġmeant":3299,"Ġ12":3300,"Wh":3301,"iring":3302,"Ġtrib":3303,"Ġelement":3304,"ufact":3305,"oric":3306,"ourable":3307,"Ġ{":3308,"Ġcogn":3309,"ĠLe":3310,"ceiving":3311,"Ġvain":3312,"Ġpray":3313,"Ġinstinct":3314,"Ġfriendship":3315,"Ġessential":3316,"Ġprince":3317,"Ġpreced":3318,"Com":3319,"ĠSome":3320,"exp":3321,"first":3322,"ĠIde":3323,"Ġexpense":3324,"Ġpiece":3325,"Ġparent":3326,"eterm":3327,"Ġshare":3328,"CE":3329,"RO":3330,"Ġvirtues":3331,"Ġgre":3332,"oured":3333,"Ġrank":3334,"Ġblack":3335,"aud":3336,"Ġnearly":3337,"ocr":3338,"Ġlikewise":3339,"Ġfaculty":3340,"Ġspecific":3341,"Ġmembers":3342,"Ġbless":3343,"aughter":3344,"Ġfrequently":3345,"vey":3346,"Ġfavour":3347,"Ġstru":3348,"Ġwa":3349,"Ġagre":3350,"Ġdefin":3351,"Ġiron":3352,"Ġsuggest":3353,"Ġmal":3354,"icious":3355,"Ġsqu":3356,"Ġcover":3357,"Ġfeelings":3358,"never":3359,"God":3360,"acles":3361,"Ġdisposition":3362,"Ġproperly":3363,"yle":3364,"Ġprobably":3365,"Ġsleep":3366,"Ġhat":3367,"ĠFrench":3368,"ented":3369,"aphys":3370,"Ġ10":3371,"ĠBeing":3372,"Ġmarket":3373,"cise":3374,"Ġhind":3375,"Ġlived":3376,"Ġexists":3377,"Ġaffected":3378,"Ġinferior":3379,"icular":3380,"gin":3381,"Ġmaxim":3382,"Ġtype":3383,"mitted":3384,"Ġpaid":3385,"pper":3386,"Ġdistinguished":3387,"Ġstock":3388,"icero":3389,"Ġdivided":3390,"Ġkings":3391,"ĠFrom":3392,"Ġcities":3393,"Ġmouth":3394,"ulated":3395,"Ġwherein":3396,"Ġarrang":3397,"inist":3398,"Ġlater":3399,"Ġthereby":3400,"ĠEvery":3401,"Ġproble":3402,"contr":3403,"cape":3404,"Ġassum":3405,"NI":3406,"ompe":3407,"col":3408,"Ġliter":3409,"Ġconceptions":3410,"Ġgrant":3411,"ĠHence":3412,"itate":3413,"Ġpresence":3414,"Ġcru":3415,"ÅŃ":3416,"Ġsweet":3417,"Ġactually":3418,"Ġchance":3419,"Ġconsiderable":3420,"ointed":3421,"Ġattend":3422,"Ġdisease":3423,"Ġadded":3424,"Ġseparate":3425,"jo":3426,"think":3427,"Ġbehind":3428,"lo":3429,"Ġtro":3430,"Ġmanufact":3431,"orted":3432,"Ġconsideration":3433,"iden":3434,"Ġconfess":3435,"ĠAthens":3436,"'d":3437,"Ġforward":3438,"eed":3439,"Ġworse":3440,"Ġ14":3441,"Ġimprove":3442,"Ġbeings":3443,"Ġsupre":3444,"Ġarise":3445,"Ġhardly":3446,"somet":3447,"Ġfast":3448,"Ġgar":3449,"Ġturned":3450,"zÅŃ":3451,"izing":3452,"Ġclearly":3453,"Ġworthy":3454,"ĠAND":3455,"Ġep":3456,"18":3457,"amental":3458,"Ġbirth":3459,"Ġmedi":3460,"orous":3461,"Ġsail":3462,"ties":3463,"Ġfell":3464,"world":3465,"Ġpunishment":3466,"Ġphilosoph":3467,"Ġabsolutely":3468,"Ġimportance":3469,"Ġchanged":3470,"ciences":3471,"esty":3472,"ĠCle":3473,"Ġsimply":3474,"CHAPTER":3475,"called":3476,"even":3477,"nothing":3478,"Ġ[âĢľ":3479,"Ġprofit":3480,"life":3481,"Ġur":3482,"ression":3483,"inations":3484,"Ġlabor":3485,"Ġliqu":3486,"cription":3487,"ien":3488,"ĠAm":3489,"Ġsubs":3490,"archy":3491,"ler":3492,"Ġbreak":3493,"cts":3494,"dra":3495,"14":3496,"Ġban":3497,"anim":3498,"omer":3499,"ashion":3500,"Ġunjust":3501,"Ġdefend":3502,"Ġchoice":3503,"Al":3504,"Ġevent":3505,"Ġinterpre":3506,",'":3507,"iest":3508,"iable":3509,"Ġwild":3510,"ĠLacedaemon":3511,"Ġspecul":3512,"Ġstone":3513,"Ġdepr":3514,"Ġproposition":3515,"sembly":3516,"Ġtrad":3517,"bid":3518,"Ġmathe":3519,"Ġevents":3520,"ĠThy":3521,"ignity":3522,"ah":3523,"Ġmad":3524,"ĠPhil":3525,"conf":3526,"edy":3527,"Ġfat":3528,"Ġvictory":3529,"EC":3530,"asions":3531,"Ġsource":3532,"ĠMe":3533,"Ġcorn":3534,"Ġignorance":3535,"Ġcontempt":3536,"icated":3537,"ilst":3538,"ĠGreat":3539,"Ġlose":3540,"Ġgoes":3541,"Ġnarrow":3542,"made":3543,"Ġrad":3544,"interest":3545,"Ġreference":3546,"Ġattain":3547,"Ġbelow":3548,"work":3549,"erv":3550,"Ġeight":3551,"Ġcharge":3552,"15":3553,"sue":3554,"Ġfund":3555,"Ġcondem":3556,":--":3557,"Ġspoken":3558,"Ġblind":3559,"Ġpal":3560,"Ġsyn":3561,"Ġconnected":3562,"Ġexper":3563,"Ġpowerful":3564,"Ġrights":3565,"Ġbarbar":3566,");":3567,"Ġdoth":3568,"ĠAd":3569,"Ġunf":3570,"Ġdepart":3571,"Ġpriori":3572,"play":3573,"Ġchoose":3574,"Ġconcerned":3575,"Ġfirm":3576,"pends":3577,"Ġgrad":3578,"asing":3579,"Ġunion":3580,"Ġrelated":3581,"Ġdirectly":3582,"Ġdimin":3583,"ĠPl":3584,"Ġresults":3585,"Ġcomposed":3586,"iciently":3587,"Ġshows":3588,"iii":3589,"Ġconnection":3590,"Ġpot":3591,"Ġhop":3592,"Ġda":3593,"Ġreflection":3594,"ĠReason":3595,"Ġbirds":3596,"ĠTzÅŃ":3597,"Ġconsum":3598,"Dis":3599,"ĠII":3600,"Ġresist":3601,"Ġadmir":3602,"Ġaffection":3603,"Ġsick":3604,"iry":3605,"Ġdiscourse":3606,"Ġrare":3607,"edience":3608,"Ġanswered":3609,"ha":3610,"also":3611,"ĠSc":3612,"Now":3613,"Ġaid":3614,"Ġadop":3615,"Ġspir":3616,"Pr":3617,"occ":3618,"Ġhusband":3619,"Ġ13":3620,"Ġemotion":3621,"ĠGreeks":3622,"Ġintelligence":3623,"unes":3624,"igned":3625,"Ġloc":3626,"Ġgenius":3627,"Ġinse":3628,"Ġgentle":3629,"ĠPers":3630,"Ġscarce":3631,"Ġduties":3632,"Ġtrouble":3633,"Ġsouls":3634,"ING":3635,"Ġempirical":3636,"ician":3637,"Ġpartly":3638,"Ġprefer":3639,"Ġdemonstr":3640,"Ġpet":3641,"17":3642,"Ġdetermine":3643,"Ġaccomp":3644,"ompey":3645,"Ġpress":3646,"irty":3647,"amb":3648,"Ġrefer":3649,"iance":3650,"bling":3651,"Ġpossibility":3652,"Ġescape":3653,"IAS":3654,"Ġwriting":3655,"Ġcollect":3656,"ATHE":3657,"Ġdisg":3658,"Ġquestions":3659,"Ġassert":3660,"Ġpositive":3661,"Ġeth":3662,"Ġconform":3663,"Ġobliged":3664,"Ġmilitary":3665,"ales":3666,"Ġbelongs":3667,"raction":3668,"Ġremember":3669,"Siden":3670,"nes":3671,"onic":3672,"Ġperceived":3673,"Sidenote":3674,"Ġhast":3675,"Ġexceed":3676,"ordinary":3677,"ĠJew":3678,"ĠAthenians":3679,"So":3680,"Ġactivity":3681,"ails":3682,"soever":3683,"Ġste":3684,"Ġcontrol":3685,"Ġcontempl":3686,"Ġii":3687,"Ġraised":3688,"Ġchanges":3689,"bes":3690,"Ġapt":3691,"Ġpict":3692,"sens":3693,"ĠCr":3694,"untary":3695,"Ġcryst":3696,"Î±":3697,"Ġfish":3698,"Ġsacred":3699,"Ġvers":3700,"ĠCor":3701,"ĠBr":3702,"Ġinstances":3703,"Ġdial":3704,"Ġevidence":3705,"note":3706,"Ġaccord":3707,"ĠDem":3708,"Ġneeds":3709,"Ġmagist":3710,"Ġsides":3711,"irect":3712,"Ġregular":3713,"oh":3714,"Ġreflect":3715,"vious":3716,"ze":3717,"ills":3718,"Ġarises":3719,"Ġwine":3720,"Ġmechan":3721,"Ġopport":3722,"Ġrevenue":3723,"Ġcamp":3724,"resh":3725,"Ġnumerous":3726,"Ġstandard":3727,"Ġcontinued":3728,"Ġoperation":3729,"Ġconceived":3730,"ager":3731,"Ġcommer":3732,"Ġdevelopment":3733,"Ġwalk":3734,"Ġbase":3735,"Ġartific":3736,"Se":3737,"ening":3738,"iends":3739,"wing":3740,"inent":3741,"ĠHere":3742,"Ġtri":3743,"Ġstrange":3744,"Sp":3745,"lar":3746,"ĠMen":3747,"ĠNew":3748,"Ġindependent":3749,"LI":3750,"itter":3751,"Ġmach":3752,"Ġdiscovered":3753,"Ġcra":3754,"Ġinvest":3755,"ĠStates":3756,"oes":3757,"alle":3758,"agor":3759,"Ġactive":3760,"Ġindiff":3761,"Ġyourself":3762,"Ġslight":3763,"ĠSpart":3764,"Be":3765,"Ġsuffering":3766,"subject":3767,"How":3768,"Sh":3769,"matter":3770,"Ġcommunity":3771,"Ġreasoning":3772,"ĠAristotle":3773,"NIAN":3774,"Ġperfectly":3775,"ATHENIAN":3776,"All":3777,"ma":3778,"osen":3779,"Ġpride":3780,"Ġgrat":3781,"Greek":3782,"racted":3783,"Ġconstant":3784,"ateg":3785,"Ġimage":3786,"Ġadvance":3787,"Thus":3788,"Ġprincipal":3789,"Ġvice":3790,"Ġfles":3791,"Ġearly":3792,"Ġaddition":3793,"osity":3794,"Ġreasons":3795,"Ġrequires":3796,"Ġdi":3797,"Ġresp":3798,"Ġflowers":3799,"Ġthinks":3800,"Ġwicked":3801,"atin":3802,"Ġmaj":3803,"ĠÃ":3804,"Ġportion":3805,"Ġsecure":3806,"Ġafford":3807,"Ġsupreme":3808,"nces":3809,"Ġshame":3810,"Ġing":3811,"seless":3812,"enced":3813,"Ġexisting":3814,"human":3815,"bits":3816,"phy":3817,"eral":3818,"Ġfoundation":3819,"Ġindustry":3820,"Ġwilling":3821,"about":3822,"Ġhappened":3823,"Ġsensation":3824,"16":3825,"pid":3826,"Ġfancy":3827,"people":3828,"Ġexhib":3829,"ĠWhy":3830,"Ġsorts":3831,"Ġapart":3832,"Ġrepro":3833,"Ġsolid":3834,"Ġimperfect":3835,"Ġsphere":3836,"Ġcorrupt":3837,"lexander":3838,"ĠQu":3839,"against":3840,"Ġspiritual":3841,"Ġignorant":3842,"Ġunited":3843,"Let":3844,"orough":3845,"ĠThee":3846,"Ġwhilst":3847,"agoras":3848,"ĠIN":3849,"Ġsubstances":3850,"Ġboy":3851,"Ġchurch":3852,"ĠThose":3853,"Ġheavy":3854,"Ġendeavour":3855,"Ġdefect":3856,"might":3857,"ule":3858,"Ġlist":3859,"add":3860,"Ġbrother":3861,"Ġbenefit":3862,"ares":3863,"iding":3864,"ifying":3865,"ergy":3866,"Ġlines":3867,"Ġgone":3868,"pur":3869,"common":3870,"Ġhypot":3871,"fric":3872,"Ġsovere":3873,"Ġric":3874,"eas":3875,"Ġpath":3876,"road":3877,"Ġproved":3878,"Ġfunction":3879,"Ġge":3880,"Ġforced":3881,"Ġrate":3882,"Ġdistrib":3883,"Ġevils":3884,"ique":3885,"Ġaut":3886,"Ġdivers":3887,"ouses":3888,"lim":3889,"Ġcross":3890,"Ġkn":3891,"Ġpret":3892,"Ġlust":3893,"Ġalter":3894,"Ġobst":3895,"Ġexplain":3896,"Ġsatisfaction":3897,"Ġworship":3898,"ĠRep":3899,"Ġyellow":3900,"Ġdistinguish":3901,"Of":3902,"ĠTheir":3903,"Ġapply":3904,"Ġconclusion":3905,"Ġtrees":3906,"Ġstruct":3907,"Ġsend":3908,"individual":3909,"Ġconsequences":3910,"Ġsympathy":3911,"Î½":3912,"inal":3913,"Ġspring":3914,"angers":3915,"ĠRel":3916,"Ġplease":3917,"Ġintuition":3918,"oqu":3919,"Ġmine":3920,"ĠCar":3921,"ague":3922,"tical":3923,"They":3924,"Ġcompan":3925,"Ġpsych":3926,"ropri":3927,"umb":3928,"Ġnumbers":3929,"Ġvisible":3930,"Ġox":3931,"ths":3932,"ilities":3933,"Ġprud":3934,"Ġnamely":3935,"po":3936,"Ġmill":3937,"Ġstyle":3938,"Ġcompe":3939,"ĠWill":3940,"while":3941,"before":3942,"Ġod":3943,"Ġult":3944,"Ġteach":3945,"cribe":3946,"necessary":3947,"oned":3948,"ortune":3949,"inous":3950,"iate":3951,"Ġages":3952,"cientific":3953,"Ġarguments":3954,"regard":3955,"const":3956,"liament":3957,"Ġillust":3958,"Ġlimits":3959,"Ġdeny":3960,"Ġxx":3961,"said":3962,"ĠChurch":3963,"Ġpurposes":3964,"Ġcentury":3965,"Ġdied":3966,"Ġuncertain":3967,"ĠOur":3968,"gl":3969,"hor":3970,"Ġbasis":3971,"ulse":3972,"Ġempire":3973,"Ġviolence":3974,"mist":3975,"Ġsought":3976,"orious":3977,"otions":3978,"Ġusual":3979,"udes":3980,"Ġsacrifice":3981,"Ġspr":3982,"Ġcontinue":3983,"Ġharmony":3984,"aign":3985,"omic":3986,"ĠGr":3987,"Ġcontrib":3988,"through":3989,"Ġmiddle":3990,"Ġdepends":3991,"Ġtendency":3992,"existence":3993,"Ġhatred":3994,"pleasure":3995,"Ġapplication":3996,"pes":3997,"ainted":3998,"Ġappeared":3999,"cannot":4000,"Ġviolent":4001,"Ġexcellent":4002,"rust":4003,"head":4004,"Ġreject":4005,"Ġperfection":4006,"Ġimpression":4007,"inc":4008,"requ":4009,"Ġpains":4010,"Ġshape":4011,"Ġsave":4012,"Ġslave":4013,"Ġfavor":4014,"uration":4015,"Ġcaused":4016,"Ġlooked":4017,"worthy":4018,"Ġmedic":4019,"Ġstart":4020,"Ġmember":4021,"atively":4022,"Ġpossessed":4023,"Ġstory":4024,"inth":4025,"Ġnotice":4026,"Ġsex":4027,"Ġperman":4028,"ĠTherefore":4029,"Ġinternal":4030,"Ġriver":4031,"Ġmel":4032,"serv":4033,"irtue":4034,"Ġfounded":4035,"Ġbelieved":4036,"Ġreputation":4037,"ĠEuropean":4038,"Ġtitle":4039,"Ġreach":4040,"ĠMy":4041,"fulness":4042,"count":4043,"Ġtre":4044,"vert":4045,"Ġvent":4046,"Ġclot":4047,"experience":4048,"Ġcreated":4049,"gypt":4050,"ao":4051,"pres":4052,"uting":4053,"Ġdefe":4054,"Ġfashion":4055,"Ġecon":4056,"Ġhabits":4057,"Ġprecise":4058,"shall":4059,"INIAS":4060,"CLEINIAS":4061,",[":4062,"ĠEven":4063,"Ġport":4064,"Ġfle":4065,"def":4066,"Ġbelonging":4067,"Ġlack":4068,"Ġrev":4069,"inus":4070,"Ġmentioned":4071,"Ġentertain":4072,"point":4073,"ĠAfric":4074,"ailed":4075,"trans":4076,"general":4077,"Ġcruel":4078,"Ġwhence":4079,"Ġdefinite":4080,"mission":4081,"Ġvul":4082,"ĠPompey":4083,"Ġcapacity":4084,"Ġcredit":4085,"Ġletters":4086,"Ġsenate":4087,"Yes":4088,"look":4089,"med":4090,"Î¿":4091,"isible":4092,"Ġdom":4093,"Ġsharp":4094,"Ġadapt":4095,"different":4096,"mbol":4097,"Ġstrict":4098,"Ġaccordingly":4099,"19":4100,"got":4101,"encies":4102,"Ġhappens":4103,"Ġaccompl":4104,"iant":4105,"Ġtable":4106,"Ġinjustice":4107,"Ġexpressed":4108,"Ġwide":4109,"Ġfront":4110,"Ġimpl":4111,"orses":4112,"Ġsupply":4113,"Ġfully":4114,"could":4115,"Ġhost":4116,"ĠAfter":4117,"Ġhumanity":4118,"Ġroom":4119,"Ġroad":4120,"Ġreve":4121,"Ġtry":4122,"ĠCapable":4123,"condition":4124,"Ġmathemat":4125,"At":4126,"fra":4127,"na":4128,"Ġstands":4129,"Ġcomparison":4130,"Ġtal":4131,"Ġstage":4132,"Ġobey":4133,"Ġskill":4134,"Ġfamiliar":4135,"Ġexperi":4136,"quest":4137,"Ġvig":4138,"Ġopposition":4139,"Ġcurrent":4140,"Ġgrowth":4141,"Ġmovement":4142,"Ġfaculties":4143,"Ġoccasions":4144,"Ġsignific":4145,"take":4146,"Ġ).":4147,"Ġgrief":4148,"Ġraise":4149,"Ġburn":4150,"uries":4151,"Ġfinds":4152,"Ġperpet":4153,"Ġsentiments":4154,"Ġcitizen":4155,"Ġconven":4156,"Ġalt":4157,"ccording":4158,"aul":4159,"ifies":4160,"Ġsafe":4161,"hesis":4162,"Ġnevertheless":4163,"abs":4164,"Ġaccident":4165,"cher":4166,"whether":4167,"Ġsorrow":4168,"orus":4169,"ĠAb":4170,"Foot":4171,"Ġbal":4172,"Ġheight":4173,"Per":4174,"Ġeat":4175,"Ġsentiment":4176,"Ġhyd":4177,"Ġsacrific":4178,"Ġexactly":4179,"Ġflesh":4180,"cus":4181,"Ġsciences":4182,"ĠMr":4183,"Ġorn":4184,"Ġsufficiently":4185,"ye":4186,"cius":4187,"ements":4188,"Ġindu":4189,"uded":4190,"DE":4191,"cr":4192,"fall":4193,"osp":4194,"Ġpref":4195,"Ġinstruct":4196,"follow":4197,"otes":4198,"ldom":4199,"ores":4200,"ĠCicero":4201,"Ġpurch":4202,"Ġmarriage":4203,"You":4204,"Ġdignity":4205,"Ġstars":4206,"Ġpassing":4207,"Ġconfusion":4208,"Ġtyrann":4209,"igation":4210,"Ġprison":4211,"Ġpleased":4212,"ertainly":4213,"Ġbold":4214,"Ġstood":4215,"Ġunknown":4216,"Ġach":4217,"actions":4218,"Ġregards":4219,"uity":4220,"Ġmanners":4221,"Ġrepresentation":4222,"Ġdomin":4223,"Ġcontains":4224,"Ġagreeable":4225,"rep":4226,"ula":4227,"Ġinjury":4228,"_;":4229,"Ġbott":4230,"Ġproduces":4231,"Ġdouble":4232,"Ġtroops":4233,"icers":4234,"Ġhair":4235,"Ġcommod":4236,"alty":4237,"ĠEp":4238,"Ġpoets":4239,"Ġslaves":4240,"ley":4241,"Ġherself":4242,"Ġslow":4243,"Ġconcern":4244,"Ġbreat":4245,"Ġfem":4246,"Ġadmitted":4247,"possess":4248,"Ġmethods":4249,"Ġridic":4250,"ceives":4251,"ode":4252,"ĠCato":4253,"Ġobsc":4254,"11":4255,"Ġcost":4256,"Ġaspect":4257,"antages":4258,"Ġaround":4259,"Ġextension":4260,"Ġdangerous":4261,"Im":4262,"nor":4263,"Ġmerit":4264,"Ġhurt":4265,"make":4266,"Ġpit":4267,"aneous":4268,"ĠWho":4269,"lation":4270,"chief":4271,"ems":4272,"Ġoffer":4273,"Ġmetaphys":4274,"Ġran":4275,"appear":4276,"Ġhearing":4277,"Ġseason":4278,"Ġletter":4279,"gans":4280,"your":4281,"Ġrepublic":4282,"vent":4283,"eter":4284,"ustra":4285,"Ġobservation":4286,"arath":4287,"These":4288,"Ġreduced":4289,"Ġdefinition":4290,"cal":4291,"Ġsoft":4292,"proper":4293,"represent":4294,"iled":4295,"Ġchosen":4296,"Ġcompet":4297,"cendental":4298,"gment":4299,"arian":4300,"state":4301,"Ġpropri":4302,"Ġcontro":4303,"particular":4304,"Ġhither":4305,"ĠIII":4306,"ĠAlexander":4307,"Ġapparent":4308,"hension":4309,"icle":4310,"Ġdwell":4311,"usive":4312,"Ġsecurity":4313,"Ġinhabitants":4314,"OO":4315,"Ġlate":4316,"oward":4317,"Ġspect":4318,"Ġdesir":4319,"Ġblame":4320,"Ġmotive":4321,"Ġhistor":4322,"arathustra":4323,"itory":4324,"anation":4325,"imony":4326,"erer":4327,"Ġdisturb":4328,"ray":4329,"onies":4330,"Ġsuppl":4331,"Ġsurpr":4332,"ĠHell":4333,"Ġmoon":4334,"oles":4335,"ounding":4336,"ĠIts":4337,"consist":4338,"contin":4339,"bed":4340,"pract":4341,"Ġcav":4342,"ĠScript":4343,"ĠNe":4344,"Ġgrand":4345,"Ġdegrees":4346,"sl":4347,"Ġlevel":4348,"Ġpleasant":4349,"Ġcell":4350,"olution":4351,"Ġtrou":4352,"ruption":4353,"Ġflu":4354,"num":4355,"Ġdedu":4356,"Ġallied":4357,"Ġspirits":4358,"Ġax":4359,"ading":4360,"Ġstat":4361,"ĠPe":4362,"Ġobtain":4363,"crete":4364,"gen":4365,"Ġinner":4366,"ster":4367,"Ġnotions":4368,"tled":4369,"Ġanalog":4370,"Ġthrow":4371,"Ġpresented":4372,"Ġsan":4373,"Ġclasses":4374,"?âĢĿ":4375,"sis":4376,"usions":4377,"Ġprophe":4378,"Ġmultitude":4379,"bo":4380,"acters":4381,"Then":4382,"ĠKant":4383,"Ġweakness":4384,"Ġtoward":4385,"ĠIm":4386,"Ġsovereign":4387,"acious":4388,"div":4389,"Ġhour":4390,"ody":4391,"many":4392,"Ġexamples":4393,"Ġharm":4394,"back":4395,"Ġcop":4396,"Ġkill":4397,"ority":4398,"ounce":4399,"Footnote":4400,"found":4401,"hel":4402,"comple":4403,"stitution":4404,"Ġfoolish":4405,"Ġcontained":4406,"Ġgrace":4407,"bi":4408,"Ġexamine":4409,"OM":4410,"last":4411,"mar":4412,"uine":4413,"atisf":4414,"Ġintended":4415,"agree":4416,"ocles":4417,"Ġdeliber":4418,"Ġconscience":4419,"Ġlogic":4420,"No":4421,"On":4422,"Ġreward":4423,"thern":4424,"agement":4425,"teen":4426,"Ġrepresented":4427,"ĠGreece":4428,"itute":4429,"Ġhorses":4430,"Or":4431,"emper":4432,"Ġwrote":4433,"Ġmotives":4434,"idea":4435,"Ġobjective":4436,"Ġwrite":4437,"ĠCommon":4438,"bon":4439,"etic":4440,"icted":4441,"Ġsurr":4442,"something":4443,"Ġiv":4444,"Ġextend":4445,"ĠJud":4446,"government":4447,"Ġvast":4448,"----":4449,"Ġgreatness":4450,"Ġprovided":4451,"Ġlimited":4452,"Ġter":4453,"Ġsn":4454,"Ġsees":4455,"rated":4456,"Ġalike":4457,"Ġexpected":4458,"nexion":4459,"ney":4460,"Ġreck":4461,"Ġoriginally":4462,"person":4463,"OU":4464,"determ":4465,"name":4466,"Ġarch":4467,"Ġprivile":4468,"arn":4469,"Ġserious":4470,"Ġquiet":4471,"Ġdisco":4472,"ĠEgypt":4473,"Ġforming":4474,"Ġcompletely":4475,"ED":4476,"consequ":4477,"Ġacquired":4478,"Ġliquid":4479,"Ġ20":4480,"consider":4481,"gel":4482,"asted":4483,"disc":4484,"Ġprosper":4485,"Ad":4486,"Ind":4487,"lla":4488,"ĠSub":4489,"Ġimper":4490,"Ġintention":4491,"Ġneighbour":4492,"two":4493,"Ġholy":4494,"Ġfan":4495,"Ġobedience":4496,"pected":4497,"consid":4498,"Ġoutside":4499,"Ġdesired":4500,"Ġconfidence":4501,"truth":4502,"Ġsuperf":4503,"Ġpreserve":4504,"ograph":4505,"Ġopportunity":4506,"Pl":4507,"ÏĦ":4508,"ump":4509,"Ġremote":4510,"mean":4511,"Ġpieces":4512,"concer":4513,"Ġmerch":4514,"Ġadminist":4515,"Ġphr":4516,"Ġstructure":4517,"En":4518,"iny":4519,"Ġseldom":4520,"Ġbranch":4521,"Ġlimit":4522,"understanding":4523,"matic":4524,"icable":4525,"Ġlest":4526,"Ġpron":4527,"Ġobvious":4528,"avi":4529,"ĠLike":4530,"Ġextraordinary":4531,"Ġpaper":4532,"asp":4533,"miss":4534,"Ġtim":4535,"Ġcateg":4536,"Ġruin":4537,"according":4538,"Ġtop":4539,"Ġreadily":4540,"Ġwitness":4541,"verted":4542,"Ġanx":4543,"feel":4544,"Ġtaxes":4545,"Ant":4546,"isp":4547,"Ġpossibly":4548,"appro":4549,"whole":4550,"Ġfinal":4551,"ĠBritain":4552,"Ġsynthe":4553,"intellig":4554,"unate":4555,"Ġemployment":4556,"IC":4557,"house":4558,"Ġbeat":4559,"Ġsalt":4560,"Ġcertainty":4561,"formed":4562,"Ġparticularly":4563,"Ġlarger":4564,"Ġjudges":4565,"Ġstraight":4566,"Ġthirty":4567,"ĠCl":4568,"ĠItaly":4569,"oz":4570,"rical":4571,"Ġfinding":4572,"Ġfilled":4573,"character":4574,"Ġparents":4575,"cks":4576,"nest":4577,"aker":4578,"agon":4579,"ĠChar":4580,"Ġcommerce":4581,"rational":4582,"atives":4583,"Ġbank":4584,"Ġreached":4585,"tends":4586,"Ġcrown":4587,"Ġcharacteristic":4588,"Ġsubsist":4589,"urs":4590,"Ġpropositions":4591,"Ġsuccession":4592,"Ġfinite":4593,"arr":4594,"Ġorgans":4595,"Ġcontain":4596,"aked":4597,"Ġproject":4598,"bled":4599,"having":4600,"ĠMaster":4601,"Ġproducing":4602,"Ġmoved":4603,"ealous":4604,"Ġwritings":4605,"Ġstim":4606,"does":4607,"Ġengaged":4608,"Ġinstitutions":4609,"20":4610,"imag":4611,"Ġadvanced":4612,"Ġwarm":4613,"Ġcounter":4614,".=":4615,"Ġfolly":4616,"Ġthorough":4617,"respect":4618,"agn":4619,"aven":4620,"Ġlik":4621,"Ġcompared":4622,"Ġvalu":4623,"Ġtemple":4624,"Ġorders":4625,"Ġangry":4626,"HIL":4627,"iated":4628,"anes":4629,"ĠHomer":4630,"Ġacting":4631,"exam":4632,"between":4633,"ĠJust":4634,"Ġcrystall":4635,"Ġvulgar":4636,"Ġtext":4637,"Ġfill":4638,"Ġnamed":4639,"opin":4640,"pline":4641,"cepts":4642,"Ġproduct":4643,"ĠSpirit":4644,"wixt":4645,"relig":4646,"Ġbread":4647,"urther":4648,"Ġforget":4649,"Ġwhereby":4650,"Ġbehold":4651,"bre":4652,"mal":4653,"esus":4654,"Ġears":4655,"Ġrent":4656,"iveness":4657,"ĠSover":4658,"Sub":4659,"gent":4660,"idently":4661,"Ġappet":4662,"effect":4663,"mere":4664,"ĠDion":4665,"lls":4666,"Ġcontract":4667,"Ġbroken":4668,"Ġwalls":4669,"Î¹":4670,"Ġfresh":4671,"ĠCons":4672,"Ġsaf":4673,"Ġwishes":4674,"ĠXen":4675,",)":4676,"vity":4677,"ĠPower":4678,"elve":4679,"Ġarbit":4680,"Ġregion":4681,"Ġriches":4682,"ieved":4683,"ĠMoses":4684,"Ġcarrying":4685,"yet":4686,"Ġcovered":4687,"Ġprejud":4688,"Ġdistant":4689,"Ġiii":4690,"Ġstanding":4691,"Ġsatisfied":4692,"philosophy":4693,"Ġproblem":4694,"Not":4695,"cad":4696,"Ġdress":4697,"ĠFl":4698,"Ġesc":4699,"ram":4700,"Ġinward":4701,"urus":4702,"Ġbodily":4703,"Ġdescend":4704,"Ġestablish":4705,"Ph":4706,"Ġscientific":4707,"itus":4708,"Ġmarch":4709,"ulph":4710,"Ġeffort":4711,"uke":4712,"Ġwars":4713,"Ġmort":4714,"Ġgained":4715,"Ġcomposition":4716,"Ġcolour":4717,"Ġobserv":4718,"Ġthick":4719,"Ġdescribed":4720,"Ġempt":4721,"Ġtransp":4722,"Ġtong":4723,"Ġpol":4724,"thus":4725,"Ġdiscussion":4726,"Ġmisf":4727,"unction":4728,"Ġindul":4729,"Ġsymbol":4730,"Ġcircle":4731,"Ġbroad":4732,"hetoric":4733,"sur":4734,"Ġseven":4735,"Ġsyll":4736,"ableness":4737,"plicity":4738,"medi":4739,"Ġgame":4740,"Ġvision":4741,"Ġprepar":4742,"bation":4743,"ĠÎ":4744,"Ġcens":4745,"Ġeverywhere":4746,"lator":4747,"Ġholds":4748,"ST":4749,"Ġpubl":4750,"Ġfly":4751,"idae":4752,"Ġpurely":4753,"Ġfourth":4754,"Ġships":4755,"del":4756,"wr":4757,"isure":4758,"Ġspread":4759,"Par":4760,"Ġexplained":4761,"ustomed":4762,"Ġimpressions":4763,".=--":4764,"ipe":4765,"ĠCan":4766,"Ġworst":4767,"Ġoffered":4768,"Ġconstantly":4769,"Ġsigns":4770,"Ġmaintained":4771,"ĠGerman":4772,"isite":4773,"Ġdig":4774,"hers":4775,"using":4776,"Ġvill":4777,"Ġofficers":4778,"ippus":4779,"Ġfundamental":4780,"cest":4781,"sense":4782,"yth":4783,"uthority":4784,"Ġcomprehend":4785,"Ġbare":4786,"always":4787,"aph":4788,"Ġneglect":4789,"aviour":4790,"love":4791,"Ġdread":4792,"Ġproposed":4793,"comme":4794,"olicy":4795,"Ġrendered":4796,"Ġast":4797,"Ġsize":4798,"force":4799,"Ġproperties":4800,"ophon":4801,"Ġapproach":4802,"Ġ0":4803,"Ġfix":4804,"icians":4805,"entially":4806,"bell":4807,"Ġcreatures":4808,"Ġcustoms":4809,"fraid":4810,"Ġabund":4811,"Ġsword":4812,"Ġpoetry":4813,"Ġaccompan":4814,"umn":4815,"Ġbuilding":4816,"erve":4817,"Ġbed":4818,"lebr":4819,"izes":4820,"Ġattached":4821,"Ġimprovement":4822,"Ġwatch":4823,"Ġconsent":4824,"ĠYes":4825,"iciency":4826,"Ġafraid":4827,"chang":4828,"Ġoutward":4829,"Ġrob":4830,"Ġmodes":4831,"Ġimages":4832,"Ġhighly":4833,"Ġdaily":4834,"acqu":4835,"ĠWor":4836,"ictions":4837,"withstanding":4838,"ĠÃł":4839,"sign":4840,"Ġbecoming":4841,"Ġperformed":4842,"oon":4843,"pore":4844,"real":4845,"Ġpup":4846,"acr":4847,"Ġcir":4848,"Ġmid":4849,"Ġmortal":4850,"conven":4851,"Ġtreated":4852,"Ġsurely":4853,"Ġprepared":4854,"Ġball":4855,"ifts":4856,"Ġframe":4857,"ĠPhilosop":4858,"ĠZarathustra":4859,"Ġgoodness":4860,"Ġbrings":4861,"Ġtyrant":4862,"Ġambition":4863,"circ":4864,"Ġstop":4865,"Ġsubord":4866,"give":4867,"Ġcere":4868,"ancing":4869,"urance":4870,"Ġtrium":4871,"Ġimpulse":4872,"000":4873,"Ġfulf":4874,"Ġenvy":4875,"far":4876,"Ġpermanent":4877,"Ġsafety":4878,"Ġthin":4879,"owd":4880,"Ġconfirm":4881,"Is":4882,"Ġbeasts":4883,"Ġgeneration":4884,"Ġcharacters":4885,"Ġmorals":4886,"Ġinterpret":4887,"hus":4888,"Ġsounds":4889,"ĠSto":4890,"ĠGood":4891,"Ġvirtuous":4892,"ĠProt":4893,"ixture":4894,"Ġagreement":4895,"sim":4896,"ĠAgain":4897,"Ġwhereof":4898,"Ġroot":4899,"Ġconflict":4900,"Ġestate":4901,"Ġmutual":4902,"Ġgreen":4903,"Ġsons":4904,"unk":4905,"ogue":4906,"Ġintr":4907,"Ġcrime":4908,"Ġlooking":4909,"estic":4910,"Ġappointed":4911,"Ġskin":4912,"Ġ(_":4913,"ĠAccording":4914,"ilty":4915,"ĠCHAP":4916,"Ġaband":4917,"Ġblessed":4918,"Ġbitter":4919,"Ġability":4920,"Ġjustly":4921,"Ġconclude":4922,"Ġindifferent":4923,"rance":4924,"angle":4925,"true":4926,"Ġphenomenon":4927,"Ġbottom":4928,"mus":4929,"Ġfate":4930,"Ġdisorder":4931,"ifications":4932,"Ġmixed":4933,"Ġhouses":4934,"Ġattained":4935,"Ġvalues":4936,"yrus":4937,"Ġmisery":4938,"Ġer":4939,"Ġsuitable":4940,"Ġsevere":4941,"Ġaware":4942,"Ġinnoc":4943,"Ġstrugg":4944,"Ġmedicine":4945,"Ġenergy":4946,"ĠRes":4947,"Ġdifficulties":4948,"asmuch":4949,"ĠCol":4950,"Ġtruths":4951,"ĠAsia":4952,"Ġfamous":4953,"Ġcounsel":4954,"Ġdialect":4955,"Ġhitherto":4956,"VI":4957,"aith":4958,"isation":4959,"itated":4960,"produ":4961,"Ġdefence":4962,"Ġlogical":4963,"Ġobscure":4964,"Ġshr":4965,"Ġreasonable":4966,"Ġabsence":4967,"Ġleads":4968,"Christ":4969,"ENT":4970,"Ġcat":4971,"urke":4972,"Ġmetal":4973,"Ġoperations":4974,"23":4975,"rec":4976,"Ġaside":4977,"ilaus":4978,"Ġproduction":4979,"Hy":4980,"iot":4981,"entions":4982,"verty":4983,"Ġpoverty":4984,"Ġwished":4985,"ulars":4986,"Ġpursuit":4987,"cipio":4988,"Ġhopes":4989,"bus":4990,"Ġthence":4991,"Ġtempor":4992,"Ġcease":4993,"bra":4994,"itor":4995,"iling":4996,"Ġstay":4997,"ĠMore":4998,"Ġadvantages":4999,"enance":5000,"esides":5001,"Ġeager":5002,"Ġuses":5003,"dem":5004,"Ġhate":5005,"ĠAg":5006,"Ġcoin":5007,"ĠUnited":5008,"war":5009,"iron":5010,"Ġstar":5011,"Ġdirected":5012,"sent":5013,"Ġbased":5014,"Ġease":5015,"Ġfru":5016,"cles":5017,"Ġglass":5018,"haust":5019,"Ġconvey":5020,"ĠCf":5021,"Ġloose":5022,"citiz":5023,"Ġdoor":5024,"Ġremained":5025,"AE":5026,"ele":5027,"Ġlux":5028,"claim":5029,"herent":5030,"Ġearli":5031,"Ġvoluntary":5032,"ai":5033,"among":5034,"Ġpoison":5035,"Ġ23":5036,"Ġsuffered":5037,"Ġglad":5038,"Ġcontinually":5039,"Ġborrow":5040,"Ġfame":5041,"chn":5042,"aceous":5043,"Ġteacher":5044,"Ġmorning":5045,"Ġdispute":5046,"Ġcreation":5047,"Ġcognition":5048,"SE":5049,"istory":5050,"Ġdeliver":5051,"Ġconversation":5052,"rous":5053,"Ġlot":5054,"Ġprinces":5055,"knowled":5056,"Ġencoura":5057,"ocratic":5058,"ror":5059,"rial":5060,"posing":5061,"Ġassistance":5062,"ĠJews":5063,"Ġconnexion":5064,"aints":5065,"Ġassume":5066,"Ġincapable":5067,"Ġdiscovery":5068,"pon":5069,"Ġetern":5070,"Ġtrial":5071,"Ġunable":5072,"Ġwriter":5073,"Ġdoctrines":5074,"ography":5075,"Ġartificial":5076,"rant":5077,"ucius":5078,"Ġuseless":5079,"rible":5080,"ĠRE":5081,"Ġrelative":5082,"Ġexperiment":5083,"TH":5084,"oration":5085,"Ġreform":5086,"Ġconj":5087,"Ġshut":5088,"Ġgreatly":5089,"Ġtender":5090,"Ġgrowing":5091,"Ġinquiry":5092,"25":5093,"isters":5094,"Ġadequ":5095,"Ġcreature":5096,"aintance":5097,"Ġconcrete":5098,"ended":5099,"Ġspeaks":5100,"Ġinvolved":5101,"Ġpicture":5102,"och":5103,"Ġlad":5104,"Ġextended":5105,"ands":5106,"Ġwhatsoever":5107,"Ġobligation":5108,"Ġidentity":5109,"inv":5110,"Ġmale":5111,"antic":5112,"Ġcalls":5113,"arsh":5114,"Ġmiserable":5115,"Ġdestroyed":5116,"By":5117,"icit":5118,"Ġrevere":5119,"Ġsubjective":5120,"Ġputting":5121,"Ġattribute":5122,"vag":5123,"Ġtum":5124,"Ġbetwixt":5125,"Ġaffections":5126,"Ġfinally":5127,"TU":5128,"ivered":5129,"udd":5130,"Ġdisposed":5131,"version":5132,"Ġgoverned":5133,"Ġviews":5134,"Ġmasters":5135,"Ġincreased":5136,"Ġremarkable":5137,"isk":5138,"Ġdry":5139,"lear":5140,"Ġconsidering":5141,"Ġcommanded":5142,"Ġkeeping":5143,"Ġwret":5144,"iced":5145,"Ġwear":5146,"ĠComm":5147,"commend":5148,"Cl":5149,"find":5150,"non":5151,"Ġgrown":5152,"Ġacknowled":5153,"Ġprofound":5154,"Ġutility":5155,"Ġdestruction":5156,"Ġbringing":5157,"âĢĲâĢĲâĢĲâĢĲâĢĲâĢĲâĢĲâĢĲ":5158,"Ġphilosophical":5159,"24":5160,"Ġbearing":5161,"ideas":5162,"Ġdischar":5163,"Ġspite":5164,"Ġmaterials":5165,"Ġnegative":5166,"Ġcalcul":5167,"Ġbrave":5168,"ĠLacedaemonians":5169,"Ġtradition":5170,"Ġfemale":5171,"Ġbond":5172,"Ġstead":5173,"osm":5174,"ĠLatin":5175,"Ġdebt":5176,"friends":5177,"Ġcontradiction":5178,"OL":5179,"ym":5180,"Ġnational":5181,"ivities":5182,"Ġshad":5183,"Ġkilled":5184,"arest":5185,"Ġdescription":5186,"ĠIdea":5187,"Ġgradually":5188,"bal":5189,"Ġremove":5190,"Ġassembly":5191,"Ġgrass":5192,"Ġappropri":5193,"Ġfalls":5194,"Ġacquire":5195,"Ġvanity":5196,"atur":5197,"Ġhot":5198,"Ġthreat":5199,"Ġnav":5200,"ĠTO":5201,"Ġgenuine":5202,"Ġremoved":5203,"edient":5204,"Ġmistake":5205,"inn":5206,"Ġoil":5207,"Ġisland":5208,"utus":5209,"ĠThough":5210,"Ġpretend":5211,"Ġhonest":5212,"Ġdriven":5213,"Ġacquainted":5214,"Ġprobable":5215,"Ġappeal":5216,".\"[":5217,"Ġworking":5218,"ĠWithout":5219,"Sc":5220,"ĠAges":5221,"acon":5222,"iev":5223,"Ġmyth":5224,"Ġwants":5225,"anqu":5226,"Ġsearch":5227,"ested":5228,"Ġtreatise":5229,"Ġmoving":5230,"Ġfunctions":5231,"sm":5232,"Ġsit":5233,"Ġearnest":5234,"Ġrevolution":5235,"HY":5236,"Ġdisplay":5237,"Ġrightly":5238,"Ġsche":5239,"Ġdemocracy":5240,"Ġordered":5241,"Ġintroduced":5242,"Ġdisgrace":5243,"Ġworn":5244,"uthors":5245,"Ġpasses":5246,"Ġbegins":5247,"however":5248,"heart":5249,"Ġpolicy":5250,"Ġparties":5251,"Ġreading":5252,"regular":5253,"iam":5254,"Ġdear":5255,"Ġchapter":5256,"Ġusing":5257,"Ġequality":5258,"Ġsoldier":5259,"Ġrespons":5260,"Am":5261,"Sec":5262,"she":5263,"Ġgro":5264,"Ġleisure":5265,"Ġcommitted":5266,"Ġservants":5267,"Ġheads":5268,"ault":5269,"Ġpity":5270,"Ġfab":5271,"empor":5272,"Ġcomfort":5273,"Ġagent":5274,"Ġcloud":5275,"obser":5276,"Ġwanting":5277,"Ġarrived":5278,"Ġbuilt":5279,"ĠAlso":5280,"Ġultimate":5281,"Ġwat":5282,"Ġalive":5283,"Ġemotions":5284,"Ġutmost":5285,"Ġloved":5286,"Le":5287,"edition":5288,"idents":5289,"ensions":5290,"Ġendure":5291,"Ġcheck":5292,"Ġreturned":5293,"principle":5294,"Cor":5295,"ton":5296,"rose":5297,"Ġrapid":5298,"Ġconstruct":5299,"Ġexplanation":5300,"rary":5301,"ĠDiv":5302,"going":5303,"both":5304,"city":5305,"imon":5306,"ĠEm":5307,"Ġliable":5308,"Ġformal":5309,"Ġbran":5310,"Ġbright":5311,"Ġlands":5312,"Ġstream":5313,"question":5314,"gement":5315,"Ġhang":5316,"Ġfarther":5317,"Ġ25":5318,".âĢĿ--":5319,"Ġcelebr":5320,"iture":5321,"phal":5322,"ipped":5323,"consciousness":5324,"country":5325,"Ġcattle":5326,"urious":5327,"Ġexchange":5328,"Ġtells":5329,"22":5330,"Ġrecon":5331,"Ġvit":5332,"ĠFirst":5333,"erring":5334,"Ġholding":5335,"Ġvessels":5336,"arg":5337,"ĠIll":5338,"ensity":5339,"ĠDes":5340,"Ġexisted":5341,"Ġ24":5342,"Ġshowing":5343,"piration":5344,"Ġclosely":5345,"Ġbind":5346,"Ġdil":5347,"oting":5348,"Ġnoise":5349,"Ġwriters":5350,"Ġtu":5351,"erved":5352,"itious":5353,"child":5354,"Ġcrowd":5355,"Ġpolitics":5356,"Ġaims":5357,"Ġaccordance":5358,"ooth":5359,"Ġrig":5360,"Ġpunish":5361,"Ġrepeated":5362,"born":5363,"Ġsong":5364,"Ġhid":5365,"ysis":5366,"orph":5367,"Ġflight":5368,"ecause":5369,"ground":5370,"Ġcand":5371,"ols":5372,"Ġsec":5373,"ĠLife":5374,"Ġtwelve":5375,"Ġimpart":5376,"Ġsmaller":5377,"Ġmotions":5378,"ourses":5379,"Ġjoined":5380,"Ġmoderate":5381,"Ġfalling":5382,"Ġfigures":5383,"Ġfifty":5384,"ĠScripture":5385,"liness":5386,"Ġbul":5387,"Ġfrag":5388,"Ġstated":5389,"ĠCalled":5390,"advantage":5391,"acedon":5392,"Ġempty":5393,"finite":5394,"Ġduration":5395,"isted":5396,"Ġnatures":5397,"Ġstatement":5398,"Ġgovernments":5399,"Ġshowed":5400,"Ġsentence":5401,"Ġstronger":5402,"Ġsuspic":5403,"Ġfrequent":5404,".âĢĻ":5405,"My":5406,"organ":5407,"Ġthroughout":5408,"Ġveget":5409,"Ġquarrel":5410,"affect":5411,"Îµ":5412,"Ġjoint":5413,"Ġaccur":5414,"Ġproceeds":5415,"ĠIndian":5416,"father":5417,"satisf":5418,"Ġmur":5419,"Ġmoreover":5420,"Ġridiculous":5421,"Ġcrystalline":5422,"zz":5423,"pped":5424,"enses":5425,"ĠRepublic":5426,"Ġtongue":5427,"Ġtriumph":5428,"Ġforbid":5429,"Ġseed":5430,"Ġflower":5431,"Ġflatter":5432,"dr":5433,"Ġaug":5434,"ica":5435,"Ġremedy":5436,"Ġthrown":5437,"Ġconfined":5438,"Ġsystems":5439,"Ġfurnish":5440,"Ġutterly":5441,"Ġdiscipline":5442,"fish":5443,"Ġreign":5444,"ĠInt":5445,"Ġstorm":5446,"Ġattended":5447,".),":5448,"ĠMin":5449,"ometry":5450,"isms":5451,"Ġrunning":5452,"creat":5453,"Ġlic":5454,"Ġupper":5455,"ĠLy":5456,"Ġmagistrates":5457,"ĠSoveraign":5458,"Ġtask":5459,"Ġash":5460,"Ġspoke":5461,"Ġrefuse":5462,"Ġmeasures":5463,"Ġdeveloped":5464,"Ġconsul":5465,"Ġcloth":5466,"Ġadvice":5467,"Ġgrounds":5468,"Ġtotal":5469,"mis":5470,"urable":5471,"Ġvices":5472,"Ġaltern":5473,"Ġperceptions":5474,"Ġaccustomed":5475,"ĠDi":5476,"little":5477,"moral":5478,"still":5479,"olation":5480,"Ġjour":5481,"ometer":5482,"ending":5483,"ĠConf":5484,"Ġerrors":5485,"Ġprotection":5486,"oring":5487,"Ġleaving":5488,"prov":5489,"Ġpromise":5490,"Ġdeclared":5491,"Ġexecution":5492,"Ġgranted":5493,"Plat":5494,"min":5495,"idas":5496,"ĠPart":5497,"Ġcompass":5498,"Ġassured":5499,"Ġfishes":5500,"ids":5501,"igne":5502,"Ġtrif":5503,"iah":5504,"prof":5505,"Ġdefined":5506,"ounter":5507,"Ġinformation":5508,"Ġsuddenly":5509,"iquity":5510,"Fl":5511,"rather":5512,"taken":5513,"Ġsect":5514,"Ġnearer":5515,"Ġextrem":5516,"Ġtranscendental":5517,"Ġla":5518,"ĠJesus":5519,"Ġfeels":5520,"Ġprofession":5521,"dess":5522,"ilk":5523,"ĠSch":5524,"ĠMet":5525,"Ġqual":5526,"volution":5527,"account":5528,"Ġincludes":5529,"Ġannual":5530,"soul":5531,"Ġfing":5532,"establ":5533,"Ġ27":5534,"Ġjoin":5535,"27":5536,"educ":5537,"Ġrhetoric":5538,"Ġenlar":5539,"plex":5540,"ĠRight":5541,"Ġflat":5542,"Ġconfused":5543,"Ġpreserved":5544,"Ġerect":5545,"Ġuniform":5546,"Ġcompound":5547,"IR":5548,"Ġwinter":5549,"ĠIV":5550,"oked":5551,"Ġrecord":5552,"ĠIndia":5553,"subst":5554,"Ġphrase":5555,"origin":5556,"seen":5557,"ĠShe":5558,"ĠSol":5559,"ĠEpic":5560,"Ġcalling":5561,"Ġcompelled":5562,"rence":5563,"Ġnay":5564,"otic":5565,"aments":5566,"rag":5567,"Ġsoil":5568,"Ġblow":5569,"ĠNothing":5570,"ek":5571,"var":5572,"Ġbone":5573,"pel":5574,"rac":5575,"ria":5576,"Ġrespects":5577,"Ġreferred":5578,"ohn":5579,"virtue":5580,"org":5581,"ĠBook":5582,"Ġwhenever":5583,"semble":5584,"relation":5585,"Ġenjoyment":5586,"ITY":5587,"Sy":5588,"kin":5589,"amin":5590,"Ġsettled":5591,"Ġlegal":5592,"ĠNorth":5593,"Ġmess":5594,"arse":5595,"Ġdam":5596,"ĠOther":5597,"Ġremo":5598,"Ġ26":5599,"Ġcolonies":5600,"Ġdrawing":5601,"difficult":5602,"spr":5603,"Ġcoll":5604,"plend":5605,"Ġentered":5606,"Ġfallen":5607,"._--":5608,"icks":5609,"Ġancest":5610,"ros":5611,"raph":5612,"Ġsell":5613,"Ġshru":5614,"agner":5615,"ĠEast":5616,"Ġrelating":5617,"Ġdiffer":5618,"Ġattitude":5619,"Ġblue":5620,"Ġprimary":5621,"Tis":5622,"sight":5623,"Ġexcellence":5624,"Ġsolemn":5625,"ĠBritish":5626,"Ġhypothesis":5627,"coming":5628,"Ġpresently":5629,"upiter":5630,"Ġseparated":5631,"Ġexcessive":5632,"Ġtyranny":5633,"bur":5634,"ds":5635,"eries":5636,"Ġpresents":5637,"Ġconcerns":5638,"immedi":5639,"Ġcultivated":5640,"28":5641,"ATION":5642,"Cont":5643,"each":5644,"erity":5645,"Ġpounds":5646,"Ġdaughter":5647,"imately":5648,"Ġturns":5649,"ocks":5650,"means":5651,"OOK":5652,"Such":5653,"ĠLaws":5654,"better":5655,"Ġanci":5656,"Ġcircumstance":5657,"enn":5658,"Ġteeth":5659,"Ġeloqu":5660,"happy":5661,"master":5662,"Ġwages":5663,"sever":5664,"ĠAct":5665,"Ġsuit":5666,"connect":5667,"Ġinfl":5668,"Ġsetting":5669,"Ġschol":5670,"Ġreduce":5671,"Ġplainly":5672,"Ġmaxims":5673,"een":5674,"Ġbow":5675,"Ġstir":5676,"ĠScipio":5677,"Ġdifferences":5678,"Ġintercourse":5679,"ĠSocial":5680,"Ġminute":5681,"avery":5682,"dig":5683,"fin":5684,"ching":5685,"Ġwithdra":5686,"isting":5687,"peror":5688,"nowledge":5689,"Ġmedium":5690,"uge":5691,"ora":5692,"Ġdict":5693,"Ġrevel":5694,"emy":5695,"Ġindic":5696,"Ġovercome":5697,"Ġservant":5698,"Ġscarcely":5699,"Ġmechanical":5700,"After":5701,"ĠÂ§":5702,"Ġaud":5703,"orne":5704,"Ġexception":5705,"Ġstup":5706,"Ġregul":5707,"shaped":5708,"happiness":5709,"TUS":5710,"mical":5711,"Ġthereof":5712,"ĠEn":5713,"ceptible":5714,"Ġroy":5715,"Ġimmortal":5716,"Ġinstruments":5717,"Ġceremon":5718,"!âĢĿ":5719,"whom":5720,"ictory":5721,"Ġessentially":5722,"import":5723,"Ġpersuaded":5724,"Ġinev":5725,"antry":5726,"ĠPyth":5727,"Ġreader":5728,"Ġturning":5729,"Ġmachine":5730,"26":5731,"NO":5732,"Ġtail":5733,"omb":5734,"ĠSic":5735,"ĠSam":5736,"Ġaddress":5737,"Ġguilty":5738,"Ġcontinu":5739,"Ġphysician":5740,"Ġleading":5741,"spirit":5742,"Ġprudence":5743,"Ġprecisely":5744,"mor":5745,"ortality":5746,"Ġslain":5747,"principles":5748,"Ġmanufacture":5749,";\"":5750,"Ne":5751,"ĠSir":5752,"Ġflow":5753,"ĠVen":5754,"Ġhonourable":5755,"Ġsilence":5756,"sufficient":5757,"agreeable":5758,"anus":5759,"ĠCy":5760,"ĠCyrus":5761,"Ġours":5762,"Ġjealous":5763,"Ġago":5764,"Ġbrain":5765,"Ġscale":5766,"Ġwanted":5767,"Ġmajority":5768,"dest":5769,"phys":5770,"Ġeld":5771,"Ġreceiving":5772,"iferous":5773,"ĠSouth":5774,"Ġpresum":5775,"Ġlooks":5776,"since":5777,"uel":5778,"Ġwaste":5779,"Ġprint":5780,"Ġteaching":5781,"Ġ28":5782,"condly":5783,"Ġglo":5784,"ĠWhich":5785,"ĠCal":5786,"Ġserved":5787,"aeus":5788,"ĠChristianity":5789,"Ġbranches":5790,"VII":5791,"aut":5792,"omach":5793,"Ġimposed":5794,"Ġoffices":5795,"Do":5796,"given":5797,"Ġfil":5798,"Ġadjust":5799,"Ġcommonwealth":5800,"manner":5801,"Ġtravel":5802,"Ġmulti":5803,"Ġspecifically":5804,"Ġstruck":5805,"Ġfruits":5806,"citizens":5807,"?'":5808,"ortation":5809,"ĠMed":5810,"ĠGovernment":5811,"Ġgenera":5812,"ugust":5813,"Ġexamination":5814,"Ġdetermination":5815,"Ġmarked":5816,"Ġpunished":5817,"case":5818,"ĠProp":5819,"ĠOpp":5820,"Ġflour":5821,"Ġprevail":5822,"Ġprosperity":5823,"Ġadministration":5824,"thetic":5825,"Ġdishon":5826,"Ġassent":5827,"Ġparticulars":5828,"ĠXenophon":5829,"iary":5830,"pired":5831,"Ġtrop":5832,"Ġfond":5833,"Ġinflict":5834,"Ġtransl":5835,"willing":5836,"equal":5837,"Ġwonderful":5838,"Ġspeculative":5839,"gotten":5840,"ĠSu":5841,"Ġofficer":5842,"Ġguide":5843,"Ġprevious":5844,"Ġcombination":5845,"Ġconvin":5846,"Ġretain":5847,"ourt":5848,"Ġflo":5849,"Ġcrimin":5850,"Ġsensations":5851,"Ġidentical":5852,"With":5853,"Ġgift":5854,"agger":5855,"Ġinstruction":5856,"Ġtears":5857,"Ġestim":5858,"Ġsatisfy":5859,"Ġmountain":5860,"render":5861,"Ġmixture":5862,"Ġfer":5863,"Ġhun":5864,"Ġlover":5865,"answ":5866,"ĠArt":5867,"Ġresolved":5868,"ĠScot":5869,"Ġlocal":5870,"Ġsignificance":5871,"Br":5872,"Ġissue":5873,"Ġsust":5874,"Ġrough":5875,"ĠCont":5876,"Ġtrain":5877,"Ġenqu":5878,"Ġkindness":5879,"Ġjudgments":5880,"Ġdelivered":5881,"Ġresemblance":5882,"Ġdemands":5883,"Ġlying":5884,"Ġastr":5885,"Ġlord":5886,"verage":5887,"Ġfeed":5888,"success":5889,"Ġstrike":5890,"objects":5891,"AO":5892,"ips":5893,"Ġgenerals":5894,"ĠSparta":5895,"circumst":5896,"bu":5897,"etus":5898,"Ġopening":5899,"Ġdependent":5900,"Why":5901,"ÏĤ":5902,"Ġtempt":5903,"Ġhom":5904,"Ġleaf":5905,"Ġhero":5906,"Ġsmooth":5907,"Ġincor":5908,"Ġadopted":5909,"Ġperpetual":5910,"Bl":5911,"From":5912,"put":5913,"ĠCON":5914,"Ġbrief":5915,"Ġreply":5916,"Ġprovide":5917,"Man":5918,"Ġcoward":5919,"cel":5920,"ĠAre":5921,"ogenes":5922,"Ġexcite":5923,"Ġcontemplation":5924,"30":5925,"kes":5926,"oil":5927,"aling":5928,"Ġdull":5929,"ĠAch":5930,"Ġseat":5931,"Ġabroad":5932,"ĠMacedon":5933,"Ġloves":5934,"Ġproceeding":5935,"ivalent":5936,"Ġlowest":5937,"PHIL":5938,"four":5939,"ming":5940,"Ġproud":5941,"Ġarist":5942,"Ġlegs":5943,"Ġauthors":5944,"Ġgather":5945,"Ġascertain":5946,"bea":5947,"Ġrepresentative":5948,"ĠParliament":5949,"Ġprimitive":5950,"Ġcommodities":5951,"Ġvaluable":5952,"Ġaccompanied":5953,"cause":5954,"eous":5955,"Ġprohib":5956,"Ġpriest":5957,"compre":5958,"Ġcorruption":5959,"Inter":5960,"Ġ30":5961,"Ġpainful":5962,"Ġacquaintance":5963,"ĠAthenian":5964,"Ġcriticism":5965,"Ġwait":5966,"opinion":5967,"host":5968,"pent":5969,"words":5970,"Ïģ":5971,"rab":5972,"Ġdece":5973,"ĠHouse":5974,"Ġevidently":5975,"lessness":5976,"Ġrock":5977,"Ġinvention":5978,"Ġinclination":5979,"Ġgetting":5980,"post":5981,"rat":5982,"ĠUnder":5983,"Ġadequate":5984,"isdom":5985,"Ġexposed":5986,"Ġvote":5987,"ourselves":5988,"ĠApoll":5989,"Ġquickly":5990,"Ġsquare":5991,"Ġcondemned":5992,"Rep":5993,"ras":5994,"Ġcure":5995,"vell":5996,"Ġseeking":5997,"Ġruler":5998,"Ġsuperst":5999,"Ġinquire":6000,"29":6001,"view":6002,"rection":6003,"Ġsand":6004,"ules":6005,"Ġven":6006,"Ġcheer":6007,"ulsion":6008,"Ġconquer":6009,";--":6010,"fam":6011,"lor":6012,"orable":6013,"Ġincur":6014,"ciation":6015,"univers":6016,"ĠDis":6017,"Ġverse":6018,"Ġloud":6019,"Ġgifts":6020,"ĠSince":6021,"Ġrude":6022,"ĠLys":6023,"ĠDel":6024,"ondon":6025,"Ġputs":6026,"Ġelsewhere":6027,"Ġxv":6028,"Ġlegislator":6029,"utive":6030,"Ġneck":6031,"Ġactivities":6032,"ĠJupiter":6033,"Ġsingular":6034,"Ġcalm":6035,"Ġextremely":6036,"did":6037,"nal":6038,"Ġbears":6039,"Ġtherein":6040,"rious":6041,"Ġcountenance":6042,"Ġcharacterized":6043,"Ġprovince":6044,"ĠAfrica":6045,"Ġtroubles":6046,"Ġwretched":6047,"inence":6048,"adm":6049,"allow":6050,"Ġneeded":6051,"Ġelev":6052,"Ġdesigned":6053,"Ġhunt":6054,"icus":6055,"iend":6056,"conduct":6057,"Ġsuperiority":6058,"Ġadmiration":6059,"Ġdomestic":6060,"complete":6061,"IX":6062,"greg":6063,"ihil":6064,"arks":6065,"Ġidle":6066,"Over":6067,"Ã©":6068,"conception":6069,"Ġintelligible":6070,"Ġachieve":6071,"ĠIllust":6072,"Ã¼":6073,"anth":6074,"alry":6075,"Ġtried":6076,"Ġspent":6077,"ounced":6078,"Ġinstitution":6079,"Ġembra":6080,"Ġcircul":6081,"Ġashamed":6082,"full":6083,"incl":6084,"Ġlaugh":6085,"agre":6086,"abst":6087,"ĠEth":6088,"comes":6089,"Ġdram":6090,"Ġrulers":6091,"ĠHowever":6092,"Ġingen":6093,"ĠPhilosophy":6094,"._,":6095,"lev":6096,"three":6097,"Ġdecre":6098,"Ġwheel":6099,"ĠPle":6100,"Ġpartial":6101,"Ġspot":6102,"uppose":6103,"contrary":6104,"Ġbalance":6105,"Ġvi":6106,"ĠCertainly":6107,"ĠBurke":6108,"Ġuneas":6109,"Ġpenet":6110,"Soc":6111,"Ġstones":6112,"Ġshill":6113,"super":6114,"Ġsettle":6115,"Ġseparation":6116,"Ġesteemed":6117,"Ġthoroughly":6118,"Arist":6119,"Here":6120,"Ġtouc":6121,"rius":6122,"anything":6123,"Ġconstitutes":6124,"Ġstudies":6125,"Ġenterpr":6126,"Ġliterature":6127,"á½":6128,"Ġdare":6129,"Ġnobl":6130,"TETUS":6131,"Pre":6132,"ios":6133,"mem":6134,"enic":6135,"Ġnut":6136,"usc":6137,"ĠSpe":6138,"gels":6139,"ĠMon":6140,"intellect":6141,"Ġdiscern":6142,"Ep":6143,"sing":6144,"Ġwool":6145,"Ġsulph":6146,"Ġfled":6147,"Ġdiver":6148,"ĠSomet":6149,"ĠSelf":6150,"abor":6151,"Ġconsult":6152,"Ġsubmit":6153,"Ġarrive":6154,"Ġtestimony":6155,"Ġsucceeded":6156,"Ġarrangement":6157,"Int":6158,"brew":6159,"ta":6160,"Ġsink":6161,"Ġped":6162,"Ġhours":6163,"imil":6164,"ĠLa":6165,"Ġarmed":6166,"Ġburden":6167,"ĠBrutus":6168,"Ġadapted":6169,"bing":6170,"Ġantic":6171,"Ġviz":6172,"appl":6173,"Ġmonth":6174,"ĠXX":6175,"Ġsooner":6176,"ME":6177,"sch":6178,"wit":6179,"Ġappearances":6180,"possibility":6181,"Ġprompt":6182,"THEAE":6183,"Ġsolely":6184,"Ġapprehend":6185,"Ġaccepted":6186,"THEAETETUS":6187,"Ab":6188,"public":6189,"Ġdeceived":6190,"Ġinsol":6191,"Ġinclined":6192,"Ġfamilies":6193,"Ġtribe":6194,"Ġmathematics":6195,"eper":6196,"Ġowing":6197,"Ġsolit":6198,"Ġrain":6199,"Ġtraining":6200,"ĠMany":6201,"Ġformation":6202,"former":6203,"Ġ29":6204,"Ġmarks":6205,"Ġtreatment":6206,"biades":6207,"VIII":6208,"Ġsad":6209,"Ġassembl":6210,"Ġnotes":6211,"Ġdivide":6212,"Ġabsor":6213,"Ġterritory":6214,"best":6215,"Ġomn":6216,"Ġsem":6217,"Ġinconven":6218,"expl":6219,"Ġassign":6220,"Ġjudged":6221,"attered":6222,"Ġbuy":6223,"Ġassumed":6224,"book":6225,"turn":6226,"water":6227,"Ġsme":6228,"itative":6229,"Ġren":6230,"ection":6231,"ĠCall":6232,"Ġimitation":6233,"Ġspend":6234,"Ġintelligent":6235,"Ġmountains":6236,"Ġreverence":6237,"ĠAgesilaus":6238,"terior":6239,"Ġchap":6240,"ibus":6241,"Ġcompare":6242,"Ġcarries":6243,"Ġdecay":6244,"Ġmovements":6245,"Ġdarkness":6246,"Ġimplies":6247,"ĠGe":6248,"Ġappoint":6249,"Ġconstitute":6250,"Ġliberal":6251,"Ġdeprive":6252,"Ġpressure":6253,"HYL":6254,"rus":6255,"Ġmiss":6256,"ĠTim":6257,"tery":6258,"ĠOb":6259,"Ġdistress":6260,"Ġpassages":6261,"Ġsupposing":6262,"Ġentit":6263,"Ġrequisite":6264,"ĠSpain":6265,"Ġtowns":6266,"Ġaston":6267,"ironment":6268,"Ġble":6269,"Ġexhaust":6270,"Ġstro":6271,"Ġselect":6272,"Ġrays":6273,"Ġconviction":6274,"Ġdiseases":6275,"Ġfighting":6276,"Ġresolution":6277,"Ġagreed":6278,"Ġradical":6279,"One":6280,"leness":6281,"onus":6282,"Ġgall":6283,"Ġsavage":6284,"Ġanticip":6285,"!\"":6286,"Ġrange":6287,"uding":6288,"bear":6289,"Ġextensive":6290,"Ġoccupation":6291,"merely":6292,"free":6293,"Ġnour":6294,"Ġsoph":6295,"Ġtheirs":6296,"elic":6297,"ĠOld":6298,"Ġsets":6299,"evil":6300,"Ġsupported":6301,"Ġcombined":6302,"allel":6303,"Ġfleet":6304,"Ġarbitrary":6305,"poreal":6306,"gra":6307,"stone":6308,"Ġforty":6309,"Ġexert":6310,"anted":6311,"ccles":6312,"asting":6313,"Ġsaith":6314,"Ġcommit":6315,"Ġemph":6316,"Ġarmies":6317,"Ġirregular":6318,"Where":6319,"pun":6320,"Ġinher":6321,"Ġthread":6322,"too":6323,"aging":6324,"Ġspeed":6325,"oubted":6326,"Ġdecided":6327,"Ġgoddess":6328,"Ġcorresponding":6329,"absolute":6330,"Ġappetite":6331,"Ġroyal":6332,"iast":6333,"Ġhorn":6334,"Ġdrop":6335,"ĠBel":6336,"Ġmistaken":6337,"Ġrevenge":6338,"Ġpreceding":6339,"21":6340,"Ġcatch":6341,"Ġadvers":6342,"Ġenable":6343,"Ġinvent":6344,"Ġattributes":6345,"Ġpropriety":6346,"cean":6347,"Ġlament":6348,"ims":6349,"cibiades":6350,"Ġvary":6351,"ĠHoly":6352,"Ġarising":6353,"Ġobs":6354,"aved":6355,"Ġacknowledge":6356,"Ġprovisions":6357,"Ġfurnished":6358,"Ġinnate":6359,"Ġdesirable":6360,"spring":6361,"ymn":6362,"uris":6363,"chus":6364,"Ġsheep":6365,"Ġdeclare":6366,"Ġmeeting":6367,"minded":6368,"ECT":6369,"Su":6370,"down":6371,"iations":6372,"Ġbounds":6373,"ĠFather":6374,"Ġtransfer":6375,"Ġcausality":6376,"Ġservices":6377,"meaning":6378,"Ġearlier":6379,"Mar":6380,"rison":6381,"Ãª":6382,"Ġgard":6383,"Ġvir":6384,"indeed":6385,"Ġreport":6386,"ulses":6387,"Ġassociation":6388,"Ġdeprived":6389,"Ġmadness":6390,"Ġmisfortune":6391,"obl":6392,"oven":6393,"Ġ-":6394,"reedom":6395,"Ġwin":6396,"Ġsplend":6397,"Ġmerc":6398,"Ġfier":6399,"Ġthirst":6400,"Ġseeds":6401,"Ġfee":6402,"Ġsubtle":6403,"Ġpursue":6404,"Ġassigned":6405,"Ġproceeded":6406,"Ġhydro":6407,"Qu":6408,"Ġow":6409,"ĠTH":6410,"ĠTAO":6411,"ilius":6412,"ĠNeither":6413,"Ġgrave":6414,"armed":6415,"Trans":6416,"Ġstruggle":6417,"33":6418,"hem":6419,"Ġpan":6420,"Ġpri":6421,"Ġpermitted":6422,"Ġspont":6423,"Ġinstant":6424,"Ġtends":6425,"Ġadvoc":6426,"Ġsensuous":6427,"Ġgrows":6428,"become":6429,"Ġschools":6430,"joined":6431,"ĠCorinth":6432,"Ġbreath":6433,"foot":6434,"iosity":6435,"nation":6436,"ov":6437,"utable":6438,"Ġweap":6439,"ushed":6440,"Ġattach":6441,"Ġ36":6442,"Ġexpresses":6443,"Ġdrive":6444,"oubt":6445,"Ġremaining":6446,"Ġoccurs":6447,"Ġoccupied":6448,"Ġextravag":6449,"ĠIdeas":6450,"Ġcovering":6451,"Ġwings":6452,"omatic":6453,"Ġrecommend":6454,"owards":6455,"Ġnotwithstanding":6456,"erences":6457,"neither":6458,"Ġsubl":6459,"Ġheavens":6460,"Ġornament":6461,"OD":6462,"RI":6463,"Ġinit":6464,"asis":6465,"seem":6466,"aming":6467,"ĠStr":6468,"ĠBesides":6469,"Ġunite":6470,"formation":6471,"Ġpayment":6472,"rogen":6473,"Ġresistance":6474,"ĠMoreover":6475,"Ġjourney":6476,"Me":6477,"VE":6478,"wood":6479,"Ġoath":6480,"Ġtheology":6481,"Ġcy":6482,"Ġinconsist":6483,"Ġdro":6484,"Ġnaked":6485,"Ġconcept":6486,"Ġconstr":6487,"HAT":6488,"Ġdreams":6489,"mediate":6490,"Ġtheore":6491,"Ġdim":6492,"Ġego":6493,"umin":6494,"inde":6495,"Ġmeat":6496,"Ġcollection":6497,"ullus":6498,"sequently":6499,"Ġsolution":6500,"Ġexercises":6501,"Ġassociated":6502,"Ġdying":6503,"ĠON":6504,"often":6505,"Ġattract":6506,"Ġ34":6507,"Ġinsult":6508,"Ġfreely":6509,"Ġmischief":6510,"Ġbreast":6511,"Ġcalam":6512,"Ġhinder":6513,"Again":6514,"ouch":6515,"andide":6516,"avoid":6517,"Ġshell":6518,"Ġpointed":6519,"Ġjudgement":6520,"Ġdetermining":6521,"Ġdenied":6522,"Ġdesignating":6523,"ĠParis":6524,"Ġclaims":6525,"Ġsacrifices":6526,"Ġancients":6527,"Mis":6528,"Ġdrew":6529,"ĠSun":6530,"Ġvital":6531,"ĠHy":6532,"elop":6533,"Ġ38":6534,"Ġsecondly":6535,"Ġsteps":6536,"ROP":6537,"care":6538,"Ġwont":6539,"esc":6540,"arth":6541,"idel":6542,"ĠApp":6543,"ĠBE":6544,"ĠEmp":6545,"ĠLondon":6546,"Ġbrown":6547,"Ġrefused":6548,"Ġadvent":6549,"commun":6550,"Ġattributed":6551,"Ġmiracles":6552,"contrad":6553,"Ġmillions":6554,"Ġexperiences":6555,"aed":6556,"Ġ|":6557,"olved":6558,"Ġmanagement":6559,"ĠGener":6560,"Ġouter":6561,"Ġbrid":6562,"Ġcareful":6563,"sche":6564,"Ġ189":6565,"Ġcourts":6566,"Ġpriests":6567,"Ġscept":6568,"ari":6569,"lymp":6570,"ĠAugust":6571,"oper":6572,"Ġchain":6573,"Ġperish":6574,"tenance":6575,"Ġnews":6576,"Ġsilent":6577,"Ap":6578,"CI":6579,"Ġaccess":6580,"Ġeternity":6581,"Under":6582,"uct":6583,"Ġmilk":6584,"amber":6585,"ĠCap":6586,"ĠJohn":6587,"Ġslavery":6588,"ĠWell":6589,"Ġefforts":6590,"Ġpenalty":6591,"Ġguardians":6592,"Ġdeserve":6593,"Ġsaved":6594,"ĠDionys":6595,"Ġwaters":6596,"Every":6597,"ait":6598,"bered":6599,"hard":6600,"itect":6601,"etrius":6602,"Ġhel":6603,"Ġrout":6604,"ĠWagner":6605,"Ġindirect":6606,"Ġbeneath":6607,"proportion":6608,"Ġhidden":6609,"istics":6610,"mention":6611,"Ġmeas":6612,"Ġsurv":6613,"Ġengage":6614,"Ġrenders":6615,"Ġinsects":6616,"Ġclothes":6617,"taking":6618,"asc":6619,"usal":6620,"rael":6621,"Ġdeed":6622,"Ġworsh":6623,"away":6624,"Ġresour":6625,"ĠHebrew":6626,"parable":6627,"Ġselfish":6628,"Ġpossesses":6629,"content":6630,"Ġorganic":6631,"Ġculture":6632,"Ġethical":6633,"polit":6634,"omp":6635,"ĠBecause":6636,"Ġabol":6637,"Ġfeature":6638,"proceed":6639,"Ġsym":6640,"ĠVI":6641,"Ġimagined":6642,"Ġcarefully":6643,"Ġchemical":6644,"Ġbenevol":6645,"Ġcutting":6646,"Ġtalents":6647,"Socrates":6648,"Ġnoted":6649,"ĠSoph":6650,"Ġamuse":6651,"Ġrelates":6652,"yrr":6653,"Ġmarried":6654,"Ġmonths":6655,"understand":6656,"system":6657,"Ġincreasing":6658,"Ġfailure":6659,"Ġdrinking":6660,"Ġterrible":6661,"Christian":6662,"main":6663,"ĠSat":6664,"Ġcompr":6665,"Ġtechn":6666,"cules":6667,"Ġkeeps":6668,"Ġmercy":6669,"ĠOnly":6670,"command":6671,"Ġstriking":6672,"Ġelectric":6673,"Ġfatal":6674,"Ġwon":6675,"oty":6676,"Ġdeeds":6677,"death":6678,"Ġsuccessful":6679,"Ġlegisl":6680,"Ġcategories":6681,"esthetic":6682,"Ġinasmuch":6683,"employ":6684,"ardon":6685,"Ġunlike":6686,"tegr":6687,"orship":6688,"Ġcrimes":6689,"Ġpurchase":6690,"Cr":6691,"eno":6692,"leep":6693,"stead":6694,"urt":6695,"ĠWest":6696,"aws":6697,"Ġcoast":6698,"ĠChristians":6699,"Ġmineral":6700,"Ġpursued":6701,"Ġcavalry":6702,",_":6703,"rict":6704,"Ġolig":6705,"Ġfoll":6706,"ĠPoly":6707,"Ġrecol":6708,"Ġadmire":6709,"Ġdivisions":6710,"Ġboat":6711,"Ġadvantageous":6712,"Ġdespair":6713,"Ġthyself":6714,"distingu":6715,"speak":6716,"everything":6717,"Ġpersuade":6718,"Ġcultivation":6719,"Ġadopt":6720,"Met":6721,"erg":6722,"Ġcup":6723,"Ġfest":6724,"Ġhaz":6725,"ĠSylla":6726,"Ġconquered":6727,"Ġarranged":6728,"Mon":6729,"authority":6730,"Ġarose":6731,"Ġwives":6732,"itudes":6733,"ĠTheb":6734,"Ġseized":6735,"assad":6736,"Ġacted":6737,"ĠNum":6738,"expected":6739,"Ġbegun":6740,"Ġmetals":6741,"Ġdecision":6742,"Gr":6743,"call":6744,"sk":6745,"Ġwing":6746,"Ġcit":6747,"Ġrepl":6748,"Ġhes":6749,"Ġconc":6750,"cian":6751,"Ġrose":6752,"Ġcircum":6753,"Ġprocesses":6754,"athetic":6755,"Ġinvolves":6756,"........":6757,"Ġprivilege":6758,"Ġpupil":6759,"mas":6760,"Ġegg":6761,"resses":6762,"Ġideals":6763,"Ġcharity":6764,"archus":6765,"Ġtreats":6766,"necessity":6767,"children":6768,"Ġsuspicion":6769,"Gl":6770,"pher":6771,"á¼":6772,"Ġonely":6773,"unning":6774,"liber":6775,"Ġequivalent":6776,"Ġcontrast":6777,"Ġhonours":6778,"Ġcentre":6779,"Ġfathers":6780,"greater":6781,"ĠAntony":6782,"influ":6783,"reen":6784,"erves":6785,"Ġsnow":6786,"Ġfitted":6787,"throw":6788,"ĠCe":6789,"ĠLove":6790,"Ġconclusions":6791,"Ġcruelty":6792,"Ġborne":6793,"Ġpatter":6794,"Ġbeast":6795,"Ġserves":6796,"Ġoppose":6797,"Ġcoarse":6798,"Ġinterf":6799,"Ġdemons":6800,"Ġdecide":6801,"ĠSpan":6802,"Ġbarbarians":6803,"isition":6804,"Ġpull":6805,"ĠTest":6806,"Ġstation":6807,"avior":6808,"Ġtwice":6809,"Ġappar":6810,"Ġ39":6811,"Ġderive":6812,"Ġanalysis":6813,"Ġmathematical":6814,"Ide":6815,"sal":6816,"otism":6817,"took":6818,"Ġnobody":6819,"Ġobjection":6820,"Ġretreat":6821,"Ġordin":6822,"Ġapprehension":6823,"number":6824,";âĢĿ":6825,"ped":6826,"sus":6827,"Ġbee":6828,"osis":6829,"Ġrub":6830,"ensible":6831,"ĠNever":6832,"Ġconsiderations":6833,"parts":6834,"Ġconstitu":6835,"hig":6836,"iac":6837,"tw":6838,"asm":6839,"igion":6840,"ivable":6841,"ĠGl":6842,"class":6843,"Ġclean":6844,"untarily":6845,"ĠComp":6846,"Ġruns":6847,"Ġcelebrated":6848,"night":6849,"Ġtone":6850,"Ġrenew":6851,"odes":6852,"Ġring":6853,"orders":6854,"ignation":6855,"Ġbetray":6856,"ĠVol":6857,"Ġcollected":6858,"Ġphysics":6859,"Ġprobability":6860,"Ġcompanions":6861,"Ġdominion":6862,"Ġcontrovers":6863,"Ġescaped":6864,"direct":6865,"Ġlof":6866,"ĠTs":6867,"ĠLu":6868,"Ġcolle":6869,"Ġcolours":6870,"insic":6871,"strong":6872,"Ġconsistent":6873,"Ġapprobation":6874,"eff":6875,"har":6876,"inet":6877,"Ġbill":6878,"Ġcred":6879,"Ġfought":6880,"Ġdangers":6881,"cipro":6882,"conce":6883,"uality":6884,"Ġinsight":6885,"Ġcurious":6886,"RAL":6887,"Ġhearts":6888,"Ġdistinctly":6889,"persed":6890,"Ġincluded":6891,"Ġconceal":6892,"ĠAmong":6893,"Ġconsumption":6894,"Ġcried":6895,"already":6896,"Ġconject":6897,"cho":6898,"perhaps":6899,"neg":6900,"priv":6901,"Ġ35":6902,"Ġobserving":6903,"Ġcausing":6904,"Ġdoubtful":6905,"Ġattempts":6906,"Ġsubordinate":6907,"Ġinnocent":6908,"dep":6909,"gn":6910,"ih":6911,"line":6912,"Ġly":6913,"Ġissu":6914,"Ġgross":6915,"acing":6916,"Ġeminent":6917,"Ġimmortality":6918,"Ġcontinual":6919,"Ġtraged":6920,"rupted":6921,"XXX":6922,"Ġquarter":6923,"Ġmanufactures":6924,"ĠSubject":6925,"Res":6926,"cap":6927,"Ġaverage":6928,"icro":6929,"asant":6930,"Ġascend":6931,"ads":6932,"Ġvac":6933,"whose":6934,"Ġwherever":6935,"Ġprofits":6936,"picuous":6937,"Ġexercised":6938,"Ġpsychology":6939,"sacr":6940,"Ġdepos":6941,"Ġchast":6942,"Ġaccus":6943,"Ġsimplicity":6944,"Ġdegr":6945,"Ġedge":6946,"Ġdelicate":6947,"Ġsources":6948,"Ġexperienced":6949,"Ġmidst":6950,"34":6951,"orter":6952,"orial":6953,"alian":6954,"Ġwelf":6955,"Ġrites":6956,"eless":6957,"Ġperplex":6958,"Ġamid":6959,"Ġdescrib":6960,"Ġsummer":6961,"animity":6962,"Nor":6963,"Ġfed":6964,"Ġreceives":6965,"ĠAust":6966,"antial":6967,"Ġcompens":6968,"Ġ37":6969,"Ġsignification":6970,"ĠArg":6971,"Ġheavenly":6972,"Ġsprings":6973,"pri":6974,"Ġbount":6975,"Ġfert":6976,"Ġlat":6977,"Ġlod":6978,"Ġgames":6979,"Ġgrew":6980,"ĠPaul":6981,"Ġtru":6982,"ĠNay":6983,"Ġgrain":6984,"Ġacross":6985,"Ġparallel":6986,"ĠIndies":6987,"Ġsublime":6988,"phenomen":6989,"Ġbent":6990,"icacy":6991,"Ġangels":6992,"Ġsev":6993,"Ġinference":6994,"Ġsurpass":6995,"Ġmonarch":6996,"Ġcentral":6997,"Ġrepeat":6998,"ION":6999,"See":7000,"Ġpiety":7001,"ĠUpon":7002,"Ġstret":7003,"Ġcenturies":7004,"Ġfalsehood":7005,"Ġdepth":7006,"Ġreproach":7007,"Ġsynthesis":7008,"Ġsed":7009,"outhern":7010,"utter":7011,"aine":7012,"Ġwhoever":7013,"ĠLuc":7014,"ĠNO":7015,"achus":7016,"Ġconstituted":7017,"matical":7018,"Ġvex":7019,"Ġhistorical":7020,"Ġluxury":7021,"Ġwelfare":7022,"Dem":7023,"son":7024,"tered":7025,"Ġnit":7026,"Ġnomin":7027,"Ġforgotten":7028,"Ġrising":7029,"rium":7030,"Ġgrasp":7031,"Ġcorpor":7032,"Ġpreservation":7033,"distinct":7034,"ĠPhilip":7035,"Ġmeasuring":7036,"live":7037,"inqu":7038,"Ġwand":7039,"ĠTe":7040,"Ġprecious":7041,"ibal":7042,"Ġsupposition":7043,"Ġinvented":7044,"Ġincident":7045,"Ġperformance":7046,"Ġproofs":7047,"Ġterror":7048,"Ġethics":7049,"Ġhostile":7050,"Ġmurder":7051,"Well":7052,"Ġtheat":7053,"adox":7054,"ĠPre":7055,"Ġexpressions":7056,"Out":7057,"Ġsugar":7058,"acult":7059,"Ġunit":7060,"compl":7061,"Ġaddressed":7062,"Ġcontinuous":7063,"Ġelection":7064,"Ġuniversally":7065,"ĠDeity":7066,"Ġventure":7067,",âĢĻ":7068,"Her":7069,"rage":7070,"Ġvoc":7071,"Ġatoms":7072,"unct":7073,"ishop":7074,"Ġfears":7075,"Ġfeared":7076,"Ġmighty":7077,"conditions":7078,"Ġcommands":7079,"Ġinfinitely":7080,"ĠRelating":7081,"Ġranks":7082,"ris":7083,"zen":7084,"Ġtrem":7085,"Ġmurd":7086,"orical":7087,"Ġthither":7088,"etern":7089,"Ġdeceive":7090,"open":7091,"Ġgenerous":7092,"Ġnorth":7093,"Ġstrangers":7094,"Ġtermed":7095,"Ġslender":7096,"Ġaccomplished":7097,"feeling":7098,"Ġshillings":7099,"word":7100,"Ġwound":7101,"itch":7102,"Ġmour":7103,"ĠGu":7104,"ĠWhile":7105,"Ġtemperance":7106,"Ġoccurring":7107,"Ġangles":7108,"36":7109,"oo":7110,"pra":7111,"stre":7112,"Ġante":7113,"thousand":7114,"Ġexcuse":7115,"Ġconformity":7116,"Ġboys":7117,"Ġfluid":7118,"fav":7119,"vest":7120,"ĠIDE":7121,"Ġrot":7122,"Ġnovel":7123,"Ġunc":7124,"ĠWhether":7125,"Ġforest":7126,"ctrine":7127,"persons":7128,"Ġfaithful":7129,"Ġdealing":7130,"Ġindependence":7131,"laws":7132,"UR":7133,"inner":7134,"Ġdate":7135,"Ġgun":7136,"irs":7137,"ĠMind":7138,"Ġcontact":7139,"overe":7140,"Ġresent":7141,"Ġenvironment":7142,"Ġzeal":7143,"Ġtreasure":7144,"Ġeconomic":7145,"making":7146,"ÏĢ":7147,"Ġswell":7148,"itating":7149,"ork":7150,"Ġshore":7151,"Ġanyone":7152,"ogism":7153,"posal":7154,"Ġrelief":7155,"prob":7156,"Ġdelay":7157,"Ġboard":7158,"Ġplayed":7159,"Ġantiquity":7160,"CAL":7161,"Ġlif":7162,"rod":7163,"Ġconverse":7164,"Ġstick":7165,"osc":7166,"Ġrhy":7167,"ogy":7168,"whatever":7169,"Ġimpulses":7170,"Ġinterv":7171,"inese":7172,"Ġtransition":7173,"Ġorganization":7174,"ancholy":7175,"believe":7176,"Ġprayer":7177,"Ġinvestig":7178,"Plato":7179,"tes":7180,"Ġtheories":7181,"umes":7182,"Ġpert":7183,"keep":7184,"adequ":7185,"Ġartist":7186,"Ġabsent":7187,"Ġ40":7188,"Ġirre":7189,"guard":7190,"Ġice":7191,"onomy":7192,"itably":7193,"Ġbore":7194,"Ġcro":7195,"Ġpig":7196,"Ġdust":7197,"Ġlaug":7198,"Ġtranqu":7199,"aping":7200,"Ġspeci":7201,"Ġseeks":7202,"Ġwrites":7203,"deg":7204,"...":7205,"Ġstrongly":7206,"Ġchanging":7207,"Ġbenefits":7208,"Ġscheme":7209,"Ġsuperstition":7210,"Ġmild":7211,"irl":7212,"verb":7213,"ignt":7214,"Ġsoever":7215,"brought":7216,"Who":7217,"Ġadmirable":7218,"Ġshadow":7219,"circumstances":7220,"Sl":7221,"writ":7222,"Ġbones":7223,"ester":7224,"Ġcas":7225,"ĠMess":7226,"Ġplate":7227,"rys":7228,"Ġintent":7229,"Ġdistrict":7230,"Ġenthus":7231,"Ġraising":7232,"Ġneglected":7233,"Ġfailed":7234,"thinking":7235,"Ġverses":7236,"Ġlisten":7237,"purpose":7238,"Ġcriminal":7239,"Certainly":7240,"eus":7241,"gence":7242,"ik":7243,"Ġbull":7244,"Ġhollow":7245,"sell":7246,"Ġgets":7247,"ĠFull":7248,"ĠArch":7249,"Ġestablishment":7250,"society":7251,"Ġhealthy":7252,"Ġproblems":7253,"ico":7254,"rap":7255,"Ġvii":7256,"Ġdeem":7257,"Ġwills":7258,"Ġprem":7259,"Ġmaintenance":7260,"Ġavail":7261,"ĠAlcibiades":7262,"fortunate":7263,"Ġdistribution":7264,"Ġanalogy":7265,"Ġentitled":7266,"Self":7267,"bene":7268,"igonus":7269,"Ġentreat":7270,"Thou":7271,"Ġ);":7272,"Ġfifth":7273,"Ġdefeat":7274,"Ġprophets":7275,"50":7276,"AT":7277,"aur":7278,"once":7279,"Ġband":7280,"Ġpill":7281,"Ġdance":7282,"urg":7283,"ifold":7284,"odorus":7285,"ĠBoth":7286,"social":7287,"comb":7288,"Ġstranger":7289,"ĠIsrael":7290,"Ġexclusive":7291,"Ġcreate":7292,"Ġmetaphysical":7293,"religion":7294,"xx":7295,"Ġbig":7296,"Ġho":7297,"Ġnine":7298,"oples":7299,"Ġlect":7300,"rian":7301,"Ġ11":7302,"Ġdefine":7303,"Ġpreviously":7304,"Ġlively":7305,"Ġbreed":7306,"Ġappropriate":7307,"Ġviii":7308,"Ġalien":7309,"Ġju":7310,"Ġagr":7311,"ogen":7312,"Ġserving":7313,"Ġdestro":7314,"Ġconvention":7315,"ĠMarius":7316,"Ġsubsistence":7317,"mitting":7318,"oet":7319,"Ġbi":7320,"Ġhol":7321,"Ġimitate":7322,"abled":7323,"Ġmostly":7324,"Ġrests":7325,"ĠKnowledge":7326,"passion":7327,"Ġnarr":7328,"Ġpretty":7329,"Eng":7330,"Ïĥ":7331,"Ġcog":7332,"Ġcook":7333,"oda":7334,"Ġperceiving":7335,"Ġabuse":7336,"concl":7337,"begin":7338,"Ġarticles":7339,"Ġlanguages":7340,"Ġtending":7341,"ĠCarth":7342,"Ġcells":7343,"Ġpublished":7344,"Ġeloquence":7345,"uated":7346,"Ġharsh":7347,"aration":7348,".).":7349,"amation":7350,"ivill":7351,"ĠSal":7352,"Ġrat":7353,"ĠMor":7354,"Ġinspired":7355,"Ġsuspect":7356,"Ġcouncil":7357,"Ġmagnific":7358,"Ġsickness":7359,"practical":7360,"Ġsuperflu":7361,"Ġabandon":7362,"dome":7363,"mot":7364,"van":7365,"Ġcart":7366,"Ġconsec":7367,"Ġexile":7368,"told":7369,"Ġcommend":7370,"Ġevening":7371,"ĠHeaven":7372,"Ġrepose":7373,"Ġrecall":7374,"Ġglorious":7375,"Ġexcited":7376,"board":7377,"Ġinterpretation":7378,"Ġacknowledged":7379,"'t":7380,"Athen":7381,"fig":7382,"Ġeating":7383,"allic":7384,"ĠEach":7385,"Ġaccum":7386,"Ġfarm":7387,"Ġdetect":7388,"Ġsilk":7389,"Ġvisit":7390,"Ġgolden":7391,"Ġcompetition":7392,"ham":7393,"isen":7394,"Ġplane":7395,"Ġcompounds":7396,"Ġregulated":7397,"Ġpleases":7398,"Ġmaintaining":7399,"Ġgravity":7400,"pen":7401,"uation":7402,"Ġopt":7403,"atural":7404,"second":7405,"Ġreverse":7406,"Ġresemble":7407,"rob":7408,"pping":7409,"Ġunworthy":7410,"sold":7411,"Ġfever":7412,"inks":7413,"Ġremind":7414,"ĠVir":7415,"Ġhereafter":7416,"Ġrepresents":7417,"Ġprovinces":7418,"Ġmonarchy":7419,"ietz":7420,"Ġrevealed":7421,"Ġproductive":7422,"Ġdischarge":7423,"ignty":7424,"40":7425,"pain":7426,"estern":7427,"especially":7428,"Ġcord":7429,"Ġpp":7430,"ugn":7431,"Ġbeforehand":7432,"prom":7433,"Ġdecree":7434,"Ġrecognized":7435,"Ġpreferred":7436,"Ġprejudice":7437,"Ġtropical":7438,"Ġthrew":7439,"ĠCrit":7440,"Ġwillingly":7441,"ignor":7442,"Ġpoly":7443,"Ġwrought":7444,"Ġopened":7445,"Ġscene":7446,"Ġadmits":7447,"Ġmonop":7448,"Ġminister":7449,"Ġbox":7450,"Ġpatri":7451,"Ġpleasing":7452,"ĠWherefore":7453,"Ġcaptain":7454,"Ġtribes":7455,"Ġdemonstration":7456,"Ġancestors":7457,"37":7458,"Cons":7459,"TS":7460,"rich":7461,"Ġcher":7462,"sole":7463,"Ġenlight":7464,"Ġflame":7465,"Ġexpressing":7466,"lands":7467,"Ġtemples":7468,"desire":7469,"Ġanxious":7470,"ĠProtagoras":7471,"ietzsche":7472,"OF":7473,"held":7474,"era":7475,"cile":7476,"ousse":7477,"ĠPol":7478,"ĠBible":7479,"conv":7480,"ĠDr":7481,"anguage":7482,"Ġceased":7483,"ĠDivine":7484,"CH":7485,"Ob":7486,"aver":7487,"atum":7488,"ivial":7489,"assus":7490,"Ġsensibility":7491,"Ġintermediate":7492,"Ġinteresting":7493,"although":7494,"Ġolder":7495,"Ġbelieves":7496,"Ġlargely":7497,"Ġinhabitant":7498,"ĠPlut":7499,"Ġpropriet":7500,"itimate":7501,"Ġfro":7502,"othe":7503,"Ġstomach":7504,"tole":7505,"Ġevolution":7506,"Ġcontest":7507,"aceae":7508,"Ġdesert":7509,"Ġregions":7510,"pret":7511,"Ġpropose":7512,"Ġdeeply":7513,"Ġtort":7514,"ĠDemetrius":7515,"39":7516,"mount":7517,"Ġowe":7518,"Ġsister":7519,"isher":7520,"Ġpil":7521,"Ġinex":7522,"oments":7523,"ember":7524,"ortunes":7525,"ĠFe":7526,"iousness":7527,"rug":7528,"Ġremarks":7529,"Ġoffence":7530,"lessly":7531,"Ġreported":7532,"Ġimmense":7533,"Ġbreaking":7534,"Ġhyp":7535,"Ġdespise":7536,"Ġinvolve":7537,"Ġaccompany":7538,"Ġadditional":7539,"First":7540,"Ġcel":7541,"idance":7542,"illus":7543,"Ġembod":7544,"Ġpassive":7545,"Ġpromises":7546,"Ġfairly":7547,"Ġfaults":7548,"ĠGermany":7549,"Ġreconcil":7550,"GE":7551,"LY":7552,"va":7553,"pelled":7554,"Ġsecre":7555,"mented":7556,"Ġgoal":7557,"udence":7558,"ibilities":7559,"Ġhumble":7560,"Ġpurity":7561,"develop":7562,"rows":7563,"Ġaccounts":7564,"ocked":7565,"Ġsuccessive":7566,"Ġbehalf":7567,"Ġdevoted":7568,"Ġmusical":7569,"Ġeconomy":7570,"ĠResem":7571,"35":7572,"mosp":7573,"says":7574,"treat":7575,"inery":7576,"Ġbark":7577,"aria":7578,"olated":7579,"Ġallies":7580,"ĠBra":7581,"Ġconspir":7582,"Ġsubt":7583,"ĠHegel":7584,"Ġjustify":7585,"Ġhumility":7586,"Ġexpedition":7587,"Ġparticip":7588,"pended":7589,"Ġcontinues":7590,"aneously":7591,"Ġdevotion":7592,"Ġapprove":7593,"Ġdisciples":7594,"Ġurged":7595,"ĠAccordingly":7596,"ĠÂ":7597,"Ġtang":7598,"anc":7599,"ald":7600,"impossible":7601,"Ġdisagreeable":7602,"ĠDE":7603,"ibr":7604,"Ġcompact":7605,"Ġassurance":7606,"Ġparticles":7607,"iculture":7608,"Ġsecondary":7609,"evident":7610,"Ġreckon":7611,"Ġarchitect":7612,"oubtedly":7613,"UL":7614,"Ġ=":7615,"Ġfet":7616,"owder":7617,"Ġfright":7618,"resist":7619,"ĠMoral":7620,"Ġaccidents":7621,"Ġinfinity":7622,"ĠAnother":7623,"Ġregarding":7624,"Ġdevice":7625,"Ġbeliefs":7626,"Ġcommunication":7627,"uary":7628,"ĠTur":7629,"aunt":7630,"Ġroots":7631,"ĠAssembly":7632,"Ġadds":7633,"Ġdirections":7634,"relations":7635,"greatest":7636,"ylon":7637,"Ġassertion":7638,"Ġrejected":7639,"Ġstrictly":7640,"ousseau":7641,"Ġsouth":7642,"Ġweather":7643,"Ġvicious":7644,"Ġalleg":7645,"Ġkne":7646,"Ġmoderation":7647,"Ġfortunes":7648,"Ġskilled":7649,"Those":7650,"ĠProv":7651,"Ġconcealed":7652,"ĠTruth":7653,"Proof":7654,"Ġrarely":7655,"Ġxxx":7656,"ĠStoics":7657,"UM":7658,"done":7659,"ua":7660,"lee":7661,"usual":7662,"Ġsequ":7663,"ĠCandide":7664,"onging":7665,"ĠEss":7666,"Ġrecover":7667,"Ġdrag":7668,"Ġtrace":7669,"plicit":7670,"earth":7671,"Ġinformed":7672,"--------":7673,"Ġmerchant":7674,"Ġconvinced":7675,"pie":7676,"Ġgymn":7677,"ille":7678,"pert":7679,"forth":7680,"Ġpersist":7681,"Ġinfirm":7682,"Ġteaches":7683,"Ġscru":7684,"Ġmarched":7685,"reditary":7686,"sometimes":7687,"Ġdefeated":7688,"Ġstupid":7689,"ĠOpposite":7690,"ĠScotland":7691,"universal":7692,"idelity":7693,"SS":7694,"itic":7695,"Ġinhab":7696,"Ġcondu":7697,"allowed":7698,"Ġprodig":7699,"result":7700,"ĠEnd":7701,"Ġconting":7702,"Ġintim":7703,"curing":7704,"ructive":7705,"ĠWhatever":7706,"Ġenjoyed":7707,"reasonable":7708,"belief":7709,"appears":7710,"Ġwithdraw":7711,"ĠTestament":7712,"Fr":7713,"Imp":7714,"hetic":7715,"Ġdyn":7716,"entire":7717,"Ġrect":7718,"Ġexempt":7719,"Ġstopp":7720,"Ġvague":7721,"operation":7722,"Ġindicate":7723,"ethod":7724,"Ġcolors":7725,"Ġanswers":7726,"Ġinfluences":7727,"athered":7728,"Ġmagnitude":7729,"Ġambassad":7730,"Ġmiracle":7731,"Des":7732,"IG":7733,"aet":7734,"viously":7735,"Ġbag":7736,"Ġbend":7737,"Ġconcur":7738,"Ġcomment":7739,"erers":7740,"Ġdisgu":7741,"Ġrocks":7742,"Ġpractices":7743,"Ġcuriosity":7744,"Ġderiv":7745,"Ġdistinctions":7746,"Ġcandid":7747,"38":7748,"aigne":7749,"mo":7750,"Ġconve":7751,"actory":7752,"Ġreprodu":7753,"Ġcharged":7754,"Ġmoist":7755,"Ġstrongest":7756,"Ġlimbs":7757,"Ġsky":7758,"friend":7759,"Ġdiversity":7760,"Ġprudent":7761,"ĠPeople":7762,"ievous":7763,"Pe":7764,"inated":7765,"Ġcosm":7766,"Ġhill":7767,"Ġalle":7768,"ĠPope":7769,"ĠOlymp":7770,"plus":7771,"ĠWar":7772,"constit":7773,"ĠLiber":7774,"ugal":7775,"Ġcoat":7776,"Ġhoriz":7777,"Ġfriendly":7778,"ĠFriends":7779,"Ġbeside":7780,"difference":7781,"Ġburied":7782,"Ġinnum":7783,"Ġdisgust":7784,"_)":7785,"uang":7786,"Ġcaught":7787,"ĠAbs":7788,"ams":7789,"ĠHipp":7790,"ugg":7791,"Ġexpectation":7792,"Ġdilig":7793,"Page":7794,"TA":7795,"Ġvel":7796,"Ġsins":7797,"Ġweep":7798,"Ġrisk":7799,"ĠChinese":7800,"Ġconfer":7801,"Ġsurvey":7802,"Ġbestow":7803,"Ġessay":7804,"ĠIndeed":7805,"Ġsuggested":7806,"Ġsanct":7807,"ispens":7808,"ĠWorld":7809,"Ġrevelation":7810,"Cle":7811,"five":7812,"erving":7813,"Ġstamp":7814,"ĠSU":7815,"uman":7816,"ĠHs":7817,"Ġupright":7818,"Ġperi":7819,"Ġenact":7820,"Ġsport":7821,"Ġspake":7822,"Ġclim":7823,"sequent":7824,"Ġdogs":7825,"Ġsalvation":7826,"Ġtotally":7827,"Ġinstincts":7828,"occasion":7829,"Ġcensure":7830,"ĠDionysius":7831,"Ġhazard":7832,"gus":7833,"science":7834,"Ġster":7835,"Ġinherent":7836,"alter":7837,"Ġnet":7838,"Ġvoy":7839,"Ġnob":7840,"ideal":7841,"teenth":7842,"Ġpretended":7843,"ucle":7844,"Ġaffords":7845,"Ġsystematic":7846,"Ġopenly":7847,"Ġfavourable":7848,"Ġsumm":7849,"Ġattacked":7850,"Ġobservations":7851,"independ":7852,"ĠResembling":7853,"],":7854,"lic":7855,"material":7856,"Ġflying":7857,"oure":7858,"alone":7859,"iguous":7860,"Ġshalt":7861,"astly":7862,"Ġpermit":7863,"ordered":7864,"Ġdescribe":7865,"Ġprophet":7866,"Ġphysi":7867,"Ġswift":7868,"Ġpromised":7869,"Ġneighbours":7870,"Ġburning":7871,"ĠEthics":7872,"dent":7873,"lin":7874,"Ġvoid":7875,"Ġrival":7876,"within":7877,"ĠVery":7878,"Ġfails":7879,"necessarily":7880,"Ġuncertainty":7881,"Ġdesirous":7882,"cclesiast":7883,"ĠÂ£":7884,"Ġinnumerable":7885,"Co":7886,"TY":7887,"makes":7888,"Ġfaint":7889,"Ġsucc":7890,"acl":7891,"Ġplays":7892,"Ġlesser":7893,"ĠVII":7894,"Ġimagin":7895,"Ġyounger":7896,"Ġsixty":7897,"Ġcorrupted":7898,"Em":7899,"Poly":7900,"Ġfraud":7901,"ola":7902,"uminous":7903,"opter":7904,"ĠPort":7905,"ĠEv":7906,"Ġclo":7907,"Ġyourselves":7908,"formity":7909,"Ġconstruction":7910,"prep":7911,"Ġrespecting":7912,"Ġimaginary":7913,"changed":7914,"His":7915,"uate":7916,"Ġwax":7917,"ura":7918,"adig":7919,"Ġdeeper":7920,"ĠCreat":7921,"ĠPri":7922,"ĠHigh":7923,"Ġmarine":7924,"Ġcombining":7925,"Therefore":7926,"Ġquarters":7927,"Ġtumult":7928,"established":7929,"\";":7930,"incre":7931,"Ġsitting":7932,"isy":7933,"Ġhide":7934,"separ":7935,"istry":7936,"ĠMag":7937,"constitution":7938,"Ġenum":7939,"measure":7940,"Ġscope":7941,"Ġcolony":7942,"Ġdivinity":7943,"Ġsincere":7944,"Ġstudied":7945,"Ġpromote":7946,"emonstr":7947,"Ġpatience":7948,"ESS":7949,"Ġmasses":7950,"Ġprepare":7951,"Ġabsurdity":7952,"conditioned":7953,"recogn":7954,"ĠConfucius":7955,"agreement":7956,"Some":7957,"fit":7958,"Ġmamm":7959,"Ġfain":7960,"ulent":7961,"cians":7962,"Ġunhappy":7963,"Ġremed":7964,"Ġoffspring":7965,"Ġmarry":7966,"Ġlaying":7967,"Ġtypes":7968,"Ġprospect":7969,"small":7970,"Ġfabric":7971,"ĠPleasure":7972,"kal":7973,"uber":7974,"onent":7975,"Ġshield":7976,"ĠCast":7977,"Ġunwilling":7978,"ogues":7979,"Ġbeloved":7980,"ĠChina":7981,"Ġrail":7982,"Ġestimate":7983,"Ġcopper":7984,"ĠTrue":7985,"Ġconvenient":7986,"ĠApollo":7987,"rimin":7988,"Ġaesthetic":7989,"Ġrele":7990,"Ġdeity":7991,"Ġproves":7992,"Ġrud":7993,"ĠPelop":7994,"Ġintimate":7995,"Ġbrill":7996,"aeans":7997,"Ġprovision":7998,"Ġquantities":7999,"Ġcontradict":8000,"CLES":8001,"Ġtimber":8002,"came":8003,"Ġocean":8004,"Ġanaly":8005,"ĠSw":8006,"urely":8007,"Ġcommission":8008,"hyl":8009,"Ġrelate":8010,"Ġintense":8011,"Ġthrust":8012,"Ġendless":8013,"Ġcheap":8014,"Ġbehavior":8015,"return":8016,"Ġattempted":8017,"Ġposterity":8018,"Ġbarbarous":8019,"Ġpictures":8020,"Ġwalking":8021,"Ġinvestigation":8022,"Ġanxiety":8023,"pop":8024,"reality":8025,"Ġnose":8026,"ĠBl":8027,"Ġtrying":8028,"ignific":8029,"Ġaccused":8030,"Ġprey":8031,"henes":8032,"Ġrecognize":8033,"Ġpatient":8034,"philosophers":8035,"Ġcritical":8036,"Ġhunger":8037,"Zadig":8038,"towards":8039,"ateful":8040,"Ġrash":8041,"ĠCivill":8042,"perception":8043,"Ġadject":8044,"Ġinvisible":8045,"Ġdetails":8046,"Ġinterested":8047,"Ġfields":8048,"Ġconquest":8049,"Ġspeculation":8050,"Ġsteel":8051,"Ġmagistrate":8052,"Ġdiam":8053,"Ġsupplied":8054,"ĠHellenes":8055,"Ġuneasiness":8056,"restr":8057,"igr":8058,"Ġrivers":8059,"Ġtrained":8060,"Ġpeoples":8061,"ologist":8062,"Ġprofitable":8063,"Ġillusion":8064,"ieties":8065,"Ġcivilized":8066,"Ġgentleman":8067,"Ġpetty":8068,"ĠReligion":8069,"Ġpreference":8070,"important":8071,"Ġben":8072,"Ġcove":8073,"Ġming":8074,"Ġwhit":8075,"estial":8076,"arts":8077,"need":8078,"Ġgray":8079,"Ġprecip":8080,"ipides":8081,"Ġinfantry":8082,"Ġendowed":8083,"lius":8084,"issue":8085,"Ġoccasioned":8086,"Ġ190":8087,"occup":8088,"Ġaxi":8089,"Ġmerchants":8090,"PROP":8091,"ais":8092,"itement":8093,"Ġbade":8094,"Ġmaid":8095,"Ġproclaim":8096,"Ġfeather":8097,"ogic":8098,"Ġprecepts":8099,"Ġregulate":8100,"Ġsimpl":8101,"Ġdegener":8102,"Ġbehaviour":8103,"Ġaccommod":8104,"Ġburst":8105,"ĠAntigonus":8106,"Ġindifference":8107,"Ġexhibit":8108,"Ġpitch":8109,"imagination":8110,"substance":8111,"elicity":8112,"Ca":8113,"nings":8114,"times":8115,"onius":8116,"Ġded":8117,"essed":8118,"emen":8119,"Ġshoot":8120,"ĠPyrr":8121,"ptuous":8122,"ĠMay":8123,"ĠEX":8124,"Ġpoll":8125,"Ġsimil":8126,"Ġdetail":8127,"Ġdoubtless":8128,"equality":8129,"Ġpopulation":8130,"Ġsupplies":8131,"Ġsuperficial":8132,"concerning":8133,"ĠEpicurus":8134,"several":8135,"streng":8136,"Car":8137,"Ed":8138,"capable":8139,"zy":8140,"Ġstages":8141,"ĠHad":8142,"else":8143,"Ġrestored":8144,"TEN":8145,"Ġpossessions":8146,"Ġvolume":8147,"ilitarian":8148,"Ġcontribute":8149,"Ġmelancholy":8150,"Ġwidely":8151,"ĠJustice":8152,"Ġteachers":8153,"Ġsecured":8154,"Ġobscurity":8155,";âĢĶ":8156,"Cicero":8157,"room":8158,"osa":8159,"Ġatmosp":8160,"Ġprocure":8161,"anting":8162,"Ġunequal":8163,"apes":8164,"dev":8165,"Ġrestore":8166,"Ġmodel":8167,"Ġmodesty":8168,"Ġcoal":8169,"Ġbestowed":8170,"Ġoperate":8171,"annibal":8172,"arms":8173,"Ġalteration":8174,"ĠFlore":8175,"immediately":8176,"Ġtent":8177,"Ġwaves":8178,"ese":8179,"Ġpick":8180,"Ġhung":8181,"Ġrear":8182,"ĠIS":8183,"qualities":8184,"abb":8185,"ĠEl":8186,"ocrit":8187,"Ġjustified":8188,"Ġpresupp":8189,"worth":8190,"Ġrepresenting":8191,"bitious":8192,"Ġcompanion":8193,"years":8194,"Ġconjunction":8195,"ends":8196,"fold":8197,"false":8198,"ked":8199,"otus":8200,"Ġexh":8201,"Ġexportation":8202,"Ġshel":8203,"Ġvalid":8204,"Ġasking":8205,"Ġargue":8206,"Ġparas":8207,"Ġapproved":8208,"Ġprevented":8209,"Ġlegislation":8210,"Ġgeometry":8211,"abstract":8212,"?--":8213,"Very":8214,"danger":8215,"Ġwounds":8216,"Ġmiles":8217,"ushing":8218,"Ġnearest":8219,"Ġreserved":8220,"Ġimpose":8221,"Ġrequest":8222,"Ġjudging":8223,"Ġtemperate":8224,"coh":8225,"Ġborrowed":8226,"Our":8227,"mag":8228,"Ġmix":8229,"Ġfoul":8230,"alted":8231,"Ġdata":8232,"Ġannex":8233,"Ġconverted":8234,"ante":8235,"ĠMatter":8236,"conceptions":8237,"Ġarticle":8238,"pecial":8239,"Ġorganism":8240,"Ġanalogous":8241,"BOOK":8242,"eh":8243,"further":8244,"Ġpale":8245,"Ġdu":8246,"ĠCath":8247,"Ġdoct":8248,"Ġcontempor":8249,"Ġcharm":8250,"Ġhandle":8251,"Ġguidance":8252,"Ġsubstit":8253,"Ġbelieving":8254,"doing":8255,"Ġ50":8256,"Ġdependence":8257,"ĠRomulus":8258,"hensive":8259,"Ġprincipally":8260,"Ġexperiments":8261,"Ġslowly":8262,"Ġabundance":8263,"Ġresources":8264,"Î¼":8265,"enough":8266,"Ġelected":8267,"Ġgas":8268,"aying":8269,"Ġvap":8270,"ophy":8271,"iege":8272,"ostles":8273,"ĠEd":8274,"ĠVal":8275,"Chapter":8276,"Ġreturning":8277,"relative":8278,"Ġcondemn":8279,"appearance":8280,"Ġinevitable":8281,"Ver":8282,"bad":8283,"eenth":8284,"ero":8285,"Ġcott":8286,"Ġmat":8287,"lets":8288,"usively":8289,"qual":8290,"Ġchose":8291,"active":8292,"Ġherbs":8293,"Ġentrance":8294,"Ġcontriv":8295,"Ġcharacteristics":8296,"Ġdrunk":8297,"Ġeleg":8298,"Ġearthly":8299,"understood":8300,"Ġparliament":8301,"Ġparadox":8302,"Ġcenter":8303,"Ġeducated":8304,"Ġengine":8305,"hetical":8306,"ĠHimself":8307,"Ġwickedness":8308,"Ġsurprise":8309,"Ġprivileges":8310,"Ġgarden":8311,"Ġspecially":8312,"):":8313,"IM":8314,"Ġpond":8315,"Ġtol":8316,"Ġloses":8317,"Ġrecipro":8318,"eman":8319,"Ġmanifold":8320,"Ġlend":8321,"Ġleather":8322,"decl":8323,"Ġindefinite":8324,"Ġdetermines":8325,"Ġabstraction":8326,"Ġplaying":8327,"Ġrecognise":8328,"Ġintroduce":8329,"Ġcopy":8330,"Ġpreparation":8331,"ĠSicily":8332,"pat":8333,"pal":8334,"erior":8335,"Ġfold":8336,"eties":8337,"Ġshout":8338,"Ġwheat":8339,"Ġjuris":8340,"Ġix":8341,"forms":8342,"dec":8343,"Ġvalour":8344,"Ġpractically":8345,"Ġinclude":8346,"Ġconducted":8347,"Ġleaders":8348,"Ã¦st":8349,"ĠZeno":8350,"Ġdemanded":8351,"Ġembrace":8352,"Ġdiminish":8353,"ozo":8354,"Ġtrifling":8355,"mentioned":8356,"influence":8357,"OW":8358,"tus":8359,"tra":8360,"heres":8361,"Ġpul":8362,"illing":8363,"Ġrises":8364,"Ġplural":8365,"Ġconspicuous":8366,"ogene":8367,"Ġnormal":8368,"prove":8369,"Ġgovernor":8370,"Ġrecent":8371,"Ġsmallest":8372,"eneca":8373,"Ġgroups":8374,"Ġhurtful":8375,"Ġbulk":8376,"Ġaristocracy":8377,"Water":8378,"doubt":8379,"Ġspl":8380,"Ġmoments":8381,"uter":8382,"akers":8383,"Ġperf":8384,"ĠMost":8385,"ĠEle":8386,"Ġofficial":8387,"Ġrighteous":8388,"Ġrage":8389,"Ġadmitting":8390,"Ġindividuality":8391,"Ġrepresentations":8392,"Ġmoves":8393,"Ġreturns":8394,"onym":8395,"causes":8396,"Ġdevil":8397,"Ġpaying":8398,"naturally":8399,"Ġantagon":8400,"judgment":8401,"hensible":8402,"Ġasserted":8403,"Ġdisturbed":8404,"adequate":8405,"32":8406,"ieth":8407,"eren":8408,"pture":8409,"unities":8410,"ĠFortune":8411,"Ġpurple":8412,"Ġretire":8413,"Ġcombat":8414,"Ġbroke":8415,"Ġrecognition":8416,"Ġgratitude":8417,"Ġdefects":8418,"Ġsurprised":8419,"religious":8420,"intellectual":8421,"Ġsmell":8422,"ba":8423,"bro":8424,"Ġpier":8425,"Ġthro":8426,"least":8427,"ulating":8428,"ivol":8429,"ĠMer":8430,"external":8431,"exerc":8432,"Ġroof":8433,"Ġafflict":8434,"Ġinclinations":8435,"Ġsignal":8436,"Ġavar":8437,"Ġinjure":8438,"Ġrecognised":8439,"Ġtyrants":8440,"Ġavoided":8441,"Ġtalking":8442,"considerable":8443,"Ġfinger":8444,"Ġapparatus":8445,"Ġshed":8446,"onia":8447,"enemy":8448,"Ġhaste":8449,"Ġstem":8450,"cible":8451,"Ġunconscious":8452,"ortions":8453,"osthenes":8454,"ĠNietzsche":8455,"Ġfarmer":8456,"Ġconsiders":8457,"ĠVirtue":8458,"Ġcool":8459,"Ġeasier":8460,"Ġsignify":8461,"Ġmole":8462,"Ġsummon":8463,"Ġimproved":8464,"ĠShall":8465,"Ġmachinery":8466,"rusted":8467,"Ġsexual":8468,"Ġstatue":8469,"Ġrapidly":8470,".(":8471,"diction":8472,"itors":8473,"Ġmart":8474,"Ġpair":8475,"Ġanew":8476,"Ġseize":8477,"cia":8478,"erson":8479,"Ġlev":8480,"Ġplot":8481,"above":8482,"forced":8483,"ialect":8484,"inking":8485,"Ġblows":8486,"Ġrope":8487,"ĠSoci":8488,"Ġconditioned":8489,"Ġdesigns":8490,"Ġimproper":8491,"Ġliterary":8492,"Ġdistributed":8493,"considered":8494,"intelligible":8495,"iating":8496,"Ġascribed":8497,"ivals":8498,"ĠSup":8499,"bring":8500,"express":8501,"ĠThebans":8502,"Ġlofty":8503,"Di":8504,"_:":8505,"joice":8506,"},":8507,"Ġwond":8508,"Ġwrest":8509,"Ġmicro":8510,"Ġinser":8511,"utch":8512,"Ġgains":8513,"Ġconvert":8514,"osph":8515,"Ġpoem":8516,"Ġsurrender":8517,"Ġcommander":8518,"Ġmeasured":8519,"aze":8520,"Ġ188":8521,"Ġappreci":8522,"Ġsanction":8523,"consequently":8524,"ispensable":8525,"Hor":8526,"Yet":8527,"mark":8528,"Ġá¼":8529,"ĠSaviour":8530,"emus":8531,"ĠWu":8532,"ĠMO":8533,"ĠRousseau":8534,"depend":8535,"Ġsubjected":8536,"ĠKings":8537,"Ġfellows":8538,"Ġcomplain":8539,"mistocles":8540,"Ġaltered":8541,"Ġclouds":8542,"ĠGeneral":8543,"Ġresentment":8544,"vis":8545,"Ġwounded":8546,"Ġscre":8547,"ithmet":8548,"olt":8549,"Ġchann":8550,"elius":8551,"ĠFurther":8552,"Ġadding":8553,"Ġguilt":8554,"Ġuniversality":8555,"bodies":8556,"Ġtouching":8557,"Ġaccidental":8558,"Ġvegetable":8559,"Ġenterprise":8560,"Nature":8561,"cation":8562,"ui":8563,"ervation":8564,"Ġsale":8565,"Ġcou":8566,"Ġintend":8567,"Ġextern":8568,"orting":8569,"pleasant":8570,"Ġclosed":8571,"except":8572,"Ġcarriage":8573,"Ġapplies":8574,"Ġintrinsic":8575,"Cy":8576,"cular":8577,"Ġorator":8578,"ithrid":8579,"pered":8580,"unless":8581,"Ġspo":8582,"close":8583,"Ġimped":8584,"Ġexpedient":8585,"Ġkindred":8586,"Ġstrain":8587,"Ġreflected":8588,"Ġsuffers":8589,"Ġrecourse":8590,"attrib":8591,"appre":8592,"Ġfreed":8593,"Ġmembr":8594,".]--":8595,"Ġsinging":8596,"Ġincreases":8597,"Ġveh":8598,"iasm":8599,"Ġcontented":8600,"True":8601,"Ġtemporary":8602,"Ġfeeble":8603,"Ġbenevolence":8604,"App":8605,"Hell":8606,"MEN":8607,"gods":8608,"Ġintegr":8609,"illa":8610,"ĠBacon":8611,"ignant":8612,"Ġimply":8613,"Ġraces":8614,"Ġfollowers":8615,"Ġcriter":8616,"attles":8617,"endeav":8618,"Ġleader":8619,"Ġboast":8620,"Ġkey":8621,"Ġdisputes":8622,"infinite":8623,"Ġaccomplish":8624,"Ġapparently":8625,"Ġdeliberate":8626,"Ġelder":8627,"Ġtouched":8628,"31":8629,"facult":8630,"iences":8631,"magn":8632,"Ġwid":8633,"Ġpardon":8634,"asy":8635,"chance":8636,"Ġweary":8637,"ĠSec":8638,"Ġprolong":8639,"Ġprosec":8640,"ĠBar":8641,"ensed":8642,"ĠDest":8643,"Ġreasonings":8644,"ĠVIII":8645,"Ġretired":8646,"Ġpractise":8647,"fear":8648,"Ġprevailed":8649,"Ġfortunate":8650,"control":8651,"Ġpraises":8652,"ĠPhaed":8653,"thoughts":8654,"Ġodor":8655,"property":8656,"Ġpattern":8657,"Ġperiods":8658,"47":8659,"Phil":8660,"giving":8661,"enate":8662,"Ġhosp":8663,"Ġdivid":8664,"Ġhereditary":8665,"ĠWord":8666,"Ġdisple":8667,"Ġlawful":8668,"ĠYu":8669,"grat":8670,"ĠEuripides":8671,"Ġsituations":8672,"Ġtalent":8673,"Ġinduced":8674,"Ġaspects":8675,"Ġdwelling":8676,"Ġbeaten":8677,"Ġvillage":8678,"Cal":8679,"run":8680,"sum":8681,"Ġconcent":8682,"amus":8683,"Ġsober":8684,"agin":8685,"Ġflowing":8686,"Ġenters":8687,"Ġfury":8688,"Ġdestiny":8689,"Ġindustrial":8690,"ĠDoes":8691,"ĠPericles":8692,"instance":8693,"Ġreckoned":8694,"Ġoligarchy":8695,"ĠAustral":8696,"Ac":8697,"half":8698,"history":8699,"lord":8700,"Ġfib":8701,"seems":8702,"Ġlin":8703,"Ġlion":8704,"Ġalliance":8705,"ĠHon":8706,"Ġusur":8707,"Ġarrog":8708,"Ġhumour":8709,"proof":8710,"Ġdefense":8711,"Ġsubstitute":8712,"Ġirrational":8713,"Ġtelling":8714,"Ġsituated":8715,"Ġportions":8716,"namely":8717,"Ġdialectic":8718,"Ġcomprising":8719,"46":8720,"icates":8721,"icating":8722,"Ġbew":8723,"Ġrejo":8724,"Ġheed":8725,"ession":8726,"Ġexagger":8727,"Ġviv":8728,"Ġproced":8729,"ĠCat":8730,"ĠPis":8731,"Ġdoors":8732,"ĠFab":8733,"Ġplenty":8734,"Ġentering":8735,"Ġrefined":8736,"Ġexamined":8737,"fellow":8738,"IST":8739,"seeing":8740,"Ġcritic":8741,"interested":8742,"example":8743,"Ġbounty":8744,"Ġanteced":8745,"Men":8746,"PLE":8747,"gest":8748,"Ġaversion":8749,"ino":8750,"Ġbit":8751,"icide":8752,"Ġgerm":8753,"Ġknot":8754,"ieving":8755,"ĠOff":8756,"Ġdisappro":8757,"ĠMad":8758,"Ġquoted":8759,"Ġagency":8760,"Ġfeast":8761,"otherwise":8762,"ĠRuss":8763,"Ġclergy":8764,"Ġextracted":8765,"ĠYour":8766,"Ġangle":8767,"expression":8768,"regarded":8769,"intelligence":8770,"ĠDiogenes":8771,"48":8772,"reck":8773,"Ġretained":8774,"Ġham":8775,"acities":8776,"ĠWas":8777,"Ġeveryone":8778,"Ġpole":8779,"Ġstrive":8780,"Ġextinct":8781,"Ġxi":8782,"Ġcustomary":8783,"Ġorganized":8784,"respons":8785,"value":8786,"Ġremembered":8787,"philosoph":8788,"Ġmeantime":8789,"Prot":8790,"ĠCrassus":8791,"Ġmillion":8792,"ĠSolon":8793,"hist":8794,"Ġtale":8795,"adel":8796,"Ġstuff":8797,"osom":8798,"Ġvener":8799,"ĠPass":8800,"ĠEu":8801,"ountain":8802,"Ġherb":8803,"Ġyours":8804,"Ġtranslation":8805,"Ġdraws":8806,"myself":8807,"ĠKingdome":8808,"Ġpredomin":8809,"connected":8810,"harmon":8811,"AC":8812,"freedom":8813,"loss":8814,"pin":8815,"received":8816,"ana":8817,"icing":8818,"stud":8819,"ĠCourt":8820,"Ġalcoh":8821,"ĠEr":8822,"Ġundergo":8823,"inted":8824,"Ġbrothers":8825,"Ġthrone":8826,"prot":8827,"Ġawaken":8828,"Ġappearing":8829,"Ġdeterminate":8830,"Ġaffects":8831,"Ġirrit":8832,"Ġharb":8833,"Ġhousehold":8834,"ipping":8835,"ĠPrince":8836,"Sem":8837,"ball":8838,"dish":8839,"mes":8840,"move":8841,"motion":8842,"Ġmines":8843,"ĠTra":8844,"Ġconcepts":8845,"Ġweaken":8846,"ĠSaint":8847,"Ġseas":8848,"Ġvine":8849,"artes":8850,"ĠGal":8851,"Ġadj":8852,"weed":8853,"Ġrap":8854,"Ġedition":8855,"Ġoneself":8856,"Ġrestraint":8857,"Ġpersuasion":8858,"ILL":8859,"Ġversed":8860,"Ġlikeness":8861,"rum":8862,"orned":8863,"ida":8864,"ĠAng":8865,"umed":8866,"allen":8867,"Ġalkal":8868,"ĠMus":8869,"oft":8870,"ruly":8871,"Ġexpenses":8872,"Ġseriously":8873,"Ġextingu":8874,"attempt":8875,"eches":8876,"Ġwiser":8877,"Ġfirmly":8878,"Ġgentlemen":8879,"Ġprisoners":8880,"Ġdreadful":8881,"Ġinherit":8882,"Ġfeatures":8883,"ĠSpanish":8884,"degree":8885,"soldiers":8886,"Ġnobility":8887,"ses":8888,"uum":8889,"Ġost":8890,"Ġpressed":8891,"Ġgates":8892,"ĠPop":8893,"ĠBet":8894,"Ġunexpected":8895,"Ġaggreg":8896,"Ġconfine":8897,"Ġaffair":8898,"ontaigne":8899,"Ġvoluntarily":8900,"Ġwoods":8901,"Ġyielding":8902,"Ġseasons":8903,"Ġglobe":8904,"Ġrhyth":8905,"mult":8906,"ny":8907,"uzz":8908,"viol":8909,"Î»":8910,"really":8911,"atical":8912,"Ġtoil":8913,"ilia":8914,"illity":8915,"Ġsubdu":8916,"Ġdiffers":8917,"Ġinfall":8918,"Ġrepent":8919,"ĠJer":8920,"Ġeffective":8921,"Ġlasting":8922,"brance":8923,"ĠArcad":8924,"Ġsupporting":8925,"Ġerrone":8926,"Ġmystery":8927,"Ġemotional":8928,"Ġshrub":8929,"Ġtechnical":8930,"Lacedaemon":8931,"Str":8932,"crit":8933,"rend":8934,"Ġbid":8935,"Ġff":8936,"Ġstore":8937,"ouring":8938,"ĠPolit":8939,"ĠHerm":8940,"unken":8941,"ĠGre":8942,"ressing":8943,"Ġundertake":8944,"compar":8945,"Ġscorn":8946,"Ġeffected":8947,"Ġinside":8948,"Ġlastly":8949,"Ġfinished":8950,"Ġtendencies":8951,"ĠPrinci":8952,"Ġmanifestation":8953,"ĠPersian":8954,"Ġabandoned":8955,"Ġshrubs":8956,"Ġtragedy":8957,"awn":8958,"high":8959,"iner":8960,"Ġbon":8961,"enus":8962,"Ġfol":8963,"Ġbefall":8964,"ĠSon":8965,"Ġtrades":8966,"iph":8967,"Ġartic":8968,"manifest":8969,"ailing":8970,"Ġcorporeal":8971,"Ġworked":8972,"Ġsurplus":8973,"appoint":8974,"Ġsupernatural":8975,"ĠTrans":8976,"Ġsurrounded":8977,"ĠPythagoras":8978,"End":8979,"UC":8980,"auls":8981,"green":8982,"atible":8983,"Ġcard":8984,"Ġmob":8985,"Ġlately":8986,"antine":8987,"Ġalarm":8988,"ache":8989,"Ġtrivial":8990,"ĠHapp":8991,"Ġperceives":8992,"Ġenorm":8993,"Ġenabled":8994,"Ġcontend":8995,"short":8996,"Ġ22":8997,"Ġinterior":8998,"Ġdestitute":8999,"Ġdespised":9000,"LICLES":9001,"Ġtroubled":9002,"CALLICLES":9003,"uing":9004,"virt":9005,"asse":9006,"Ġbell":9007,"Ġeast":9008,"Ġreaction":9009,"Ġpersec":9010,"Ġnorthern":9011,"Ġadvancing":9012,"Ġlovers":9013,"Ġphot":9014,"Ġannoy":9015,"ĠZeus":9016,"Ġbanished":9017,"ĠSpartan":9018,"Ġcommodity":9019,"Ġstroke":9020,"ĠFriendship":9021,"ithridates":9022,"45":9023,"49":9024,"?âĢĶ":9025,"MENT":9026,"Rom":9027,"cast":9028,"rot":9029,"Ġaven":9030,"arius":9031,"quality":9032,"Ġproverb":9033,"ĠProdu":9034,"ĠHannibal":9035,"Ġdismiss":9036,"ĠGorg":9037,"Ġpraised":9038,"Ã¦s":9039,"Ġsympath":9040,"ĠHercules":9041,"Ġprayers":9042,"Ġinconsistent":9043,"Non":9044,"liter":9045,"Ġtissue":9046,"enc":9047,"Ġpin":9048,"Ġpages":9049,"Ġwholes":9050,"Ġoracle":9051,"umber":9052,"ĠCass":9053,"Ġprize":9054,"Ġcompose":9055,"Ġinsist":9056,"Ġvariation":9057,"Ġguided":9058,"Ġphysicians":9059,"Ġceases":9060,"criptions":9061,"compan":9062,"saying":9063,"Ġtriangle":9064,"service":9065,"Ġresponsible":9066,"Ġagriculture":9067,"].":9068,"spect":9069,"uition":9070,"whel":9071,"Î·":9072,"inj":9073,"invol":9074,"otted":9075,"enter":9076,"utor":9077,"amy":9078,"quin":9079,"olis":9080,"aketh":9081,"oused":9082,"Ġunfortunate":9083,"ĠDid":9084,"Ġeverybody":9085,"Ġobjections":9086,"Ġexpose":9087,"irdly":9088,"Ġemployments":9089,"Ġinjured":9090,"Ġoccupy":9091,"Ġrendering":9092,"Sea":9093,"Ġillustration":9094,"Ġsacrificed":9095,"Ġintervals":9096,"Col":9097,"bound":9098,"ients":9099,"}.":9100,"Ġtie":9101,"esse":9102,"Ġgathered":9103,"Ġascribe":9104,"ĠSm":9105,"ĠCre":9106,"Ġanywhere":9107,"key":9108,"Ġquot":9109,"Ġimpat":9110,"Ġflatt":9111,"Ġdiscourses":9112,"Ġcarbon":9113,"curgus":9114,"brid":9115,"Ġdecor":9116,"Ġincred":9117,"Ġhandsome":9118,"idding":9119,"legis":9120,"Ġspectator":9121,"Ġcomprehended":9122,"ĠEmperor":9123,"Ġcompassion":9124,"Ġjealousy":9125,"beautiful":9126,"Ġworshipped":9127,"BLE":9128,"Rel":9129,"ea":9130,"grow":9131,"loc":9132,"morrow":9133,"theism":9134,"empir":9135,"Ġsubsequent":9136,"Ġresc":9137,"pha":9138,"product":9139,"ternational":9140,"Ġ21":9141,"Ġfactors":9142,"Ġmodest":9143,"Ġruined":9144,"young":9145,"belong":9146,"Ġrestrain":9147,"Ġvigor":9148,"Ġsignificant":9149,"Ġfierce":9150,"Sw":9151,"civil":9152,"moment":9153,"wort":9154,"ĠâĢĻ":9155,"Ġtur":9156,"urrection":9157,"Ġhem":9158,"Ġwel":9159,"Ġstable":9160,"osh":9161,"ĠSovere":9162,"ifferent":9163,"angled":9164,"forward":9165,"Ġprecept":9166,"excell":9167,"Ġpersonality":9168,"mankind":9169,"Ġsubjection":9170,"advent":9171,"Ġtreating":9172,"Ġhorror":9173,"Ġfuneral":9174,"Ġmysteries":9175,"Ġgarment":9176,"ĠAfrican":9177,"Ġconveyed":9178,"ĠNevertheless":9179,"Ġshelter":9180,"hind":9181,"whe":9182,"Ġfoss":9183,"arant":9184,"lead":9185,"anded":9186,"Ġbutter":9187,"ĠMart":9188,"Ġlips":9189,"Ġfeud":9190,"Ġrelax":9191,"Ġoffers":9192,"Ġcares":9193,"ĠVer":9194,"appointed":9195,"Ġpainting":9196,"retion":9197,"Ġvolition":9198,"Ġkeen":9199,"Ġdeserved":9200,"mighty":9201,"business":9202,"learned":9203,"ĠBelonging":9204,"liberty":9205,"Ġcontroversy":9206,"govern":9207,"ker":9208,"woman":9209,"Ġtables":9210,"onian":9211,"Ġpage":9212,"aning":9213,"Ġnerves":9214,"Ġisolated":9215,"imal":9216,"Ġshock":9217,"Ġcompos":9218,"ĠHel":9219,"unciation":9220,"abylon":9221,"Ġambitious":9222,"Ġrepet":9223,"phor":9224,"Ġacute":9225,"Ġdestined":9226,"Ġcommercial":9227,"Ġinduce":9228,"possession":9229,"consideration":9230,"Ġfancies":9231,"Ġmisfortunes":9232,"education":9233,"ĠLysander":9234,"CON":9235,"Ret":9236,"rating":9237,"vi":9238,"itations":9239,"throp":9240,"ousness":9241,"Ġnobles":9242,"agraph":9243,"conceived":9244,"Ġsubmission":9245,"Ġoffering":9246,"Ġsuffice":9247,"Ġscattered":9248,"Ġvaried":9249,"certainly":9250,"Ġendeavours":9251,"Ġtotality":9252,"Ġconversion":9253,"Ġaccurate":9254,"Ġhunting":9255,"-**:":9256,"data":9257,"rough":9258,"Ïħ":9259,"Ġil":9260,"Ġtub":9261,"Ġbought":9262,"enjoy":9263,"esy":9264,"edge":9265,"Ġnerv":9266,"Ġrece":9267,"Ġanch":9268,"thou":9269,"Ġextends":9270,"geance":9271,"ogical":9272,"ĠRh":9273,"Ġdescent":9274,"Ġassault":9275,"Ġvariations":9276,"Ġforegoing":9277,"Ġlearnt":9278,"Ġlegitimate":9279,"appeared":9280,"Ġfools":9281,"ĠPerhaps":9282,"Ġfifteen":9283,"Ġphilosophic":9284,"Ġtreacher":9285,"lasting":9286,"Ġconfirmed":9287,"Ġimpartial":9288,"Ġcontinuance":9289,"Ġextravagant":9290,"Ġtangible":9291,"!âĢĶ":9292,"language":9293,"nial":9294,"nicious":9295,"sil":9296,"Ġreaches":9297,"Ġgate":9298,"oser":9299,"ĠWere":9300,"beyond":9301,"berry":9302,"Ġappend":9303,"teness":9304,"Ġtransgress":9305,"Ġcapit":9306,"Ġexplo":9307,"ighth":9308,"ĠContr":9309,"THER":9310,"Ġundoubtedly":9311,"fortune":9312,"ĠLawes":9313,"ART":9314,"political":9315,"Ġsuperfluous":9316,"hement":9317,"Ġul":9318,"ĠTime":9319,"iguity":9320,"oso":9321,"quet":9322,"Ġvotes":9323,"Ġkiss":9324,"perate":9325,"Ġthank":9326,"Ġthanks":9327,"Ġrelatively":9328,"Ġpropag":9329,"Ġaccounted":9330,"Ġimportation":9331,"ĠIndians":9332,"Ġconcluded":9333,"Ġextending":9334,"original":9335,"Ġdeceit":9336,"Ġnoblest":9337,"Ġcelestial":9338,"money":9339,"ran":9340,"eder":9341,"Ġfiction":9342,"ications":9343,"Ġrewards":9344,"urches":9345,"Ġfors":9346,"ĠScience":9347,"emin":9348,"Ġvivid":9349,"ĠPo":9350,"Ġdislike":9351,"ĠMAN":9352,"Ġplunder":9353,"cession":9354,"Ġeman":9355,"Ġconstancy":9356,"Ġ48":9357,"Ġloving":9358,"Ġministers":9359,"ĠReg":9360,"Ġresembles":9361,"Ġexclude":9362,"Ġencourage":9363,"ĠSecondly":9364,"physical":9365,"ĠLucullus":9366,"Ag":9367,"Hence":9368,"Rec":9369,"custom":9370,"det":9371,"faith":9372,"lab":9373,"rig":9374,"Ġwest":9375,"erke":9376,"Ġhook":9377,"Ġthunder":9378,"otent":9379,"states":9380,"ĠCam":9381,"rier":9382,"Ġcommence":9383,"anged":9384,"Ġimpr":9385,"Ġoffensive":9386,"Ġended":9387,"Ġmetallic":9388,"Ġverbal":9389,"Ġweaker":9390,"Ġannihil":9391,"plicated":9392,"Ġtemporal":9393,"Ġfingers":9394,"flu":9395,"iarly":9396,"temper":9397,"Ġsaints":9398,"Ġpious":9399,"omed":9400,"ady":9401,"Ġsuited":9402,"Ġtrick":9403,"Ġunnatural":9404,"Ġunusual":9405,"Ġcontents":9406,"bler":9407,"Ġgramm":9408,"Ġclay":9409,"Ġflav":9410,"Ġmorally":9411,"Ġworkmen":9412,"Ġinspiration":9413,"Ġsignifies":9414,"Ġexplicit":9415,"Ġfaces":9416,"speaking":9417,"ĠMarcus":9418,"Ġprofessed":9419,"Ġinseparable":9420,"ĠCharles":9421,"Ġerected":9422,"Ġmonopoly":9423,"Ġatmosphere":9424,"55":9425,"POL":9426,"ference":9427,"onnes":9428,"ithe":9429,"Ġcunning":9430,"Ġmock":9431,"Ġpowder":9432,"oter":9433,"Ġrejoice":9434,"thren":9435,"acent":9436,"ĠHave":9437,"Ġimplied":9438,"plain":9439,"Ġusage":9440,"Ġdiscretion":9441,"Ġwarlike":9442,"Ġvalidity":9443,"Ġinterval":9444,"Ġinsignific":9445,"Ġpaint":9446,"Ġlaboure":9447,"Ġruling":9448,"Ġsending":9449,"answer":9450,"Ġsplendid":9451,"beginning":9452,"Fore":9453,"eur":9454,"init":9455,"Ġsor":9456,"iries":9457,"ĠTending":9458,"illes":9459,"olve":9460,"Ġration":9461,"ĠCong":9462,"ĠCOM":9463,"ĠHen":9464,"ĠHor":9465,"ĠHistory":9466,"unto":9467,"text":9468,"Ġemperor":9469,"ĠChapter":9470,"Ġcaution":9471,"Ġawake":9472,"Ġthousands":9473,"Ġefficient":9474,"Ġrelationship":9475,"Ġfurniture":9476,"affairs":9477,"limited":9478,"Ġprejudices":9479,"Ġabundant":9480,"Ġfulfil":9481,"Ġforbidden":9482,"Ġprocedure":9483,"bow":9484,"diss":9485,"fight":9486,"field":9487,"tem":9488,"headed":9489,"intend":9490,"inoz":9491,"Ġsaint":9492,"Ġfidelity":9493,"anias":9494,"Ġhoney":9495,"ospel":9496,"ieves":9497,"Ġchamber":9498,"places":9499,"ĠLit":9500,"ultiv":9501,"ĠItalian":9502,"Ġworlds":9503,"Ġvalued":9504,"Ġsubstantial":9505,"Ġtrag":9506,"Ġpassionate":9507,"Ġwindow":9508,"changeable":9509,"Ġvigorous":9510,"Ġachieved":9511,"Ġrigid":9512,"build":9513,"60":9514,"PHA":9515,"She":9516,"ban":9517,"demonstr":9518,"ipt":9519,"wind":9520,"Ġward":9521,"idable":9522,"Ġabilities":9523,"apse":9524,"Ġsupposes":9525,"Ġthrowing":9526,"Ġdiscord":9527,"ĠVar":9528,"Ġcoinc":9529,"Ġcivilization":9530,"ITH":9531,"ĠJewish":9532,"Ġsymbols":9533,"Ġlady":9534,"Ġspontaneous":9535,"eternal":9536,"Ġcontrivance":9537,"Ġavarice":9538,"mir":9539,"associ":9540,"ĠIX":9541,"closed":9542,"Ġblock":9543,"Ġseeming":9544,"Ġadvise":9545,"Ġdemocratic":9546,"Ġmainly":9547,"ellus":9548,"Ġconsisted":9549,"ĠRevolution":9550,"Ġhabitual":9551,"passions":9552,"Ġexcluded":9553,"oleon":9554,"Ġdeserves":9555,"Ġaffirmed":9556,"nesse":9557,"Ġsafely":9558,"Ġaxis":9559,"Ġdigest":9560,"Ġsteady":9561,"ĠCreator":9562,"strength":9563,"mother":9564,"esp":9565,"Ġtow":9566,"Ġwee":9567,"quar":9568,"Ġmanage":9569,"Ġshop":9570,"Ġ...":9571,"Ġobtaining":9572,"soon":9573,"ishness":9574,"Ġindispensable":9575,"Ġwherewith":9576,"Ġrefuge":9577,"attention":9578,"Ġallowing":9579,"Ġmetaphysics":9580,"ĠPeace":9581,"Ġvoyage":9582,"ĠSupreme":9583,"dro":9584,"latter":9585,"ena":9586,"orge":9587,"omuch":9588,"ilful":9589,"Ġexer":9590,"quer":9591,"emies":9592,"racus":9593,"cio":9594,"ĠWould":9595,"Ġadult":9596,"Ġconsuls":9597,"Ġoverthrow":9598,"Ġpublicly":9599,"Ġcompleted":9600,"Ġbackward":9601,"Ġcommanders":9602,"mathe":9603,"ĠUnivers":9604,"Ġendeavor":9605,"Conf":9606,"Ġwinds":9607,"Ġpredicate":9608,"Ġrevolutions":9609,"Ġassumption":9610,"ĠSomething":9611,"Ġtheoretical":9612,"ivolous":9613,"Ã¦sar":9614,"gments":9615,"obe":9616,"psych":9617,"sed":9618,"onents":9619,"alus":9620,"Ġbeget":9621,"ĠTwo":9622,"Ġsteal":9623,"raft":9624,"ĠWH":9625,"ĠMel":9626,"acts":9627,"Ġquit":9628,"Ġoffend":9629,"Ġstring":9630,"Ġadmired":9631,"Ġmaintains":9632,"Ġtemperature":9633,"ERS":9634,"ĠWilliam":9635,"Ġtroublesome":9636,"Ġsulphur":9637,"More":9638,"aired":9639,"cence":9640,"lers":9641,"wisdom":9642,"xim":9643,"health":9644,"Ġlosing":9645,"Ġforbear":9646,"iliar":9647,"olid":9648,"Ġram":9649,"iel":9650,"Ġdisd":9651,"Ġplans":9652,"blood":9653,"feit":9654,"Ġuttered":9655,"Ġinjurious":9656,"instinct":9657,"ĠHeracl":9658,"Ġinsect":9659,"Ġstarting":9660,"Ġclothing":9661,"Ġregulations":9662,"Ġsympt":9663,"ĠPlutarch":9664,"Eth":9665,"Since":9666,"iently":9667,"ench":9668,"Ġmood":9669,"Ġpound":9670,"ĠAc":9671,"ĠAuthority":9672,"ĠDuke":9673,"oyal":9674,"Ġflood":9675,"Ġproducts":9676,"Ġoppress":9677,"Ġinvited":9678,"Ġcommanding":9679,"Ġmagic":9680,"Ġallows":9681,"Ġverb":9682,"Ġpursuits":9683,"afterwards":9684,"oeot":9685,"Ġcaptains":9686,"Ġcollectively":9687,"ĠÃĨ":9688,"Ġvigour":9689,"wrong":9690,"Ġencouraged":9691,"Ġceremonies":9692,"ĠIDEAS":9693,"MENO":9694,"LL":9695,"Ġtast":9696,"Ġfals":9697,"Ġlaughter":9698,"ĠAcad":9699,"odies":9700,"ĠSil":9701,"ĠThings":9702,"Ġspare":9703,"Ġbrute":9704,"Ġrepugn":9705,"Ġexpressly":9706,"Ġpossessing":9707,"Ġcurve":9708,"Ġexcitement":9709,"reasoning":9710,"Ġsuspected":9711,"Ġpsychological":9712,"Ġultimately":9713,"ĠConsisting":9714,"phenomena":9715,"cclesiastical":9716,"Ġbrilliant":9717,"dict":9718,"pred":9719,"ws":9720,"Ġdrug":9721,"Ġwhither":9722,"Ġframed":9723,"ĠChe":9724,"ĠOR":9725,"riages":9726,"superior":9727,"Ġnowhere":9728,"phi":9729,"phic":9730,"Ġscul":9731,"Ġprescribed":9732,"Ġpractised":9733,"Ġrespective":9734,"ighter":9735,"contro":9736,"Ġsecretly":9737,"Ġpronounce":9738,"ĠOthers":9739,"difficulty":9740,"Ġelevated":9741,"Ġnominal":9742,"Ġcloak":9743,"Note":9744,"``":9745,"gives":9746,"pure":9747,"Ġstern":9748,"Ġpomp":9749,"Ġdon":9750,"Ġweig":9751,"Ġvo":9752,"Ġunits":9753,"ĠGent":9754,"Ġjest":9755,"ĠEarth":9756,"bleness":9757,"rule":9758,"Ġrav":9759,"Ġsimult":9760,"omenes":9761,"Ġapplicable":9762,"Ġdestructive":9763,"Ġdenial":9764,"Ġbeneficial":9765,"Ġcategory":9766,"Ġsynthetical":9767,"âĢĲâĢĲâĢĲâĢĲâĢĲâĢĲâĢĲâĢĲâĢĲâĢĲâĢĲâĢĲâĢĲâĢĲâĢĲâĢĲ":9768,"Ġlinen":9769,"POLUS":9770,"Can":9771,"almost":9772,"Ġhell":9773,"Ġvest":9774,"Ġshade":9775,"ĠBY":9776,"Ġworm":9777,"Ġdispositions":9778,"Ġflux":9779,"Ġfactor":9780,"Ġinspire":9781,"Ġstandards":9782,"knowing":9783,"Ġ49":9784,"ellow":9785,"Ġneglig":9786,"Ġdistinguishing":9787,"species":9788,"Ġdiminished":9789,"Ġentertained":9790,"determined":9791,"ĠVenus":9792,"ĠSometimes":9793,"Ġamusement":9794,"PHAED":9795,"56":9796,"Will":9797,"gone":9798,"gave":9799,"mic":9800,"Ġtenth":9801,"cetic":9802,"opl":9803,"agan":9804,"notion":9805,"herence":9806,"Ġhonors":9807,"Ġspeaker":9808,"Ġseverity":9809,"Ġ47":9810,"Ġstudent":9811,"Ġnegation":9812,"Ġengra":9813,"Ġfigur":9814,"Ġwaiting":9815,"Ġtransparent":9816,"Ġconstructed":9817,"NE":9818,"fast":9819,"iency":9820,"sided":9821,"Ġwet":9822,"Ġbat":9823,"Ġpipe":9824,"Ġconver":9825,"ĠArab":9826,"orer":9827,"ĠCoun":9828,"ĠPan":9829,"Ġpernicious":9830,"rying":9831,"exc":9832,"Ġinfect":9833,"Ġelabor":9834,"Ġminor":9835,"Ġprag":9836,"Ġclearness":9837,"Ġconvince":9838,"Ġinvolving":9839,"Ġexhibited":9840,"looked":9841,"tolemy":9842,"Ã¦sthetic":9843,"Ass":9844,"OG":9845,"PP":9846,"RUS":9847,"bri":9848,"hundred":9849,"Ġtar":9850,"Ġwider":9851,".);":9852,"esteem":9853,"ĠPRO":9854,"Ġimplicit":9855,"pled":9856,"ĠLoc":9857,"Ġindicated":9858,"becomes":9859,"ruc":9860,"show":9861,"Ġhonesty":9862,"engers":9863,"Ġassociate":9864,"Ġhonorable":9865,"Ġdefinitions":9866,"Ġdeparted":9867,"Ġcompanies":9868,"Ġcompel":9869,"Ġinstructed":9870,"Ġsurround":9871,"ĠCharacter":9872,"Ġpupils":9873,"Ġresponsibility":9874,"Ġremoval":9875,"Ġdramatic":9876,"Del":9877,"god":9878,"pical":9879,"rul":9880,"uble":9881,"xious":9882,"Ġtract":9883,"Ġpays":9884,"ĠTitus":9885,"ayed":9886,"usually":9887,"peace":9888,"Ġmeal":9889,"ĠLiv":9890,"why":9891,"Ġformula":9892,"Ġheroes":9893,"ĠChrys":9894,"Ġnecessaries":9895,"Ġscales":9896,"Ġdoubts":9897,"ggests":9898,"ĠXXX":9899,"ituated":9900,"Ġcombine":9901,"Ġinferred":9902,"lexible":9903,"Ġodd":9904,"Ġsyllogism":9905,"Ġpresumption":9906,"Ġtranslated":9907,"Super":9908,"Ġconjecture":9909,"Ġseventy":9910,"ĠAbsolute":9911,"ĠSociety":9912,"57":9913,"Never":9914,"Spe":9915,"bird":9916,"Ġhills":9917,"Ġhed":9918,"third":9919,"term":9920,"Ġfrank":9921,"ĠSuppose":9922,"Ġunavoid":9923,"avid":9924,"ĠLat":9925,"Ġrelieve":9926,"Ġintol":9927,"Ġgenerations":9928,"Ġdiscer":9929,"Ġshells":9930,"Ġanswering":9931,"Ġresulting":9932,"cellus":9933,"ferred":9934,"Ġbesie":9935,"supposed":9936,"Comp":9937,"Ġafforded":9938,"school":9939,"Ġnervous":9940,"Prop":9941,"ois":9942,"Ġtall":9943,"Ġsap":9944,"Ġsiege":9945,"Ġmold":9946,"Ġfung":9947,"ima":9948,"Ġug":9949,"olate":9950,"Ġsof":9951,"Ġrh":9952,"ĠOd":9953,"anship":9954,"ĠWisdom":9955,"Ġindignation":9956,"Ġ100":9957,"Ġdiffering":9958,"Ġapplying":9959,"Ġfoundations":9960,"Ġshepher":9961,"Ġgoverning":9962,"Ġhonoured":9963,"strous":9964,"Ġmuscles":9965,"ĠBefore":9966,"Ġdecline":9967,"azus":9968,"Ġinjuries":9969,"aughters":9970,"ĠLeg":9971,"Ġsuggestion":9972,"Ġdiminution":9973,"matters":9974,"OUR":9975,"Ġweapons":9976,"Ġmagnificent":9977,"cases":9978,"ding":9979,"fire":9980,"rain":9981,"Ġpack":9982,"Ġduly":9983,"stra":9984,"entive":9985,"Ġluck":9986,"usk":9987,"istence":9988,"istical":9989,"Ġvic":9990,"ĠPeter":9991,"Ġchlor":9992,"Ġunnecessary":9993,"ĠOnce":9994,"Ġdispose":9995,"Ġowner":9996,"iae":9997,"composition":9998,"Ġexpans":9999,"Ġcorp":10000,"Ġadvised":10001,"contempl":10002,"Ġruled":10003,"Ġverte":10004,"cretion":10005,"Ġannually":10006,"Ġoccurred":10007,"Ġgarrison":10008,"satisfaction":10009,"family":10010,"Ġenthusiasm":10011,"ĠCatholic":10012,"Ġcriterion":10013,"Acc":10014,"Dec":10015,"liv":10016,"sin":10017,"six":10018,"Ġbath":10019,"Ġfable":10020,"Ġinequality":10021,"Ġhated":10022,"Ġthine":10023,"lement":10024,"left":10025,"Ġsuck":10026,"Ġcha":10027,"actor":10028,"Ġbrut":10029,"Ġroll":10030,"Ġextract":10031,"Ġrecur":10032,"Ġcontrasted":10033,"alties":10034,"Ġburnt":10035,"Ġmistakes":10036,"Ġtitles":10037,"Ġmalice":10038,"Ġattending":10039,"Ġslightly":10040,"discover":10041,"Ġappetites":10042,"ĠLycurgus":10043,"morality":10044,"Ġsolitary":10045,"Ġexhausted":10046,"piece":10047,"inoza":10048,"Philosop":10049,"QU":10050,"lest":10051,"uer":10052,"inally":10053,"Ġsouthern":10054,"omon":10055,"stru":10056,"step":10057,"urall":10058,"Ġfearing":10059,"Ġreserve":10060,".\"]":10061,"creation":10062,"Ġrod":10063,"Ġlesson":10064,"ĠStill":10065,"Ġstrengthen":10066,"Ġbenefic":10067,"Reason":10068,"Ġexclusively":10069,"hands":10070,"Ġdiscussed":10071,"ĠPersians":10072,"constant":10073,"Ġpronounced":10074,"Ġindulgence":10075,"argument":10076,"ĠEmpire":10077,"',":10078,"AM":10079,"Sal":10080,"author":10081,"due":10082,"Îº":10083,"ouis":10084,"ara":10085,"Ġgalle":10086,"ĠTiber":10087,"Ġweigh":10088,"Ġsty":10089,"Ġproc":10090,"ĠPaus":10091,"ĠBOOK":10092,"Ġconsolation":10093,"Ġflag":10094,"Ġsocieties":10095,"Ġapproaching":10096,"Ġdeclaration":10097,"Ġsusceptible":10098,"Ġcrystals":10099,"Ġmechanism":10100,"Ġillustrious":10101,"Ġaltru":10102,"Ġdeduced":10103,"divine":10104,"written":10105,"Ġpunishments":10106,"Idea":10107,"ĠCompare":10108,"Ġdeemed":10109,"ocritus":10110,"Ġannexed":10111,"Sch":10112,"Ste":10113,"pit":10114,"vable":10115,"Ġhaw":10116,"ĠId":10117,"thes":10118,"illation":10119,"Ġrust":10120,"Ġprime":10121,"elle":10122,"ĠMade":10123,"aphor":10124,"assert":10125,"cerning":10126,"ĠYork":10127,"Ġlandlord":10128,"Ġbelonged":10129,"symp":10130,"Ġdenomin":10131,"Ġbarren":10132,"matism":10133,"space":10134,"State":10135,"Ġactuality":10136,"Ġdiscoveries":10137,"Ġdepra":10138,"Ġlacking":10139,"Ġhistorian":10140,"Ġtube":10141,"Ġaugment":10142,"Ġsolitude":10143,"Ġambassadors":10144,"Ġcovet":10145,"Ġfeathers":10146,"59":10147,"BJ":10148,"BST":10149,"rad":10150,"Ġov":10151,"Ġwishing":10152,"Ġsag":10153,"Ġboot":10154,"Ġcert":10155,"Ġpap":10156,"Ġnucle":10157,"Ġasks":10158,"ĠImp":10159,"quiet":10160,"ĠThemistocles":10161,"Ġsection":10162,"Ġdex":10163,"Ġmeets":10164,"Ġupwards":10165,"ĠMount":10166,"Ġadul":10167,"neighb":10168,"Ġgran":10169,"heses":10170,"Ġraises":10171,"Ġrefers":10172,"Ġcountrymen":10173,"Ġreligions":10174,"Ġsignified":10175,"cury":10176,"Ġvehement":10177,"Ġstatesman":10178,"Ġexecuted":10179,"Ġcomprehension":10180,"Ġattainment":10181,"Ġgeomet":10182,"Ġentertainment":10183,"Ġsurrounding":10184,"Nothing":10185,"Ġwandering":10186,"cut":10187,"living":10188,"Ġsaving":10189,"Ġcured":10190,"Ġmast":10191,"ĠThess":10192,"umble":10193,"Ġrom":10194,"ocation":10195,"Ġspeeches":10196,"process":10197,"Ġnecessities":10198,"Ġcolumn":10199,"Ġcontinent":10200,"disci":10201,"Ġacquisition":10202,"army":10203,"ylind":10204,"Ġrestricted":10205,"ĠSea":10206,"clear":10207,"Ġcontemptible":10208,"large":10209,"Ġconvenience":10210,"entirely":10211,"sort":10212,"Ġcab":10213,"Ġhit":10214,"Ġrebell":10215,"ulates":10216,"ĠThebes":10217,"blem":10218,"olat":10219,"emn":10220,"Ġrib":10221,"ĠBoeot":10222,"Ġchron":10223,"Ġuns":10224,"Ġcontracted":10225,"Ġsensitive":10226,"Ġeffectual":10227,"Ġwisest":10228,"ĠContaining":10229,"Ġbusy":10230,"Ġ177":10231,"specul":10232,"Ġyields":10233,"Ġtribunes":10234,"Ġexceedingly":10235,"ĠRepresent":10236,"Ġbreadth":10237,"TURE":10238,"Ġcowardice":10239,"levant":10240,"Ġeggs":10241,"higher":10242,"58":10243,"cogn":10244,"ean":10245,"pires":10246,"help":10247,"rene":10248,"Ġmould":10249,"Ġfo":10250,"Ġfelicity":10251,"igue":10252,"umm":10253,"acit":10254,"ĠPract":10255,"bearing":10256,"Ġaccuse":10257,"Ġoverwhel":10258,"Ġfaction":10259,"Ġglance":10260,"Ġstreet":10261,"Ġ46":10262,"ulsive":10263,"passed":10264,"ylus":10265,"Ġsixth":10266,"Ġantit":10267,"Ġbuildings":10268,"Ġcommunicate":10269,"Ġdelighted":10270,"Ġblessings":10271,"Ġdemonstrate":10272,"Secondly":10273,"pursu":10274,"Ġprisoner":10275,"Ġwitnesses":10276,"ĠCommons":10277,"Ġislands":10278,"Ġrecorded":10279,"Ġinevitably":10280,"Ġvarying":10281,"Ġtranquillity":10282,"courage":10283,"lay":10284,"pest":10285,"women":10286,"animate":10287,"arc":10288,"Ġdies":10289,"iline":10290,"Ġexalted":10291,"gend":10292,"acus":10293,"unately":10294,"Ġdisorders":10295,"ĠThought":10296,"suggest":10297,"Ġserpent":10298,"Ġtranscend":10299,"Ġemploying":10300,"Ġproceedings":10301,"ĠConsequently":10302,"Ġdespotism":10303,"perfection":10304,"compare":10305,"Ġguardian":10306,"suppose":10307,"Ġbanks":10308,"Ġhoped":10309,"Ġdemonstrated":10310,"Ġcollective":10311,"Ġcavity":10312,"division":10313,"opinions":10314,"Ġpreparing":10315,"Ġremoving":10316,"Ġweapon":10317,"twenty":10318,"fts":10319,"lock":10320,"phe":10321,"ping":10322,"tion":10323,"year":10324,"Ġske":10325,"Ġbattles":10326,"enger":10327,"Ġlamp":10328,"Ġlung":10329,"ĠPal":10330,"ĠPres":10331,"Ġdoc":10332,"ĠMal":10333,"ĠFaith":10334,"Ġplacing":10335,"ĠDisc":10336,"ruit":10337,"Ġdistrust":10338,"Ġdifferently":10339,"lators":10340,"Ġstreets":10341,"Ġcareless":10342,"RAN":10343,"ĠConstitution":10344,"Ġefficacy":10345,"persu":10346,"ĠCaius":10347,"Ġsuspended":10348,"Ġexecutive":10349,"Ġmathematic":10350,"sensible":10351,"consequences":10352,"Ġcirculation":10353,"Ir":10354,"dog":10355,"lived":10356,"uan":10357,"inement":10358,"erical":10359,"isthen":10360,"Ġperen":10361,"anic":10362,"Ġhal":10363,"Ġreaching":10364,"accept":10365,"Ġupward":10366,"ĠOct":10367,"Ġsage":10368,"Ġbrass":10369,"Ġregret":10370,"Ġcharges":10371,"Ġrab":10372,"Ġdrunken":10373,"Ġutilitarian":10374,"Ġtreaty":10375,"ructed":10376,"Ġendeavoured":10377,"Ġcolorless":10378,"Ġdebts":10379,"Ġresolve":10380,"Ġtrusted":10381,"Ġplanets":10382,"Ġmutually":10383,"Ġcampaign":10384,"Ġreview":10385,"personal":10386,"Ġstimulus":10387,"Ġbonds":10388,"Ġflattery":10389,"comprehensible":10390,"Ġembraced":10391,"Ġcalamity":10392,"aetetus":10393,"Ġremedies":10394,"ĠPyrrhus":10395,"ogeneous":10396,"Ġphil":10397,"Ġfitting":10398,"Ġdancing":10399,"omat":10400,"Ġhears":10401,"ĠSl":10402,"Ġneut":10403,"ights":10404,"ĠBody":10405,"Ġarrest":10406,"activity":10407,"ocity":10408,"Ġhimselfe":10409,"prev":10410,"Ġcapacities":10411,"aea":10412,"Ġservile":10413,"Ġload":10414,"Ġprivately":10415,"amped":10416,"Ġfacility":10417,"Ġoccupations":10418,"Ġattacks":10419,"Ġmystical":10420,"Ġdawn":10421,"Ġdeliberation":10422,"simple":10423,"Ġtraditional":10424,"Ġconstituent":10425,"Ġtheatre":10426,"Ġcotton":10427,"PHAEDRUS":10428,"88":10429,"Besides":10430,"Sk":10431,"gage":10432,"heaven":10433,"Ġcylind":10434,"omination":10435,"Ġgirl":10436,"ifted":10437,"Ġselected":10438,"Ġmanaged":10439,"unge":10440,"udent":10441,"Ġarithmet":10442,"ĠFOR":10443,"Ġenables":10444,"Ġagents":10445,"ĠRem":10446,"Ġowners":10447,"Ġintensity":10448,"Ġimpious":10449,"urnished":10450,"Ġtear":10451,"Ġtele":10452,"Ġworldly":10453,"serve":10454,"Ġequip":10455,"Ġlights":10456,"Ġrequiring":10457,"Ġwanton":10458,"grand":10459,"ĠAratus":10460,"ĠPhoc":10461,"Ġmagnetic":10462,"Ġprimarily":10463,"philosopher":10464,"opport":10465,"longer":10466,"nevertheless":10467,"senses":10468,"Ġgratify":10469,"Ġinflicted":10470,"Ġingenious":10471,"Ġrepetition":10472,"Bar":10473,"Tra":10474,"Ġaqu":10475,"Ġsir":10476,"Ġtoler":10477,"Ġrecomp":10478,"Ġasleep":10479,"Ġheter":10480,"olf":10481,"ums":10482,"Ġensl":10483,"ĠNote":10484,"ĠNatural":10485,"Ġoffended":10486,"Ġdeficient":10487,"Ġcorner":10488,"Ġadmon":10489,"Ġcircular":10490,"ĠAtt":10491,"Ġslew":10492,"stitutions":10493,"Another":10494,"interests":10495,"Ġopportunities":10496,"Ġeaten":10497,"Ġdeduction":10498,"Ġextremes":10499,"racuse":10500,"Ġprinted":10501,"oblig":10502,"Ġjurisdiction":10503,"Ġinsignificant":10504,"Ple":10505,"dire":10506,"days":10507,"mber":10508,"vii":10509,"heard":10510,"onists":10511,"iser":10512,"alism":10513,"Ġnick":10514,"owl":10515,"ĠTake":10516,"Ġforb":10517,"ette":10518,"essential":10519,"Ġfrivolous":10520,"olite":10521,"ĠSoul":10522,"Ġseal":10523,"Ġdeals":10524,"Ġshared":10525,"Ġshoes":10526,"achment":10527,"Ġundertaking":10528,"Ġscr":10529,"Ġvarieties":10530,"Ġviewed":10531,"disp":10532,"Char":10533,"Ġswords":10534,"AND":10535,"desp":10536,"Ġuntr":10537,"extra":10538,"Ġ187":10539,"Ġpreserving":10540,"minds":10541,"Ġdebau":10542,"imming":10543,"carried":10544,"Ġmirror":10545,"Ġpalm":10546,"ĠSpartans":10547,"horse":10548,"following":10549,"friendship":10550,"Ġaudience":10551,"ĠAchaeans":10552,"ĠSaturn":10553,"Caesar":10554,"ĠDestitute":10555,"AY":10556,"Cat":10557,"cision":10558,"gil":10559,"grace":10560,"mits":10561,"went":10562,"want":10563,"Ġted":10564,"Ġdaring":10565,"Ġrein":10566,"Ġstories":10567,"Ġprose":10568,"Ġtheme":10569,"pless":10570,"ueen":10571,"becoming":10572,"ĠRead":10573,"deem":10574,"obedience":10575,"Ġopposing":10576,"Ġinsens":10577,"Ġworthless":10578,"ENCE":10579,"ĠQuality":10580,"Ġmistress":10581,"Ġasserts":10582,"Ġsufferings":10583,"correspond":10584,"Ġcorrespondence":10585,"Ġsweetness":10586,"Ġdeparture":10587,"ĠGrote":10588,"Ġsexes":10589,"hearted":10590,"Ġscholars":10591,"beauty":10592,"anthrop":10593,"Ġbridge":10594,"Ġgymnastic":10595,"Ġinheritance":10596,"ĠSovereign":10597,"Ġfossil":10598,"44":10599,"Ill":10600,"takes":10601,"uv":10602,"Ġhole":10603,"Ġdinner":10604,"Ġstiff":10605,"ĠSupp":10606,"emb":10607,"udge":10608,"Ġobviously":10609,"Ġspoil":10610,"Ġformidable":10611,"Ġimpreg":10612,"Ġregulation":10613,"Ġconfident":10614,"Ġcrust":10615,"Ġcircuit":10616,"ophanes":10617,"ĠProf":10618,"Ġneighbor":10619,"Ġcultivate":10620,"reflection":10621,"metaphys":10622,"Ġassumes":10623,"Ġconfessed":10624,"ĠAdam":10625,"ĠPerson":10626,"Ġconformable":10627,"Ġdamage":10628,"immediate":10629,"Aristotle":10630,"Ġchapters":10631,"Ġindirectly":10632,"Ġordinarily":10633,"Ġthroat":10634,"ĠFabius":10635,"Germ":10636,"Sto":10637,"fly":10638,"hets":10639,"instr":10640,"atched":10641,"itur":10642,"Ġcrop":10643,"cet":10644,"Ġsuggests":10645,"ĠCÃ¦sar":10646,"versed":10647,"onde":10648,"Ġmodification":10649,"Ġclever":10650,"Ġprovidence":10651,"Ġexplains":10652,"Ġencounter":10653,"Ġsympathetic":10654,"easily":10655,"follows":10656,"Ġencouragement":10657,"private":10658,"popular":10659,"ĠGorgias":10660,"Pers":10661,"nut":10662,"Ġawe":10663,"isons":10664,"itates":10665,"Ġhall":10666,"season":10667,"Ġrenow":10668,"ilib":10669,"ĠSP":10670,"ĠSituated":10671,"ĠCo":10672,"Ġkin":10673,"Ġimpossibility":10674,"ĠMem":10675,"ĠGauls":10676,"Ġadorn":10677,"Ġspots":10678,"ĠNic":10679,"Ġinfancy":10680,"Ġcaut":10681,"Ġanimated":10682,"Ġconsequent":10683,"Ġphysic":10684,"Ġchest":10685,"Ġbreach":10686,"Ġseparately":10687,"Ġphase":10688,"Ġwooden":10689,"Ġmagnet":10690,"Ġtorment":10691,"thrown":10692,"instead":10693,"colored":10694,"Ġreflections":10695,"Ġpretence":10696,"destroy":10697,"ĠGlau":10698,"esterday":10699,"Ġdynam":10700,"Ġalleged":10701,"Ġtragic":10702,"Even":10703,"Pal":10704,"ĠÏĦ":10705,"onom":10706,"onse":10707,"Ġbab":10708,"Ġcourses":10709,"Ġpor":10710,"Ġecclesiastical":10711,"ste":10712,"Ġlaud":10713,"imus":10714,"Ġorth":10715,"owered":10716,"ĠIr":10717,"ĠCret":10718,"ĠHoll":10719,"Ġdisaster":10720,"Ġperil":10721,"Ġkindly":10722,"Ġhappily":10723,"Ġassimil":10724,"Ġmodified":10725,"Ġdetest":10726,",\"[":10727,"Ġunderstands":10728,"Ġperforming":10729,"Ġpopul":10730,"generally":10731,"Ġdisciple":10732,"Ġpreceded":10733,"Ġgradual":10734,"Ġingred":10735,"Ġhypothetical":10736,"Ġflee":10737,"Ġaltar":10738,"Ġenlarged":10739,"absolutely":10740,"Ġelectricity":10741,"Ġlegislative":10742,"Ġsterling":10743,"Ġvehicle":10744,"Ġsoften":10745,"Post":10746,"future":10747,"rations":10748,"vy":10749,"vice":10750,"ori":10751,"Ġfut":10752,"arrow":10753,"Ġgest":10754,"Ġashes":10755,"amen":10756,"opes":10757,"ĠPubl":10758,"Ġdost":10759,"Ġchains":10760,"Ġchallen":10761,"Ġabrid":10762,"Ġplaus":10763,"proved":10764,"Ġblamed":10765,"few":10766,"Ġprevails":10767,"Ġdoubted":10768,"Ġtrave":10769,"Ġmerits":10770,"doctrine":10771,"Ġviolation":10772,"Ġconceiving":10773,"Ġbreaks":10774,"Ġunfit":10775,"Ġbarely":10776,"Ġinnocence":10777,"Ġmythology":10778,"Ġsongs":10779,"Ġenquiry":10780,"Ġrecollect":10781,"Ġdescribes":10782,"ĠProducing":10783,"ND":10784,"cat":10785,"mut":10786,"ygen":10787,"Ġcree":10788,"Ġfant":10789,"Ġnerve":10790,"Ġlink":10791,"ĠHind":10792,"arded":10793,"Ġdisadvantage":10794,"ishable":10795,"Ġindig":10796,"Ġstatements":10797,"progress":10798,"onds":10799,"ribution":10800,"cerity":10801,"Ġslip":10802,"Ġ31":10803,"Ġpainted":10804,"worm":10805,"uously":10806,"Ġoccasionally":10807,"ĠDeath":10808,"ĠSyracus":10809,"Ġamounts":10810,"ĠApostles":10811,"Ġunjustly":10812,"Ġreveal":10813,"Ġspectacle":10814,"Ġkilling":10815,"Ġindulge":10816,"observed":10817,"Ġfertile":10818,"ĠCarthagin":10819,"adventure":10820,"Ġanchor":10821,"ĠHenry":10822,"According":10823,"method":10824,"pence":10825,"Ġborder":10826,"Ġpine":10827,"anal":10828,"essence":10829,"ado":10830,"Ġexpend":10831,"Ġexposition":10832,"andal":10833,"oping":10834,"ĠPHIL":10835,"ĠPaine":10836,"ĠHob":10837,"placed":10838,"conceive":10839,"Ġplates":10840,"weak":10841,"Ġdesiring":10842,"ceptive":10843,"Ġclub":10844,"expect":10845,"ondas":10846,"Ġsmoke":10847,"Ġcontrived":10848,"cked":10849,"Ġelevation":10850,"disposition":10851,"Ġsatisfactory":10852,"Ġobligations":10853,"azed":10854,"Ġindependently":10855,"Ġintroduction":10856,"Ġtribun":10857,"Ġdefended":10858,"continued":10859,"Ġneighbourhood":10860,"produce":10861,"Ġlaughed":10862,"Ġconsecrated":10863,"isthenes":10864,"Dist":10865,"Ess":10866,"rass":10867,"xes":10868,"Ġomitted":10869,"orse":10870,"alks":10871,"arise":10872,"uten":10873,"uteness":10874,"ĠTar":10875,"racies":10876,"estant":10877,"perceived":10878,"mental":10879,"agore":10880,"agues":10881,"ĠMex":10882,"ĠMontaigne":10883,"nesses":10884,"ocy":10885,"excl":10886,"Ġobjectivity":10887,"Ġcomparing":10888,"Ġsupper":10889,"pron":10890,"Ġequity":10891,"Ġlightly":10892,"Ġessences":10893,"ĠAtl":10894,"Ġsunk":10895,"distinction":10896,"rogative":10897,"Ġrestrained":10898,"ĠDemosthenes":10899,"Ġquietly":10900,"Ġpoisonous":10901,"Ġqualified":10902,"Ġindicating":10903,"ĠMacedonians":10904,"\"--":10905,"Eur":10906,"Having":10907,"RIN":10908,"aem":10909,"ded":10910,"lives":10911,"rim":10912,"spir":10913,"zo":10914,"zing":10915,"á¿":10916,"Ġore":10917,"Ġwave":10918,"erated":10919,"ateness":10920,"itis":10921,"itig":10922,"Ġmature":10923,"Ġlays":10924,"Ġgay":10925,"ĠTHAT":10926,"amous":10927,"âĢ¦":10928,"Ġshot":10929,"ĠHuman":10930,"ĠDist":10931,"oking":10932,"ĠPlatonic":10933,"certainty":10934,"Ġmultip":10935,"Ġdelights":10936,"join":10937,"Ġearliest":10938,"Ġomnip":10939,"ĠTsze":10940,"Ġjuice":10941,"Ġenlightened":10942,"Ġsimilarly":10943,"empirical":10944,"MP":10945,"hau":10946,"oof":10947,"wonder":10948,"Åĵ":10949,"Ġwearing":10950,"amount":10951,"Ġproposal":10952,"Ġuncle":10953,"ostle":10954,"weet":10955,"Ġshoulders":10956,"Ġbelly":10957,"Ġclearer":10958,"Ġstandpoint":10959,"ouncing":10960,"noble":10961,"Ġabstain":10962,"acco":10963,"Ġcombinations":10964,"Ġinvoluntary":10965,"Ġsenators":10966,"Ġblessing":10967,"Ġornamental":10968,"feelings":10969,"Ġincorpor":10970,"single":10971,"Ġtransferred":10972,"Ġnitrogen":10973,"Ġerroneous":10974,"80":10975,"Americ":10976,"Fe":10977,"Sm":10978,"aft":10979,"isis":10980,"itous":10981,"Ġmoll":10982,"Ġmatch":10983,"Ġhint":10984,"sea":10985,"Ġlime":10986,"Ġlaz":10987,"Ġreception":10988,"Ġsteep":10989,"Ġvow":10990,"Ġattaining":10991,"rians":10992,"ĠMill":10993,"acea":10994,"ressions":10995,"Ġamiss":10996,"Ġintentions":10997,"Ġapple":10998,"Ġflies":10999,"Ġshallow":11000,"ĠChi":11001,"Ġestates":11002,"Ġcoff":11003,"Ġlargest":11004,"works":11005,"Ġacquiring":11006,"Ġbrethren":11007,"Ġarrange":11008,"Ġxiii":11009,"Ġsolic":11010,"Ġsolidity":11011,"Ġapproaches":11012,"Ġeducational":11013,"Ġremainder":11014,"Ġreducing":11015,"Ġstrip":11016,"urbed":11017,"existing":11018,"honour":11019,"support":11020,"Ġcomprehensive":11021,"addle":11022,"Ġfulfilled":11023,"Ġexertion":11024,"Ġcalamities":11025,"Ġfestival":11026,"Ġalcohol":11027,"Ġenormous":11028,"fund":11029,"oi":11030,"reland":11031,"Ġwander":11032,"ona":11033,"Ġciv":11034,"Ġmud":11035,"orate":11036,"anity":11037,"imism":11038,"ĠCount":11039,"rip":11040,"Ġobe":11041,"ĠFour":11042,"actly":11043,"ĠLouis":11044,"introdu":11045,"Ġafterward":11046,"ĠChuang":11047,"ĠJul":11048,"Ġwarrant":11049,"Ġguards":11050,"Ġaffecting":11051,"IND":11052,"grown":11053,"Ġxii":11054,"TIC":11055,"Ġreduction":11056,"Ġpursuing":11057,"Ġdiscovering":11058,"Ġremembrance":11059,"company":11060,"Ġexecute":11061,"Arch":11062,"Ġinstinctive":11063,"inistration":11064,"break":11065,"Ġblessedness":11066,"Ġextremity":11067,"Ġapprehended":11068,"ĠONE":11069,"sacrific":11070,"Ġstopped":11071,"Ġperennial":11072,"Whether":11073,"frequ":11074,"giver":11075,"iche":11076,"Ġbeet":11077,"Ġheap":11078,"ĠAe":11079,"Ġwithal":11080,"ulf":11081,"Ġsects":11082,"Ġshorter":11083,"ĠPtolemy":11084,"unch":11085,"ĠFree":11086,"Ġpartake":11087,"jection":11088,"positive":11089,"Ġclam":11090,"liad":11091,"Ġlonging":11092,"Ġcolored":11093,"ĠKung":11094,"Ġemploys":11095,"Ġlabours":11096,"Ġapplaud":11097,"Ġbadly":11098,"ĠIsa":11099,"urdens":11100,"Ġpenalties":11101,"Ġclaimed":11102,"Ġsailed":11103,"individuals":11104,"consequence":11105,"similar":11106,"Ġcheerful":11107,"Ġrenounce":11108,"Ġhydrocar":11109,"sacrifice":11110,"Ġugly":11111,"FE":11112,"Sol":11113,"mity":11114,"Ġties":11115,"isive":11116,"Ġmol":11117,"Ġweek":11118,"quite":11119,"Ġsecuring":11120,"ĠWords":11121,"ocal":11122,"Ġimprison":11123,"Ġjustification":11124,"Ġequals":11125,"Ġjudicial":11126,"icias":11127,"Ġauthorities":11128,"ricate":11129,"Ġimported":11130,"Ġbuff":11131,"Ġsupports":11132,"Ġveins":11133,"equally":11134,"Ġimpressed":11135,"Ġfruitful":11136,"ĠWhereas":11137,"Ġliquor":11138,"ĠMeg":11139,"Ġconsumed":11140,"Ġsteam":11141,"Ġdefective":11142,"Ġstatues":11143,"Ġcalculation":11144,"Ġrecollection":11145,"Ġissued":11146,"ĠPeloponnes":11147,"Ġintegrity":11148,"battle":11149,"oom":11150,"test":11151,"viii":11152,"erals":11153,"itality":11154,"enemies":11155,"Ġcock":11156,"arity":11157,"Ġdy":11158,"sect":11159,"Ġlob":11160,"Ġstability":11161,"umpet":11162,"ĠCent":11163,"ĠPun":11164,"ĠPhys":11165,"perman":11166,"jected":11167,"asses":11168,"bery":11169,"athon":11170,"Ġpossibilities":11171,"prim":11172,"Ġreadiness":11173,"Ġprevents":11174,"Ġcurved":11175,"Ġdenies":11176,"Ġconnections":11177,"Ġoperates":11178,"ĠDef":11179,"barbar":11180,"barrass":11181,"eye":11182,"Ġprotected":11183,"Ġintuitive":11184,"Ġmyster":11185,"Ġpotential":11186,"Ġimperfection":11187,"Ġobstin":11188,"ĠScriptures":11189,"arnab":11190,"ĠEgyptian":11191,"creatures":11192,"Ġvengeance":11193,"Ġachievement":11194,"Ġadversary":11195,"Ġcontingent":11196,"Good":11197,"fare":11198,"lies":11199,"norm":11200,"port":11201,"past":11202,"round":11203,"Ïī":11204,"Ġ``":11205,"ĠÃ¦sthetic":11206,"hent":11207,"Ġwilt":11208,"Ġfost":11209,"Ġnice":11210,"ett":11211,"thly":11212,"quis":11213,"acting":11214,"ĠDavid":11215,"forces":11216,"ĠInter":11217,"ĠInstead":11218,"oyalty":11219,"Ġinfant":11220,"Ġmorbid":11221,"Ġconfounded":11222,"Ġshew":11223,"Ġrecords":11224,"Ġadmission":11225,"Ġguess":11226,"Ġdriving":11227,"Ġmargin":11228,"Ġdenoting":11229,"Ġinfluenced":11230,"ĠSyracuse":11231,"Ġconceives":11232,"TIONS":11233,"affirm":11234,"Ġharmonious":11235,"Ġcorrected":11236,"Ġhindered":11237,"Ġfastened":11238,"Ġpalace":11239,"poet":11240,"ĠHellas":11241,"Ġdialectical":11242,"Ġmessage":11243,"Ġdestroys":11244,"ĠProvidence":11245,"magist":11246,"Ġimpregn":11247,"ilibrium":11248,"Ge":11249,"Red":11250,"bacco":11251,"duty":11252,"situ":11253,"uall":11254,"wife":11255,"Ġturb":11256,"Ġwaking":11257,"Ġfountain":11258,"Ġinve":11259,"altogether":11260,"icip":11261,"Ġdw":11262,"search":11263,"sters":11264,"ĠCoven":11265,"Ġchurches":11266,"Ġdisregard":11267,"Ġcontention":11268,"ĠThras":11269,"Ġintox":11270,"Ġsayings":11271,"Ġclust":11272,"Ġgenerated":11273,"versation":11274,"Ġflute":11275,"Ġresting":11276,"Ġelastic":11277,"Ġchildhood":11278,"Ġoccasional":11279,"ammation":11280,"Ġscarcity":11281,"reflect":11282,"Being":11283,"Ġyellowish":11284,"Ġornaments":11285,"aturity":11286,"punishment":11287,"highest":11288,"Ġrenewed":11289,"Ġaxioms":11290,"Are":11291,"sper":11292,"uce":11293,"Ã¢":11294,"Ġsli":11295,"imilar":11296,"Ġsting":11297,"acob":11298,"Ġdispar":11299,"--\"":11300,"ĠLao":11301,"Ġindivid":11302,"Ġintemper":11303,"Ġbrutes":11304,"pective":11305,"succeed":11306,"phab":11307,"ĠAnax":11308,"Ġsmile":11309,"Ġadvances":11310,"Ġcries":11311,"Ġsensual":11312,"trad":11313,"ologists":11314,"Ġproportions":11315,"Ġpainter":11316,"Ġfaire":11317,"Ġconstitutions":11318,"anean":11319,"matics":11320,"Ġwisely":11321,"Ġviolently":11322,"ĠSpinoza":11323,"ĠQueen":11324,"Ġremarked":11325,"Ġassuming":11326,"pleasures":11327,"affected":11328,"Ġestimation":11329,"Ġattachment":11330,"ĠNuma":11331,"praise":11332,"Ġsubdued":11333,"ĠHolland":11334,"Disc":11335,"Gu":11336,"Part":11337,"coun":11338,"gover":11339,"ancient":11340,"icy":11341,"stock":11342,"essor":11343,"Ġexcel":11344,"Ġdealt":11345,"Ġchim":11346,"Ġabide":11347,"ĠMithridates":11348,"intuition":11349,"Ġhumane":11350,"Ġoppos":11351,"Ġoppressed":11352,"Ġpresume":11353,"Ġincline":11354,"Ġedible":11355,"Ġconsistency":11356,"imentary":11357,"remains":11358,"Ġengagement":11359,"Ġtypical":11360,"Ġexclaim":11361,"Ġpotent":11362,"Ġdisturbance":11363,"ĠStoic":11364,"Ġcalculated":11365,"Ġnaval":11366,"NOW":11367,"Ġmercen":11368,"distinguished":11369,"openhau":11370,"Ġcrooked":11371,"Ġdisdain":11372,"Ġdexter":11373,"openhauer":11374,"ATE":11375,"gins":11376,"Ġoun":11377,"atra":11378,"Ġdign":11379,"idation":11380,"Ġhee":11381,"Ġhearer":11382,"Ġstaff":11383,"Ġshining":11384,"Ġrum":11385,"oped":11386,"Ġunconditioned":11387,"Ġarisen":11388,"ĠMaj":11389,"Ġplastic":11390,"Ġquad":11391,"neum":11392,"ordin":11393,"okes":11394,"prejud":11395,"Ġeleph":11396,"ĠWhence":11397,"Ġapplause":11398,"Ġmonstrous":11399,"Ġgrounded":11400,"Ġfewer":11401,"whereas":11402,"Ġarrival":11403,"Ġdepending":11404,"Ġvictims":11405,"ammed":11406,"Ġcommunicated":11407,"Ġcorresponds":11408,"Ġreflecting":11409,"Ġmajor":11410,"construction":11411,"Ġprefix":11412,"Ġphrases":11413,"Ġtexture":11414,"Ġdrove":11415,"usalem":11416,"Ġcasual":11417,"Ġlecture":11418,"ĠPHILO":11419,"Ext":11420,"Mor":11421,"Neither":11422,"Rem":11423,"XL":11424,"eight":11425,"iots":11426,"wall":11427,"yt":11428,"Ġsedu":11429,"ati":11430,"Ġcub":11431,"Ġinadequate":11432,"ctive":11433,"cive":11434,"plication":11435,"apher":11436,"avish":11437,"Ġcontraction":11438,"Ġspaces":11439,"Ġgenerosity":11440,"Ġrecovered":11441,"Ġexamining":11442,"Ġlightning":11443,"Ġneedful":11444,"Ġpreval":11445,"RAC":11446,"Though":11447,"Ġfacilit":11448,"remark":11449,"Ġexcites":11450,"design":11451,"charge":11452,"Ġpoetical":11453,"Ġchoosing":11454,"Ġembry":11455,"Ġmajesty":11456,"possessed":11457,"properly":11458,"concerned":11459,"Ġdisgraceful":11460,"Ġadvocate":11461,"ĠTiberius":11462,"Ġlungs":11463,"Che":11464,"Hipp":11465,"Te":11466,"powers":11467,"saw":11468,"win":11469,"inister":11470,"inge":11471,"anks":11472,"adder":11473,"thians":11474,"Ġstam":11475,"ĠTheaetetus":11476,"andom":11477,"ĠSO":11478,"Ġdeaf":11479,"ĠCorn":11480,"ĠCHAPTER":11481,"opy":11482,"ĠPure":11483,"perm":11484,"Ġprices":11485,"Ġpartially":11486,"Ġimpost":11487,"exec":11488,"Ġrepute":11489,"Ġrepair":11490,"Ġorderly":11491,"Ġtrack":11492,"Ġparish":11493,"Ġdeclares":11494,"Ġluster":11495,"Ġillustrate":11496,"Ġsurprising":11497,"Ġinsolence":11498,"Ġassemblies":11499,"Ġemphas":11500,"Ġadventure":11501,"Ġmourning":11502,"Ġconventional":11503,"Ġconferred":11504,"Ġvoices":11505,"ĠPausanias":11506,"SI":11507,"Und":11508,"acies":11509,"wish":11510,"Ġtick":11511,"attain":11512,"Ġbosom":11513,"Ġmes":11514,"Ġmas":11515,"Ġtools":11516,"orius":11517,"Ġdiverse":11518,"cere":11519,"irable":11520,"odium":11521,"terms":11522,"ĠSEN":11523,"ĠServ":11524,"Ġseq":11525,"Ġchances":11526,"Ġabhor":11527,"Ġenerg":11528,"angular":11529,"Ġgrade":11530,"Ġimpiety":11531,"Ġoverfl":11532,"prison":11533,"Ġslaughter":11534,"Ġwarri":11535,"onsense":11536,"Ġ32":11537,"Ġinsensible":11538,"Ġobserves":11539,"Ġcontinuity":11540,"Ġforetold":11541,"Ġjudgements":11542,"Ġordained":11543,"Ġconstituting":11544,"until":11545,"ĠOrigin":11546,"Ġefficiency":11547,"cribes":11548,"Ġpatron":11549,"Ġidentified":11550,"eyes":11551,"correct":11552,"Ġcomplaint":11553,"powerful":11554,"Comm":11555,"ĠMegar":11556,"Ġpurchased":11557,"Ġaccurately":11558,"Ġalternative":11559,"Ġceremony":11560,"Ġfloor":11561,"Ġscepticism":11562,"ĠNOT":11563,"Ġarchitecture":11564,"42":11565,"66":11566,"ACE":11567,"Vol":11568,"net":11569,"zer":11570,"receive":11571,"Ġsore":11572,"atis":11573,"Ġpush":11574,"ĠIreland":11575,"odox":11576,"ĠSin":11577,"Ġsep":11578,"Ġselection":11579,"top":11580,"ĠCH":11581,"acred":11582,"unctions":11583,"Ġdispersed":11584,"Ġaromatic":11585,"abilities":11586,"Ġspin":11587,"Ġparticle":11588,"Ġwarning":11589,"Ġcrude":11590,"Ġforesight":11591,"ĠXI":11592,"Ġ57":11593,"Ġhelps":11594,"Ġpoetic":11595,"ERN":11596,"Ġplanet":11597,"ĠGermans":11598,"Ġpressing":11599,"Ġodious":11600,"Ġcontributed":11601,"Ġadaptation":11602,"Ġburned":11603,"Ġhydrogen":11604,"Ġwarmth":11605,"Ġlikes":11606,"amongst":11607,"various":11608,"Ġabsorbed":11609,"ĠAugustine":11610,"Ġgrammar":11611,"Div":11612,"DUC":11613,"Med":11614,"cas":11615,"hends":11616,"Ġath":11617,"Ġomit":11618,"arl":11619,"oma":11620,"seud":11621,"ushes":11622,"ĠSte":11623,"Ġattends":11624,"accompl":11625,"ĠWE":11626,"ĠWITH":11627,"Ġdisagreement":11628,"Ġard":11629,"ĠMo":11630,"rup":11631,"Ġcompulsion":11632,"composed":11633,"rency":11634,"Ġarmor":11635,"Ġmarble":11636,"Ġdetermin":11637,"Ġ45":11638,"Ġestablishing":11639,"Ġphosph":11640,"Ġtaxation":11641,"Ġ179":11642,"stitious":11643,"settled":11644,"Ġcontemplate":11645,"Ġdialogue":11646,"Ġregularly":11647,"subjects":11648,"Ġgratification":11649,"discuss":11650,"Ġfragments":11651,"Ġheroic":11652,"Ġinconvenience":11653,"Ġcartil":11654,"Ġconspiracy":11655,"resistible":11656,"independent":11657,"Ġmembrane":11658,"Ġwelcome":11659,"osoever":11660,"Ġtedious":11661,"Er":11662,"cun":11663,"divided":11664,"Ġtheological":11665,"Ġcow":11666,"Ġpyr":11667,"Ġincomp":11668,"Ġecl":11669,"idious":11670,"igg":11671,"ĠAE":11672,"ĠAR":11673,"ĠAuthor":11674,"chi":11675,"thest":11676,"ĠSense":11677,"Ġshake":11678,"ĠMars":11679,"ĠGo":11680,"Ġqui":11681,"ĠJap":11682,"Ġvaliant":11683,"Ġpropensity":11684,"Ġexplaining":11685,"Ġclassification":11686,"Ġderives":11687,"Ġrevolt":11688,"Ġkingdoms":11689,"ĠLacedaemonian":11690,"Ġspeculations":11691,"mistry":11692,"defin":11693,"Ġridicule":11694,"Ġspectators":11695,"Ġimperative":11696,"Ġreformation":11697,"Ġfabulous":11698,"books":11699,"Ġastonished":11700,"Ġdestroying":11701,"Ġsecrets":11702,"development":11703,"Romans":11704,"Cap":11705,"El":11706,"MON":11707,"Sn":11708,"Sur":11709,"ecess":11710,"kward":11711,"uced":11712,"atics":11713,"Ġbuck":11714,"Ġfare":11715,"arist":11716,"Ġnoun":11717,"Ġec":11718,"sey":11719,"entertain":11720,"ĠCur":11721,"Ġunreasonable":11722,"ordinate":11723,"Ġintest":11724,"iana":11725,"Ġreports":11726,"Ġoppression":11727,"Ġmodifications":11728,"advantages":11729,"Ġidealism":11730,"Ġacids":11731,"judge":11732,"Ġposture":11733,"Def":11734,"Ġinstituted":11735,"Art":11736,"Ġunfold":11737,"Ġfavorable":11738,"ĠEgyptians":11739,"ĠSubst":11740,"changes":11741,"acquainted":11742,"Ġprinting":11743,"Ġblend":11744,"onymous":11745,"Ġantecedent":11746,"Ġilleg":11747,"43":11748,"cid":11749,"dle":11750,"drew":11751,"fif":11752,"gon":11753,"Ġtin":11754,"Ġbred":11755,"encing":11756,"Ġtopic":11757,"anwhile":11758,"Ġdiet":11759,"Ġdaughters":11760,"omorph":11761,"otal":11762,"entious":11763,"Ġorange":11764,"ilian":11765,"Ġarea":11766,"Ġstake":11767,"thened":11768,"ivisible":11769,"eminate":11770,"Ġyesterday":11771,"Ġvag":11772,"Ġmanly":11773,"Ġwheels":11774,"universe":11775,"Ġsomewhere":11776,"Ġthinkers":11777,"Ġdiscoura":11778,"Ġreaders":11779,"Ġcareer":11780,"spoken":11781,"Ġvictories":11782,"Ġcontradictions":11783,"Ġyielded":11784,"Ġconfession":11785,"Ġdepartment":11786,"Ġobstinate":11787,"representation":11788,"practice":11789,"Ġdescended":11790,"Ġbriefly":11791,"Ġdrama":11792,"Ġtouches":11793,"Ġassembled":11794,"Ġdrops":11795,"contradiction":11796,"Ġaccusation":11797,"Ġdisguise":11798,"ĠLiberty":11799,"Ġchannel":11800,"Ġaggregate":11801,"Ġmysterious":11802,"Just":11803,"cific":11804,"ket":11805,"laid":11806,"Ġaust":11807,"Ġoak":11808,"Ġcu":11809,"Ġcum":11810,"Ġcob":11811,"Ġpest":11812,"Ġpuff":11813,"Ġtool":11814,"Ġtomb":11815,"ascal":11816,"omit":11817,"Ġlake":11818,"Ġangel":11819,"Ġhaught":11820,"thal":11821,"Ġstout":11822,"olves":11823,"Ġdeformity":11824,"antity":11825,"ĠPur":11826,"ĠPsych":11827,"Ġdoe":11828,"ago":11829,"Ġnatives":11830,"ducation":11831,"ĠDutch":11832,"Ġendow":11833,"Ġcommons":11834,"ucus":11835,"Ġesse":11836,"OND":11837,"Ġcurse":11838,"Ġmiser":11839,"Ġcheaper":11840,"scape":11841,"Ġdeclaring":11842,"ships":11843,"Ġhabitually":11844,"Ġtemperament":11845,"perfectly":11846,"opposite":11847,"ĠMarcellus":11848,"Ġtorn":11849,"Ġcontradictory":11850,"ĠCleomenes":11851,"Ġshameful":11852,"Ġcontrolled":11853,"produced":11854,"Ġnavy":11855,"ĠMetellus":11856,"ĠEpicure":11857,"Ġindicates":11858,"Ġmanufacturers":11859,"Ġmammals":11860,"Ġexpansion":11861,"La":11862,"faces":11863,"nthe":11864,"Ġtet":11865,"Ġcode":11866,"oubled":11867,"Ġeag":11868,"imen":11869,"igram":11870,"ama":11871,"Ġexempl":11872,"Ġdepre":11873,"erem":11874,"ĠGhost":11875,"ĠEither":11876,"ĠLack":11877,"ĠAnarch":11878,"Ġdeficiency":11879,"Ġfounder":11880,"Inf":11881,"Ġinsin":11882,"Ġinsomuch":11883,"Ġdrach":11884,"Ġlimitation":11885,"Ġwrongly":11886,"ENE":11887,"ĠAnything":11888,"restrial":11889,"Ġdeepest":11890,"sufficiently":11891,"Ġcastle":11892,"ĠHerod":11893,"While":11894,"animal":11895,"ĠPersia":11896,"Social":11897,"However":11898,"Ġresponse":11899,"Ġgrandeur":11900,"Ġprophecy":11901,"effects":11902,"Ġmarching":11903,"Ġtenderness":11904,"affection":11905,"oscope":11906,"Ġtorture":11907,"Ġincredible":11908,";;":11909,"Epic":11910,"houses":11911,"iastic":11912,"Ġtied":11913,"start":11914,"Ġlent":11915,"Ġrely":11916,"ĠIT":11917,"chievous":11918,"ivorous":11919,"emic":11920,"Ġmans":11921,"Ġwasted":11922,"Ġrip":11923,"Ġneat":11924,"ĠME":11925,"Ġobli":11926,"Ġsomeone":11927,"ĠLogic":11928,"ĠInf":11929,"Ġclimate":11930,"experi":11931,"Ġcompounded":11932,"Ġenduring":11933,"Ġplead":11934,"lesse":11935,"prudence":11936,"Ġmeanness":11937,"ĠYÃ¼":11938,"Ġrealm":11939,"scrib":11940,"Ġboiling":11941,"Ġabstracted":11942,"commod":11943,"chel":11944,"Ġassociations":11945,"Ġintuitions":11946,"Common":11947,"Ġliterally":11948,"Ġimprovements":11949,"Ġeconom":11950,"Î¿ÏĤ":11951,"Ġbinding":11952,"Ġfragment":11953,"Control":11954,"connection":11955,"Ġconvincing":11956,"Ġferment":11957,"Republic":11958,"Ġappointment":11959,"ĠVirgin":11960,"Ġrelease":11961,"Ġemancip":11962,"ĠChrysippus":11963,"Ġunavoidable":11964,"41":11965,"FF":11966,"cry":11967,"ront":11968,"tre":11969,"wed":11970,"inities":11971,"Ġmask":11972,"Ġmaketh":11973,"Ġtobacco":11974,"Ġfox":11975,"Ġanat":11976,"eting":11977,"ulations":11978,"pecul":11979,"Ġcomplicated":11980,"Ġchair":11981,"ĠOUR":11982,"asty":11983,"--_":11984,"avy":11985,"Ġoutcome":11986,"Ġspear":11987,"intention":11988,"âĢĿâĢĶ":11989,"Ġendured":11990,"Ġworkman":11991,"Ġmeanings":11992,".âĢĿ(":11993,"Ġguarant":11994,"Ġsignifying":11995,"Ġsuperintend":11996,"ĠAttic":11997,"Ġvictim":11998,"Ġsusp":11999,"existent":12000,"Ġmusician":12001,"Ġboundaries":12002,"Ġarrangements":12003,"besides":12004,"looking":12005,"signific":12006,"Ġdisplayed":12007,"Ġreconcile":12008,"Ġinterfere":12009,"Ġholiness":12010,"Ġembodied":12011,"ĠPhaedrus":12012,"oshua":12013,"Ġtastes":12014,"aen":12015,"maj":12016,"riment":12017,"Î³":12018,"Ġoft":12019,"encer":12020,"Ġpist":12021,"Ġpour":12022,"inger":12023,"omn":12024,"ĠTro":12025,"pels":12026,"umption":12027,"ĠPast":12028,"ĠPoss":12029,"ĠHes":12030,"Ġanybody":12031,"Ġunchangeable":12032,"ĠOh":12033,"ĠOut":12034,"udden":12035,"ĠMod":12036,"ĠGaul":12037,"actual":12038,"Ġundertaken":12039,"bert":12040,"Ġwherefore":12041,"ĠâĢľ_":12042,"compet":12043,"Ġexpensive":12044,"Ġassure":12045,"Ġvariable":12046,"Ġhardness":12047,"grad":12048,"ella":12049,"Ġsilly":12050,"Ġcalumn":12051,"interpret":12052,"Ġsimilarity":12053,"lawful":12054,"Ġmounted":12055,"Ġcraft":12056,"Ġoxygen":12057,"Ġroads":12058,"Ġcounsels":12059,"ymph":12060,"Ġpenetrate":12061,"Ġhorns":12062,"employed":12063,"ĠSubjects":12064,"Ġchastity":12065,"Ġsequence":12066,"exercise":12067,"Ġrhythm":12068,"hath":12069,"nel":12070,"rh":12071,"till":12072,"uish":12073,"zed":12074,"inias":12075,"Ġsurn":12076,"ano":12077,"Ġnur":12078,"leave":12079,"omas":12080,"Ġbehave":12081,"Ġbelee":12082,"ota":12083,"imum":12084,"Ġheir":12085,"Ġheated":12086,"ĠAcc":12087,"ifting":12088,"iforn":12089,"Ġrush":12090,"aculous":12091,"Ġtries":12092,"Ġquod":12093,"Ġactor":12094,"ĠLastly":12095,"Their":12096,"ictitious":12097,"Ġlawy":12098,"Ġreputed":12099,"aternal":12100,"Ġletting":12101,"Ġglor":12102,"Ġdraught":12103,"piring":12104,"Ġsket":12105,"Ġbeginnings":12106,"ĠTheseus":12107,".âĢĶ_":12108,"ROM":12109,"animous":12110,"Ġboldness":12111,"Ġdescendants":12112,"Ġsyllable":12113,"Ġnobler":12114,"ĠStranger":12115,"Ġnovelty":12116,"Ġinfirmity":12117,"Lacedaemonians":12118,"Ġelaborate":12119,"ĠLocke":12120,"arnabazus":12121,"aphernes":12122,"69":12123,"89":12124,"Ang":12125,"King":12126,"deep":12127,"fool":12128,"iad":12129,"iatic":12130,"mur":12131,"press":12132,"ratus":12133,"Ġcave":12134,"orum":12135,"alia":12136,"Ġdried":12137,"illery":12138,"union":12139,"Ġindis":12140,"ĠNero":12141,"Ġemer":12142,"Ġgenerality":12143,"owned":12144,"comfort":12145,"Ġcounted":12146,"Ġtransform":12147,"mency":12148,"gram":12149,"scope":12150,"remain":12151,"Ġdeclined":12152,"Ġoccurrence":12153,"ĠAntip":12154,"Ġidleness":12155,"Ġjoining":12156,"office":12157,"Ġelementary":12158,"Ġmediation":12159,"Ġexceeds":12160,"commonly":12161,"Ġknife":12162,"Ġobstruct":12163,"Ġbreathing":12164,"aminondas":12165,"Ġstupidity":12166,"Ġmultiplicity":12167,"Ġdimensions":12168,"Ġdescribing":12169,"ĠHsi":12170,"ĠFlorent":12171,"ĠHappiness":12172,"70":12173,":âĢĿ":12174,"Mal":12175,"special":12176,"vid":12177,"Ġpy":12178,"arious":12179,"seus":12180,"Ġsuits":12181,"raw":12182,"Ġproving":12183,"accur":12184,"perform":12185,"Ġlean":12186,"ĠExt":12187,"Ġcommended":12188,"izations":12189,"Ġdesperate":12190,"Ġreluct":12191,"Ġwrath":12192,"Ġexistences":12193,"Ġaffinity":12194,"Ġinsisted":12195,"Ġincap":12196,"Ġallowance":12197,"Ġcreative":12198,"ĠAlthough":12199,"Ġvictorious":12200,"Ġcrying":12201,"Ġpeculiarly":12202,"Ġposterior":12203,"handed":12204,"Ġjoys":12205,"Ġdissolution":12206,"Ġepit":12207,"Princi":12208,"Ġboldly":12209,"yourself":12210,"brev":12211,"Ġthreatened":12212,"importance":12213,"memory":12214,"Ġowes":12215,"Ġselfishness":12216,"Ġreciprocal":12217,"ĠMORAL":12218,"philosophical":12219,"Ġcommencement":12220,"Ġbesieged":12221,"LD":12222,"RU":12223,"Tim":12224,"rons":12225,"trib":12226,"wart":12227,"yss":12228,"ĠÏĢ":12229,"ini":12230,"itol":12231,"Ġbud":12232,"Ġburdens":12233,"enet":12234,"Ġthir":12235,"Ġnull":12236,"Ġlords":12237,"ĠAmb":12238,"chant":12239,"Ġexterior":12240,"ĠSab":12241,"ĠScy":12242,"Ġatom":12243,"ĠBac":12244,"ĠBudd":12245,"perceive":12246,"ĠMark":12247,"Ġindol":12248,"ĠNA":12249,"ulture":12250,"posure":12251,"Ġprel":12252,"sues":12253,"Ġartistic":12254,"Ġextr":12255,"Ġinval":12256,"Ġmarvel":12257,"Ġlimb":12258,"distance":12259,"Ġstrikes":12260,"Ġmagnanimity":12261,"suffer":12262,"ĠSomewhat":12263,"Ġfavourite":12264,"Ġhinders":12265,"Ġliteral":12266,"Ġinterpreted":12267,"Ġpositively":12268,"Ġcrossed":12269,"glory":12270,"Ġfilling":12271,"sentiments":12272,"Ġdeliverance":12273,"Ġquarrels":12274,"Ġuniformity":12275,"Ġascertained":12276,"Ġemphasis":12277,"Ġvacuum":12278,"Ġvexed":12279,"Ġperturb":12280,"Ġlaughing":12281,"Ġproprietor":12282,"Ġhorizon":12283,"Ġimaginative":12284,"Ġtolerable":12285,"Ġspoils":12286,"opportunity":12287,"Aut":12288,"Luc":12289,"Od":12290,"none":12291,"Ġakin":12292,"onous":12293,"asive":12294,"amph":12295,"Ġripe":12296,"indust":12297,"ĠPat":12298,"Ġunm":12299,"rix":12300,"Ġqueen":12301,"Ġentrusted":12302,"Ġvariance":12303,"Ġcurrency":12304,"Ġplayer":12305,"rightly":12306,"Ġfooting":12307,"reference":12308,"modern":12309,"Ġsucceeding":12310,"Ġmouths":12311,"Ġrepublics":12312,"Ġprosperous":12313,"Ġeternally":12314,"invest":12315,"Ġenlarge":12316,"Ġsustain":12317,"Ġtemptation":12318,"Ġprohibition":12319,"ignorance":12320,"Ġmingled":12321,"ĠCassius":12322,"AIN":12323,"Because":12324,"Mat":12325,"names":12326,"tail":12327,"Ġcards":12328,"aler":12329,"Ġnu":12330,"asury":12331,"Ġanterior":12332,"roid":12333,"Ġvind":12334,"Ġdeer":12335,"inding":12336,"artic":12337,"concil":12338,"abund":12339,"ĠLi":12340,"ĠThrough":12341,"Ġgrieve":12342,"clamation":12343,"Ġherd":12344,"preced":12345,"Ġvaries":12346,"emption":12347,"aean":12348,"Ġmarvell":12349,"Ġrepresentatives":12350,"Ġdenote":12351,"ĠXIV":12352,"Ġattempting":12353,"Ġdeserted":12354,"Ġdissip":12355,"clearly":12356,"Ġsailing":12357,"learning":12358,"Ġfeeding":12359,"Ġconstrained":12360,"oethe":12361,"Ġnarrative":12362,"ĠTurk":12363,"Ġdividing":12364,"Ġcomposite":12365,"ruccio":12366,"Ġdwelt":12367,"LF":12368,"Squ":12369,"Tri":12370,"court":12371,"list":12372,"lie":12373,"sure":12374,"Ġsine":12375,"isable":12376,"Ġtho":12377,"Ġdye":12378,"imachus":12379,"roll":12380,"ayer":12381,"ample":12382,"ĠBal":12383,"Ġunw":12384,"Ġuniting":12385,"ĠMuses":12386,"Ġenmity":12387,"ĠLight":12388,"ibn":12389,"hesion":12390,"subs":12391,"Ġthrows":12392,"reading":12393,"Ġcorrelative":12394,"Ġequilibrium":12395,"Ġinterven":12396,"merly":12397,"Ġchildish":12398,"Ġills":12399,"Ġphant":12400,"Ġvariously":12401,"imply":12402,"impression":12403,"Ġvisited":12404,"azz":12405,"ilitary":12406,"suffering":12407,"ĠDoctrine":12408,"Ġlegislators":12409,"Ġattendant":12410,"humanity":12411,"Ġperpetually":12412,"discovered":12413,"Ġshadows":12414,"provided":12415,"ĠSocialism":12416,"imilarly":12417,"Ġpilot":12418,"Ġhorizont":12419,"Ġdoctor":12420,"faculty":12421,"ĠCrete":12422,"Ġintolerable":12423,"Ġantithesis":12424,"ĠHobbes":12425,"aer":12426,"inety":12427,"Ġfables":12428,"Ġincomplete":12429,"Ġredeem":12430,"ĠARE":12431,"oderm":12432,"uli":12433,"Ġselling":12434,"Ġshaped":12435,"Ġrandom":12436,"ĠBo":12437,"astrop":12438,"Ġdisappoint":12439,"abol":12440,"wear":12441,"ĠRed":12442,"ĠDev":12443,"Ġpreca":12444,"ĠInst":12445,"Ġoffense":12446,"ĠChild":12447,"Ġchariot":12448,"propositions":12449,"Ġbloss":12450,"Ġhappier":12451,"Ġcorrection":12452,"Ġawkward":12453,"curs":12454,"gery":12455,"Ġfurious":12456,"Ġdelusion":12457,"evidence":12458,"Ġcreates":12459,"Ġfalsely":12460,"leton":12461,"Ġfailing":12462,"kingdom":12463,"Ġdeserving":12464,"Ġdissolved":12465,"Ġdelightful":12466,"Ġpalp":12467,"Ġpetition":12468,"Ġsyllables":12469,"Among":12470,"Ġconsulship":12471,"Christianity":12472,"Ġconstituents":12473,"Ġcompensation":12474,"figure":12475,"ĠJerusalem":12476,"Elect":12477,"Mel":12478,"aque":12479,"Ġtel":12480,"Ġbacter":12481,"Ġcf":12482,"Ġmars":12483,"Ġmaturity":12484,"Ġfills":12485,"Ġninet":12486,"pection":12487,"quisite":12488,"Ġabode":12489,"conj":12490,"acted":12491,"Ġenforce":12492,"ĠNext":12493,"Ġapper":12494,"hilst":12495,"incible":12496,"Ġappell":12497,"Ġconfeder":12498,"Ġsett":12499,"Ġreco":12500,"Ġinventions":12501,"Ġ33":12502,"Ġdownward":12503,"Ġmetaphor":12504,"Ġsolicit":12505,"Ġseparating":12506,"Ġpeaceful":12507,"Ġavoiding":12508,"Ġmanifestly":12509,"Ġdebate":12510,"Ġhusbands":12511,"Ġexceeding":12512,"Ġhypotheses":12513,"Ġsustained":12514,"Ġegoism":12515,"Ġabolished":12516,"Ġlatent":12517,"Ġratio":12518,"Ġaccompanying":12519,"Ġprocured":12520,"ĠGlaucon":12521,"Alexander":12522,"Ly":12523,"Many":12524,"chen":12525,"visible":12526,"hered":12527,"inating":12528,"Ġtheolog":12529,"ita":12530,"Ġbills":12531,"Ġment":12532,"Ġmission":12533,"Ġtooth":12534,"inging":12535,"Ġduke":12536,"utt":12537,"Ġgently":12538,"Ġnoticed":12539,"Ġmend":12540,"ĠWOR":12541,"ĠMiddle":12542,"ĠGen":12543,"ĠLI":12544,"Ġconscient":12545,"Ġagitation":12546,"ocus":12547,"blind":12548,"Ġcloser":12549,"Ġcomprom":12550,"ĠChal":12551,"Ġattraction":12552,"Ġdidst":12553,"Ġguides":12554,"useful":12555,"Ġacquies":12556,"Ġtraces":12557,"ĠBearing":12558,"desires":12559,"Ġ60":12560,"Ġheathen":12561,"aptism":12562,"Ġfitness":12563,"Ġcommunion":12564,"Ġrequirements":12565,"collect":12566,"ĠDemocritus":12567,"ohammed":12568,"Ġsprung":12569,"require":12570,"fathers":12571,"ĠDelphi":12572,"Ġnourishment":12573,"Ġdeposit":12574,"Ġseventh":12575,"Ġmartyr":12576,"Ġvivacity":12577,"Ġinfallible":12578,"ĠCongress":12579,"Ġneutral":12580,"Ġenergies":12581,"OUS":12582,"bore":12583,"boy":12584,"iper":12585,"ranch":12586,"Ġtoes":12587,"Ġinanimate":12588,"asia":12589,"Ġbeating":12590,"irls":12591,"ige":12592,"chy":12593,"amer":12594,"Ġsuicide":12595,"Ġexalt":12596,"Ġyoke":12597,"Ġshine":12598,"Ġalphab":12599,"ĠPir":12600,"ĠBabylon":12601,"perpet":12602,"Ġunpleasant":12603,"actually":12604,"angs":12605,"Ġgrades":12606,"Ġdiscrimin":12607,"Ġstriving":12608,"dead":12609,"Ġopponent":12610,"Ġopponents":12611,"insically":12612,"Ġimmediacy":12613,"ĠXII":12614,"ĠConst":12615,"ĠRef":12616,"Ġpraet":12617,"ĠAlmighty":12618,"Ġperforms":12619,"Ġenjoys":12620,"Ġpreserves":12621,"Ġcourageous":12622,"ĠEverything":12623,"Ġbanishment":12624,"Ġtraditions":12625,"Ġpaths":12626,"liminary":12627,"Ġpretensions":12628,"Ġobservance":12629,"Ġexperimental":12630,"spiritual":12631,"Ġcowardly":12632,"Ġcollege":12633,"Ġafflicted":12634,"ĠBetween":12635,"Hom":12636,"Pol":12637,"aic":12638,"parent":12639,"rice":12640,"yield":12641,"Ġtired":12642,"heat":12643,"infer":12644,"Ġtoss":12645,"Ġhog":12646,"alians":12647,"arb":12648,"stri":12649,"ifer":12650,"adise":12651,"ivate":12652,"ĠServing":12653,"Ġsel":12654,"Ġallusion":12655,"ĠCyn":12656,"Ġthereto":12657,"Ġcanon":12658,"river":12659,"ĠEs":12660,"ĠNicias":12661,"hypot":12662,"iped":12663,"attering":12664,"Ġartifice":12665,".âĢĿâĢĶ":12666,"Ġlanded":12667,"discourse":12668,"tically":12669,"Ġdistinguishes":12670,"Ġexciting":12671,"Ġmomentary":12672,"interj":12673,"Ġconceivable":12674,"Ġchooses":12675,"Ġbravery":12676,"Ġvanqu":12677,"Ġcomplexion":12678,"Ġsovereignty":12679,"changing":12680,"Ġastronomy":12681,"Ġlectures":12682,"Athenians":12683,"Ġderivative":12684,"optera":12685,"ĠPortugal":12686,"Ġfeudal":12687,"direction":12688,"Pompey":12689,"Rome":12690,"afe":12691,"birth":12692,"elect":12693,"ga":12694,"macy":12695,"tics":12696,"Ġaux":12697,"repe":12698,"Ġwits":12699,"erxes":12700,"Ġpile":12701,"Ġpuzz":12702,"Ġfern":12703,"Ġhier":12704,"Ġisolation":12705,"ulum":12706,"ĠSeneca":12707,"rable":12708,"Ġpermission":12709,"Ġobedient":12710,"assist":12711,"Ġadorned":12712,"Ġfeign":12713,"Ġspark":12714,"itherto":12715,"ipse":12716,"Ġartists":12717,"ĠJacob":12718,"Ġextant":12719,"icken":12720,"semen":12721,"Ġrespected":12722,"remember":12723,"ertorius":12724,"accident":12725,"Ġenjoying":12726,"Ġprotest":12727,"Ġdisputed":12728,"Ġconceit":12729,"Ġconstitutional":12730,"Ġdepths":12731,"ĠSecond":12732,"Ġmystic":12733,"Ġcomparatively":12734,"eterminate":12735,"ographical":12736,"Ġtimid":12737,"imagine":12738,"Ġcontracts":12739,"Ġgladly":12740,"Ġcontinuing":12741,"Ġadjustment":12742,"comprehend":12743,"Ġweeping":12744,"ialectic":12745,"rendered":12746,"BJECT":12747,"ĠPractical":12748,"Ġpopulace":12749,"HT":12750,"Two":12751,"sun":12752,"upe":12753,"Ġsau":12754,"isan":12755,"oria":12756,"ashes":12757,"Ġeighth":12758,"igs":12759,"theory":12760,"istles":12761,"opod":12762,"Ġimb":12763,"Ġleap":12764,"plan":12765,"Ġquam":12766,"ĠThree":12767,"Ġagrees":12768,"izer":12769,"Ġreasonably":12770,"Ġinstantly":12771,"proposition":12772,"Ġproductions":12773,"Ġscour":12774,"Ġmotor":12775,"knows":12776,"Ġskilful":12777,"contempt":12778,"related":12779,"Ġ59":12780,"cipient":12781,"asked":12782,"animals":12783,"ECTION":12784,"Ġeighteen":12785,"Ġsorrows":12786,"Ġhistorians":12787,"Ġliquids":12788,"elements":12789,"Ġeloquent":12790,"Ġenquire":12791,"Ġuneasy":12792,"application":12793,"Ãªng":12794,"Ġhesitate":12795,"Ġphysiological":12796,"Ġdedicated":12797,"Ġsummoned":12798,"Ġprolonged":12799,"Ġwholesome":12800,"Ġoblique":12801,"ifornia":12802,"Dr":12803,"Roman":12804,"TO":12805,"ender":12806,"manship":12807,"path":12808,"rors":12809,"Ġbishop":12810,"Ġdur":12811,"Ġnonsense":12812,"Ġgaining":12813,"ifiable":12814,"iloqu":12815,"Ġsto":12816,"ĠSouthern":12817,"Ġshoe":12818,"ĠPont":12819,"Ġchase":12820,"Ġperv":12821,"aux":12822,"Ġresid":12823,"Ġreferring":12824,"Ġconstell":12825,"Ġcarpent":12826,"Ġinterrupted":12827,"Ġcompleteness":12828,"Ġargued":12829,"Ġpolitic":12830,"Ġmuscle":12831,"Ġmuscular":12832,"Ġoblige":12833,"Ġmedical":12834,"community":12835,"Ġforeigners":12836,"ĠExperience":12837,"Ġutterance":12838,"ĠHeracle":12839,"Ġfirmness":12840,"preservation":12841,"Î¿Î½":12842,"ĠJudge":12843,"Ġneighbouring":12844,"Ġvillages":12845,"Ġcircles":12846,"Ġladies":12847,"Ġearnestly":12848,"Ġprohibited":12849,"Ġenterprises":12850,"ĠObject":12851,"ĠCarthage":12852,"Ġrescue":12853,"Bra":12854,"Book":12855,"Dion":12856,"Great":12857,"ID":12858,"Master":12859,"Tet":12860,"ef":12861,"fair":12862,"lam":12863,"institutions":12864,"isans":12865,"Ġmoth":12866,"Ġinert":12867,"Ġholes":12868,"iger":12869,"ĠAlex":12870,"Ġexceptions":12871,"istle":12872,"Ġseated":12873,"Ġkins":12874,"ĠPublic":12875,"ffic":12876,"ongru":12877,"Ġdish":12878,"Ġabounding":12879,"ĠMu":12880,"ĠLucius":12881,"eeper":12882,"Ġrelish":12883,"Ġresidence":12884,"Ġflows":12885,"Ġraw":12886,"Ġreflex":12887,"ĠJun":12888,"Ġcoven":12889,"Ġpublication":12890,"Ġretail":12891,"appropri":12892,"Ġproviding":12893,"Ġexplos":12894,"Ġirresistible":12895,"Ġfearful":12896,"LED":12897,"Ġaimed":12898,"Ġundist":12899,"fortunately":12900,"Ġfurnishes":12901,"enesis":12902,"Ġexhibits":12903,"Ġstarted":12904,"Ġvegetables":12905,"profitable":12906,"answered":12907,"Ġsettlement":12908,"Ġbetrayed":12909,"Ġvapor":12910,"broken":12911,"Ġtreachery":12912,"Ġsymptoms":12913,"ĠCovenant":12914,"Pur":12915,"cate":12916,"econ":12917,"lines":12918,"rast":12919,"Î¯":12920,"Ġton":12921,"Ġtis":12922,"atile":12923,"Ġbias":12924,"Ġfictions":12925,"Ġdumb":12926,"ashed":12927,"otence":12928,"Ġrecept":12929,"Ġreplace":12930,"usks":12931,"amorph":12932,"Ġride":12933,"ource":12934,"ptic":12935,"Ġperished":12936,"Ġcontext":12937,"Ġprerogative":12938,"fulf":12939,"Ġdiffused":12940,"Ġdistances":12941,"Ġflock":12942,"Ġrobe":12943,"ĠJoshua":12944,"Ġsubjectivity":12945,"Ġscant":12946,"Ġbegged":12947,"Ġnewly":12948,"attack":12949,"Ġrealised":12950,"Ġneedle":12951,"Ġsubstant":12952,"Ġrespectively":12953,"Ġinclosed":12954,"grateful":12955,"Ġhymn":12956,"Ġdevote":12957,"Ġmastery":12958,"Ġoperating":12959,"azing":12960,"entham":12961,"objective":12962,"draw":12963,"Ġeighty":12964,"Ġhasty":12965,"Ġslightest":12966,"represented":12967,"observation":12968,"Ġprofessional":12969,"otype":12970,"Ġdetected":12971,"Ġreconciled":12972,"Ġinhabited":12973,"Ġdiligence":12974,"Ġcontemporary":12975,"Ġostent":12976,"obey":12977,"Moreover":12978,"Ġplausible":12979,"67":12980,"Ah":12981,"Act":12982,"Circ":12983,"home":12984,"husband":12985,"Ġtight":12986,"Ġmoss":12987,"Ġfu":12988,"Ġfug":12989,"anism":12990,"Ġinability":12991,"astern":12992,"entric":12993,"uther":12994,"uthes":12995,"Ġgum":12996,"ĠTusc":12997,"adays":12998,"pell":12999,"illust":13000,"raise":13001,"Ġcomic":13002,"ĠCimon":13003,"ĠPet":13004,"Ġprick":13005,"Ġperceptible":13006,"Ġactors":13007,"ĠLep":13008,"Ġaggress":13009,"Ġpoems":13010,"ethods":13011,"ĠJames":13012,"obst":13013,"Ġdivor":13014,"ĠKNOW":13015,"Ġdirects":13016,"Ġruins":13017,"Ġacquires":13018,"Ġskull":13019,"Ġinquired":13020,"Ġmanifested":13021,"Ġcourtesy":13022,"etermined":13023,"Ġbarbarian":13024,"Ġinvested":13025,"Ġtyrannical":13026,"Ġmortals":13027,"Ġpreparations":13028,"ĠCommand":13029,"Ġstreams":13030,"ĠPythagore":13031,"ĠSamuel":13032,"Ġprevailing":13033,"Ġconsulted":13034,"Ġsymmet":13035,"Ġcitadel":13036,"probably":13037,"Ġhammer":13038,"ĠPrinciples":13039,"Ev":13040,"New":13041,"Your":13042,"dam":13043,"gonde":13044,"mad":13045,"march":13046,"maker":13047,"nations":13048,"named":13049,"sound":13050,"tree":13051,"Ġtheft":13052,"resembl":13053,"itas":13054,"Ġbree":13055,"icature":13056,"ashing":13057,"Ġbees":13058,"Ġghost":13059,"Ġfriction":13060,"oli":13061,"Ġalb":13062,"ĠWr":13063,"Ġarrow":13064,"Ġardent":13065,"ĠMat":13066,"assy":13067,"Ġencom":13068,"ensation":13069,"Ġspheres":13070,"Ġsubmitted":13071,"urning":13072,"Ġregister":13073,"Ġexpedi":13074,"Ġrefute":13075,"Ġeffectually":13076,"Ġadminister":13077,"Ġeverlasting":13078,"Ġrealities":13079,"Ġperfected":13080,"unegonde":13081,"oidal":13082,"Ġseverally":13083,"Ġfourteen":13084,"Ġminority":13085,"capt":13086,"Ġcreating":13087,"Ġverily":13088,"Ġserviceable":13089,"Ġambiguous":13090,"Ġcommunities":13091,"Ġsincerity":13092,"Ġaffirms":13093,"Ġdefending":13094,"Ġdomain":13095,"determination":13096,"Ġprojecting":13097,"Ġshrink":13098,"sentiment":13099,"ĠDesc":13100,"Ġfragrant":13101,"productive":13102,"governed":13103,"Bet":13104,"PRE":13105,"Ty":13106,"aust":13107,"counter":13108,"fashion":13109,"hope":13110,"iades":13111,"nob":13112,"scientific":13113,"Ġtacit":13114,"Ġpars":13115,"Ġfictitious":13116,"Ġrept":13117,"odius":13118,"ulgar":13119,"Ġstops":13120,"iva":13121,"Ġsooth":13122,"Ġshun":13123,"ĠPO":13124,"Ġmead":13125,"ripp":13126,"Ġenh":13127,"weight":13128,"Ġresolute":13129,"tyr":13130,"Ġwhereupon":13131,"Ġherald":13132,"Ġexistent":13133,"Ġyea":13134,"Ġgoverns":13135,"Ġrealized":13136,"consists":13137,"Ġmonument":13138,"Ġmiseries":13139,"Ġdenying":13140,"Ġswallow":13141,"Ġgrav":13142,"Ġfinest":13143,"Ã¦us":13144,"cretius":13145,"REE":13146,"ĠPharnabazus":13147,"Ġinquiries":13148,"Ġcorrectly":13149,"Ġlaborious":13150,"Ġblindness":13151,"INGS":13152,"Ġautomatic":13153,"Ġoxen":13154,"Ġhostility":13155,"Ġsubordination":13156,"created":13157,"Ġscholar":13158,"ĠCalifornia":13159,"ĠUnderstanding":13160,"Ġinsolent":13161,"Ġrecommended":13162,"ĠSophocles":13163,"Ġreplaced":13164,"Ġstretch":13165,"Ġswelling":13166,"Ġdismissed":13167,"Ġreceipt":13168,"Nevertheless":13169,"Ġfungi":13170,"ĠDescartes":13171,"Gods":13172,"Hist":13173,"categ":13174,"function":13175,"iology":13176,"mine":13177,"sen":13178,"Ġthief":13179,"Ġdense":13180,"image":13181,"Ġreb":13182,"Ġrever":13183,"ĠTw":13184,"ĠTheodorus":13185,"raged":13186,"Ġdecomposition":13187,"sels":13188,"antus":13189,"ĠHE":13190,"ĠGra":13191,"Ġliver":13192,"Ġsports":13193,"ocracies":13194,"angement":13195,"Ġrooted":13196,"Ġtransmitted":13197,"Ġcleans":13198,"fell":13199,"Ġservitude":13200,"Ġmonster":13201,"Ġfortified":13202,"Ġconnecting":13203,"Ġsuperstitious":13204,"Ġsweep":13205,"iques":13206,"Ġprecedent":13207,"Ġoxide":13208,"ĠWhoever":13209,"Ġtopics":13210,"ICH":13211,"Ġtrembling":13212,"----------------":13213,"Ġmoisture":13214,"ĠSyracusans":13215,"Europe":13216,"situation":13217,"AG":13218,"Aff":13219,"Abs":13220,"Cur":13221,"Life":13222,"Laws":13223,"Py":13224,"Thy":13225,"tt":13226,"uction":13227,"vict":13228,"xy":13229,"youth":13230,"attend":13231,"itz":13232,"Ġmalt":13233,"Ġpagan":13234,"cends":13235,"Ġles":13236,"Ġlift":13237,"Ġgly":13238,"Ġdeception":13239,"Ġrisen":13240,"ĠPRIN":13241,"Ġdoll":13242,"ĠOver":13243,"ĠOri":13244,"ĠWestern":13245,"ĠMary":13246,"ĠFROM":13247,"ĠGold":13248,"Ġnaturall":13249,"ĠThra":13250,"ĠNatur":13251,"Ġoutline":13252,"ĠFormerly":13253,"Ġrepay":13254,"Ġthinker":13255,"Ġpresenting":13256,"Ġconfound":13257,"Ġglob":13258,"Ġforemost":13259,"ocket":13260,"Ġfortress":13261,"Ġxiv":13262,"nov":13263,"Ġdistinctive":13264,"Ġvein":13265,"reasons":13266,"Ġantip":13267,"Ġwealthy":13268,"Ġhindrance":13269,"ĠNewton":13270,"Ġdefinitely":13271,"Ġinduction":13272,"Ġcompetent":13273,"Ġterrestrial":13274,"Ġlimitations":13275,"gentle":13276,"Ġabundantly":13277,"Ġhanging":13278,"burg":13279,"Ġdictator":13280,"Ġfloating":13281,"Ġgathering":13282,"Ġdivert":13283,"Ġelegant":13284,"Horace":13285,"ĠGrecian":13286,"Ġarithmetic":13287,"ĠMexico":13288,"61":13289,"Hem":13290,"Lo":13291,"Rh":13292,"Seneca":13293,"Upon":13294,"cord":13295,"iates":13296,"inic":13297,"inch":13298,"Ġther":13299,"Ġwra":13300,"Ġsack":13301,"itud":13302,"Ġmarsh":13303,"Ġfoe":13304,"arus":13305,"leading":13306,"Ġwhale":13307,"cephal":13308,"utary":13309,"imper":13310,"Ġhealing":13311,"Ġconjoined":13312,"ĠAffect":13313,"Ġweb":13314,"tho":13315,"Ġsung":13316,"Ġsupersed":13317,"ivation":13318,"Ġcomedy":13319,"ĠPRE":13320,"periment":13321,"plined":13322,"Ġdisinterested":13323,"Ġabd":13324,"ĠFar":13325,"Ġplat":13326,"Ġenrich":13327,"Ġcontag":13328,"white":13329,"ĠNE":13330,"Ġgrievous":13331,"ĠIncl":13332,"Ġresort":13333,"Ġimpet":13334,"Ġemulation":13335,"ollen":13336,"Ġsupplying":13337,"Ġassass":13338,"Ġsloth":13339,"Ġfactions":13340,"Ġfamine":13341,"eck":13342,"Ġobserver":13343,"cker":13344,"Ġrespectable":13345,"contented":13346,"UST":13347,"Ġtaxed":13348,"Ġhorseback":13349,"Ġstripped":13350,"Ġacceptance":13351,"Ġpleasurable":13352,"Ġpositions":13353,"achers":13354,"Ġhappening":13355,"Ġmiraculous":13356,"Ġsuggestions":13357,"Ġunfav":13358,"Ġmachines":13359,"Ġobeyed":13360,"absurd":13361,"reputation":13362,"ographic":13363,"Ġeagerness":13364,"Ġaccuracy":13365,"Ġmessenger":13366,"ĠVenice":13367,"taire":13368,"Ġadvocates":13369,"Ġtruce":13370,"Ġstretched":13371,"Ġavailable":13372,"increase":13373,"Ġextinguished":13374,"ĠArcadians":13375,"Ġcapitals":13376,"Ġfiguratively":13377,"Ġchaos":13378,"Ġtribunal":13379,";[":13380,"Pet":13381,"dise":13382,"jour":13383,"sick":13384,"talk":13385,"Ġtact":13386,"Ġwag":13387,"Ġbub":13388,"Ġpace":13389,"Ġinsufficient":13390,"Ġinternational":13391,"Ġecho":13392,"Ġforum":13393,"ulg":13394,"Ġbutcher":13395,"Ġcometh":13396,"ĠPor":13397,"Ġunlimited":13398,"ĠMil":13399,"nowled":13400,"ĠEqu":13401,"ishments":13402,"iances":13403,"urnal":13404,"Ġlawgiver":13405,"acknowled":13406,"suitable":13407,"Ġstrife":13408,"Ġrefusal":13409,"icker":13410,"observ":13411,"Ġinvite":13412,"condem":13413,"lux":13414,"Ġeleven":13415,"Ġbackground":13416,"Ġcheat":13417,"Ġliberality":13418,"Ġministry":13419,"ANCE":13420,"Ġbarrel":13421,"Ã¦n":13422,"Ref":13423,"Ġappreciation":13424,"Ġdogma":13425,"Ġamounted":13426,"Ġindustrious":13427,"carry":13428,"Ġtribune":13429,"Ġsailors":13430,"Ġexhibiting":13431,"transcendental":13432,"foundation":13433,"complex":13434,"Ġdischarged":13435,"satisfied":13436,"Ġestimated":13437,"Ġdecrees":13438,"Ġdecreed":13439,"Ġinitial":13440,"Ġincidental":13441,"ĠVirgil":13442,"Ġcandidate":13443,"Ġadjectively":13444,"Ġsimplest":13445,"ĠFlorence":13446,"ĠMartin":13447,"Ġsorry":13448,"ultivated":13449,"Ent":13450,"Emb":13451,"Lord":13452,"Mer":13453,"Most":13454,"iards":13455,"low":13456,"pan":13457,"rition":13458,"tor":13459,"ware":13460,"Ġtun":13461,"Ġdressed":13462,"iration":13463,"igen":13464,"ĠAC":13465,"ĠAS":13466,"Ġnotable":13467,"ilic":13468,"Ġstress":13469,"Ġsevent":13470,"indifferent":13471,"reath":13472,"ĠHA":13473,"Ġagencies":13474,"Ġpreliminary":13475,"âĢĿ;":13476,"lik":13477,"mechan":13478,"Ġcolon":13479,"Ġconsiderably":13480,"Ġgland":13481,"Ġincome":13482,"scar":13483,"Ġstudents":13484,"engaged":13485,"END":13486,"Ġhelped":13487,"uitous":13488,"Ġsixteen":13489,"Ġasserting":13490,"covery":13491,"Ġattacking":13492,"Ġriding":13493,"Ġintroducing":13494,"Ġassisted":13495,"Ġurge":13496,"confidence":13497,"Ġobstacles":13498,"determine":13499,"Ġliked":13500,"Ġmythical":13501,"observe":13502,"difficulties":13503,"Ġgloomy":13504,"Ġembraces":13505,"turned":13506,"Ġextravagance":13507,"Ġconstraint":13508,"Ġlodged":13509,"Ġproprietors":13510,"Ġenacted":13511,"ĠCastruccio":13512,"Ġrighteousness":13513,"ĠHonour":13514,"Ġusurp":13515,"virtues":13516,"ĠAtlantic":13517,"51":13518,"52":13519,"Dep":13520,"Equ":13521,"Other":13522,"TRO":13523,"Wor":13524,"Ye":13525,"dream":13526,"gold":13527,"liction":13528,"length":13529,"victory":13530,"Ġtales":13531,"Ġom":13532,"reet":13533,"Ġwore":13534,"Ġwire":13535,"erately":13536,"Ġsi":13537,"Ġsnat":13538,"onism":13539,"Ġthorn":13540,"Ġdart":13541,"Ġnest":13542,"essing":13543,"ulch":13544,"blems":13545,"Ġsoot":13546,"umen":13547,"umenes":13548,"ieg":13549,"Ġtricks":13550,"Ġleague":13551,"ĠWant":13552,"ĠMohammed":13553,"conqu":13554,"Ġcontests":13555,"ĠLib":13556,"Ġindivisible":13557,"ĠNations":13558,"clot":13559,"Ġimperson":13560,"inkle":13561,"Ġpersonally":13562,"Ġpointing":13563,"Ġnewsp":13564,"Ġgloss":13565,"apping":13566,"party":13567,"Ġimaginations":13568,"Ġfortitude":13569,"Ġtravell":13570,"Ġstudying":13571,"atching":13572,"Ġdealings":13573,"Ġswear":13574,"Ġreddish":13575,"Ġguarded":13576,"Ġstraw":13577,"Ġsleeping":13578,"Ġcontributes":13579,"Ġbreathe":13580,"ĠCommonwealth":13581,"Ġprojects":13582,"Ġsyllog":13583,"warf":13584,"ĠSchopenhauer":13585,"IRST":13586,"formerly":13587,"distinguish":13588,"Ġhesitation":13589,"conceivable":13590,"Ġknees":13591,"ozoa":13592,"Ġflatterer":13593,"ĠLegis":13594,"ĠPhocion":13595,"Ġhydrocarbon":13596,"cuniary":13597,"Ġincompatible":13598,"peculiar":13599,"Ages":13600,"Law":13601,"Pat":13602,"Pres":13603,"Tw":13604,"_?":13605,"ciful":13606,"faced":13607,"ho":13608,"oble":13609,"rase":13610,"town":13611,"uating":13612,"worship":13613,"Ġbite":13614,"lege":13615,"Ġbeer":13616,"Ġretains":13617,"Ġgird":13618,"ĠTy":13619,"roph":13620,"cied":13621,"Ġrounded":13622,"opo":13623,"opoda":13624,"Ġworms":13625,"eling":13626,"Ġdisappear":13627,"anges":13628,"ĠDan":13629,"ĠDuring":13630,"Ġinferences":13631,"Ġblunt":13632,"Ġdefray":13633,"Ġlessons":13634,"Ġsufferer":13635,"Ġscenes":13636,"Ġgovernors":13637,"Ġrecently":13638,"Ġcovers":13639,"Ġimmaterial":13640,"error":13641,"Ġillum":13642,"Ġdevoid":13643,"Ġveil":13644,"cribing":13645,"ĠAristides":13646,"facts":13647,"Ġelectrical":13648,"Ġtribute":13649,"cisely":13650,"ĠCoroll":13651,"Ġregularity":13652,"Ġreproached":13653,"definite":13654,"Ġreveals":13655,"Ġmetaphysic":13656,"Ġstayed":13657,"ÎµÎ¹":13658,"masters":13659,"Ġmultiplied":13660,"Ġthreads":13661,"Ġrouted":13662,"Ġsplit":13663,"Ġinserted":13664,"harmony":13665,"Ġlabourers":13666,"Ġcautious":13667,"ĠCarthaginians":13668,"Ġeagle":13669,"Min":13670,"Pan":13671,"Vir":13672,"cule":13673,"voc":13674,"ximate":13675,"za":13676,"Ġtab":13677,"Ġfisher":13678,"ouched":13679,"Ġlame":13680,"Ġcongen":13681,"ĠCivil":13682,"antile":13683,"oseph":13684,"ĠPresent":13685,"Ġunintelligible":13686,"Ġarrows":13687,"Ġabomin":13688,"Ġabyss":13689,"ĠGoethe":13690,"actyl":13691,"wholly":13692,"Ġembarrass":13693,"cede":13694,"Ġoffences":13695,"atern":13696,"Ġrefusing":13697,"ĠJove":13698,"Ġequitable":13699,"Ġimmod":13700,"Ġsurfaces":13701,"Ġforesee":13702,"ounces":13703,"Ġtempest":13704,"Ġmischievous":13705,"Ġtraits":13706,"Ġsway":13707,"ANS":13708,"Ġeffeminate":13709,"Ġlayer":13710,"Ġexercising":13711,"ASON":13712,"Ġexclusion":13713,"ĠExp":13714,"Ġdogmatic":13715,"Ġprofessions":13716,"Ġintroduces":13717,"Ġtalked":13718,"Ġcollecting":13719,"Before":13720,"questions":13721,"Ġdominions":13722,"Ġcontrolling":13723,"Ġchecked":13724,"ĠSolomon":13725,"Ġadjusted":13726,"ĠAugustus":13727,"Ġbaggage":13728,"Ġimpatient":13729,"Ġnucleus":13730,"Ġrebellion":13731,"olatry":13732,"Ġaquatic":13733,"90":13734,"Go":13735,"Gener":13736,"bred":13737,"da":13738,"Î´":13739,"Ġtune":13740,"Ġovers":13741,"reve":13742,"ito":13743,"Ġpall":13744,"Ġpairs":13745,"Ġfoes":13746,"Ġduck":13747,"learn":13748,"Ġreap":13749,"irp":13750,"ĠTao":13751,"ector":13752,"ĠPos":13753,"unci":13754,"--[":13755,"ĠGovern":13756,"ĠEtern":13757,"ensis":13758,"ĠNone":13759,"anging":13760,"ĠDI":13761,"ipat":13762,"ints":13763,"meas":13764,"Ġsentences":13765,"ĠUt":13766,"Ġforever":13767,"Ġlandscape":13768,"Ġtraced":13769,"Ġhistories":13770,"ĠXIII":13771,"Ġliberties":13772,"accord":13773,"Ġorganisms":13774,"Ġvisions":13775,"extreme":13776,"interrupted":13777,"Ġplanted":13778,"versely":13779,"Ġmanifestations":13780,"eyed":13781,"Ġpredecess":13782,"Ġdissent":13783,"Ġsalts":13784,"Ġaffirmative":13785,"Ġlustre":13786,"ĠAbra":13787,"Ġinstructions":13788,"ĠNecess":13789,"Ġprophecies":13790,"deliber":13791,"Ġfulfill":13792,"Ġthreaten":13793,"ĠAchilles":13794,"members":13795,"Ġhospitality":13796,"Ġbonum":13797,"fundamental":13798,"68":13799,"77":13800,"CES":13801,"Further":13802,"gia":13803,"mid":13804,"misf":13805,"pay":13806,"truly":13807,"vir":13808,"henever":13809,"Ġcam":13810,"anct":13811,"Ġhire":13812,"stim":13813,"utors":13814,"Ġascetic":13815,"idate":13816,"choice":13817,"osure":13818,"cibly":13819,"ĠCA":13820,"ĠCLE":13821,"opatra":13822,"ĠBentham":13823,"agus":13824,"ĠMust":13825,"assed":13826,"ĠThing":13827,"blance":13828,"angles":13829,"excess":13830,"Ġcarn":13831,"obranch":13832,"Ġimmoral":13833,"ĠYe":13834,"Ġtransf":13835,"ĠAsiatic":13836,"Ġshowy":13837,"Ġfreemen":13838,"bral":13839,"ctrines":13840,"Ġpunct":13841,"Ġconsciously":13842,"Ġfinish":13843,"Ġexpectations":13844,"Ġrestraints":13845,"Ġdiscussing":13846,"Ġdissatisf":13847,"princip":13848,"immias":13849,"holding":13850,"Ġsupremacy":13851,"Ġfasten":13852,"Ġepigram":13853,"Ġconsumm":13854,"Ġimperfectly":13855,"Ġauthent":13856,"Ġdeduce":13857,"Ġlicense":13858,"sighted":13859,"ĠMedit":13860,"Ġflourish":13861,"Ġfollower":13862,"Ġconcord":13863,"Ġmurdered":13864,"Ġallegiance":13865,"Ġdegenerate":13866,"Ġwondered":13867,"54":13868,"Sup":13869,"Ġpushed":13870,"Ġincomprehensible":13871,"Ġhuge":13872,"icacious":13873,"Ġether":13874,"seven":13875,"idy":13876,"ada":13877,"oler":13878,"access":13879,"ĠHan":13880,"ĠHas":13881,"Ġchaste":13882,"unc":13883,"Ġimposes":13884,"conversation":13885,"Ġadhere":13886,"Ġadherent":13887,"ĠEducation":13888,"ĠThomas":13889,"ĠToo":13890,"ĠDec":13891,"ĠDomin":13892,"Ġpregn":13893,"izable":13894,"ermost":13895,"Ġexpand":13896,"Ġscore":13897,"Ġcolum":13898,"Ġinvasion":13899,"pendix":13900,"Ġrealize":13901,"Ġguests":13902,"Ġimagining":13903,"Ġoriginated":13904,"thereby":13905,"Ġdecisive":13906,"Ġprominent":13907,"TIVE":13908,"Ġdesignate":13909,"Ġstatesmen":13910,"Ġendeavored":13911,"ARY":13912,"Which":13913,"erva":13914,"sensation":13915,"presence":13916,"Ġcosts":13917,"Ġspreading":13918,"ĠWork":13919,"Ġinflamed":13920,"Ġincurable":13921,"ĠGeorge":13922,"Ġvirgin":13923,"Ġinhabiting":13924,"Ġexternally":13925,"ĠAustralia":13926,"ĠRussia":13927,"responsible":13928,"instrument":13929,"ĠMajesty":13930,"ĠHesiod":13931,"Ġalphabet":13932,"63":13933,"64":13934,"Counter":13935,"Up":13936,"Zarathustra":13937,"iom":13938,"rays":13939,"squ":13940,"uk":13941,"ucy":13942,"Ġtame":13943,"Ġape":13944,"replied":13945,"itories":13946,"Ġbidding":13947,"Ġpoured":13948,"Ġfishing":13949,"Ġdors":13950,"Ġbeard":13951,"iris":13952,"ĠSE":13953,"ĠSage":13954,"Ġsends":13955,"estim":13956,"Ġalloy":13957,"Ġshift":13958,"ĠHo":13959,"ĠHume":13960,"avage":13961,"Ġjew":13962,"Ġquo":13963,"Ġquote":13964,"Ġsails":13965,"tee":13966,"ĠDarius":13967,"Ġimplying":13968,"derived":13969,"Ġregress":13970,"phors":13971,"Ġscandal":13972,"angel":13973,"Ġdivination":13974,"Ġinscription":13975,"Ġinches":13976,"Ġclassed":13977,"Ġburial":13978,"ĠParmen":13979,"Ġexcessively":13980,"Ġmothers":13981,"Ġreflective":13982,"constancy":13983,"Ġmelody":13984,"ĠÎº":13985,"Ġtempted":13986,"ĠLaelius":13987,"MEG":13988,"ĠCallicles":13989,"Ġbenevolent":13990,"benef":13991,
[...]
