#version: 0.2
Ġ t
h e
Ġ a
č Ċ
i n
Ġ o
Ġt he
r e
Ġ w
e r
Ġ s
o n
a t
n d
i s
Ġo f
i t
Ġ b
e n
e s
Ġ c
Ġ m
Ġ p
Ġt o
e d
o r
Ġ f
Ġa nd
in g
a n
o u
Ġ in
Ġ h
Ġt h
a l
i c
a r
Ġ d
i on
Ġ n
* *
a s
l e
o m
Ġb e
Ġ e
s e
Ġw h
o t
l y
s t
Ġ is
c e
l l
c t
en t
u t
v e
Ġ l
i m
Ġ re
Ġo r
Ġth at
Ġ g
Ġ (
Ġ it
Ġa s
o w
i r
i d
Ġ u
he r
Ġ T
. )
v er
.) :
Ġo n
u r
Ġf or
Ġa n
ic h
Ġh a
it h
e t
Ġ I
Ġ he
r o
l d
Ġc on
i g
Ġ A
Ġn ot
Ġwh ich
a y
c h
i f
Ġw ith
at ion
Ġw e
a in
es s
u s
Ġb y
o d
a m
a d
t h
u l
Ġs u
i l
t er
it y
Ġa re
p e
Ġe x
Ġf r
Ġs t
Ġh is
o re
o s
t he
q u
ĠT he
a nd
h t
i v
i ll
at e
b le
is t
o l
Ġ S
e m
r a
u re
Ġ y
â Ģ
a k
Ġs e
Ġthe y
ou ld
c i
Ġfr om
Ġs o
Ġwh o
g e
Ġ v
ou s
es t
Ġa ll
Ġa t
u m
Ġd e
Ġha ve
Ġm an
Ġb ut
Ġth is
al l
p p
i ve
Ġp ro
Ġs h
e ct
Ġc om
t her
re s
Ġthe m
Ġw as
Ġthe ir
se l
u st
Ġ r
e re
t o
Ġ C
an t
Ġa l
Ġon e
er s
a c
Ġ k
ou r
in d
Ġw he
n t
i es
Ġn e
o p
en ce
Ġh im
ar t
ou g
ig ht
o se
i e
Ġo ther
Ġ P
om e
Ġ B
am e
ion s
p t
p er
re at
Ġt r
m ent
Ġd o
Ġthe re
Ġ H
Ġn o
ar d
Ġm e
ver y
Ġc h
Ġan y
Ġw or
t ain
u n
Ġg o
Ġu n
a ble
f f
Ġ im
or t
Ġw ill
Ġ le
Ġu p
a g
al ly
on g
sel f
Ġp r
an ce
e l
c c
Ġc an
Ġ O
Ġy ou
id e
p l
as t
an s
Ġu s
ou t
Ġ .
u d
ing s
Ġ W
Ġh as
Ġd is
o st
Ġm ore
Ġa r
u e
Ġp er
ou nd
r i
Ġa b
Ġwh at
Ġ M
Ġo b
Ġ if
c on
Ġ F
re d
n ow
- -
Ġo ur
Ġp l
Ġit s
in e
a b
o f
Ġp art
s o
Ġ G
Ġwhe n
Ġm ay
Ġha d
k e
oug h
a ct
j ect
Ġwe re
Ġth an
a p
a u
ak e
a v
as s
ar y
Ġon ly
Ġa d
Ġ j
ic e
ic al
Ġw ould
Ġg reat
on e
nd er
f ore
Ġn at
Ġ E
Ġ qu
Ġa ct
is h
re e
Ġbe ing
Ġ en
Ġth ose
Ġs ome
Ġe v
i re
it ion
en s
Ġcon t
a re
Ġ L
r y
n e
n ess
or d
Ġl i
Ġ _
Ġm y
a ce
Ġk now
Ġcon s
ĠT h
Ġsu ch
Ġin to
w n
Ġa g
is e
Ġf e
Ġs a
p le
ot her
ĠT o
o g
u ch
at ed
Ġup on
Ġs p
c es
ig n
Ġbe en
Ġm en
w h
im e
Ġfor m
t e
Ġin d
Ġ N
it e
Ġthe se
Ġcom m
v es
ul t
ou nt
ad e
o c
n ot
b e
if f
i ous
Ġsu b
au se
Ġbe c
res s
p os
Ġo ut
h ing
w e
d u
ĠB ut
Ġal so
Ġgo od
a ge
as on
ay s
Ġsh ould
ĠI t
Ġ "
b l
an g
Ġa m
Ġs pe
Ġs ame
Ġg r
Ġ R
a w
ation s
o ve
Ġa cc
Ġ D
Ġg en
f or
c l
if e
Ġo wn
Ġp re
a ch
Ġm ust
i z
e e
i ble
o k
oug ht
u al
er tain
h y
Ġd es
c ess
T he
ĠA nd
Ġu nder
he d
ir st
b er
Ġth ings
Ġp e
ĠI n
Ġ 1
f ul
ce pt
it t
Ġt ime
as e
Ġ ide
ow er
l ed
res ent
i al
Ġe very
i ed
Ġt w
it her
r u
' s
i p
Ġre l
Ġin t
in t
Ġli ke
Ġc all
Ġ very
Ġre s
Ġm ost
or y
Ġd iff
ut h
v ing
Ġb r
âĢ Ķ
ar s
Ġsa id
sel ves
at es
Ġwith out
âĢ ľ
Ġthe n
ct ion
Ġh ow
i ly
Ġnat ure
t y
Ġim p
Ġs ay
Ġp o
in k
Ġp ers
os s
âĢ Ŀ
Ġf irst
Ġl ife
i an
he n
Ġa pp
Ġre ason
al ity
Ġe m
Ġbe t
f ter
o od
Ġc l
ic t
at h
Ġm ind
ĠF or
Ġag ain
th at
Ġm uch
i le
nd s
Ġm ade
at ter
er m
e x
Ġm ake
Ġd ist
ot h
h il
Ġgen er
Ġwhe re
Ġhim self
ul ar
Ġob ject
om et
âĢ Ļ
ur n
i b
ra ct
ere d
c ed
Ġtw o
Ġb od
Ġman y
o ll
Ġl aw
Ġan other
v ed
ow n
Ġse e
Ġre m
i a
o ok
o y
d er
op le
Ġev en
w ard
a ve
ver s
Ġpers on
Ġcom p
ĠS ee
ĠH e
Ġof f
ff ect
or s
Ġst ate
Ġin f
ĠG od
Ġin st
l ess
Ġa p
Ġ âĢľ
Ġre p
is m
Ġbe l
Ġp ass
Ġo ver
he s
in ci
Ġt e
Ġ her
Ġf l
pe ct
n er
Ġre g
at her
e ver
it ies
ent s
Ġp oss
n g
le ct
ac k
Ġa fter
n ce
s u
Ġit self
Ġp ower
o ld
c y
as ure
Ġ ,
en se
Ġsu pp
Ġc ertain
Ġwor ld
Ġj ust
Ġth r
Ġpe ople
Ġsh all
ut e
Ġe nd
Ġn ow
if ic
c om
Ġbec ause
os op
Ġy et
ĠC h
p h
hil osop
Ġh um
iv ed
Ġy our
Ġc ould
at er
Ġn or
Ġat t
Ġcall ed
u g
Ġha ving
Ġthere fore
led ge
l i
o ver
it s
Ġdiff ere
Ġp le
Ġch ar
Ġg iv
Ġex p
Ġw r
per i
wh ich
Ġex ist
Ġwor d
Ġ i
Ġab out
k s
l es
Ġa c
s er
ĠA n
Ġo p
Ġl ong
Ġwe ll
p ro
n ing
Ġs er
Ġb l
Ġap pe
ak ing
Ġne ver
Ġf ar
for m
in ess
Ġth ought
al s
et h
Ġthem selves
Ġne cess
i ld
Ġbe fore
ur al
Ġk ind
Ġth ink
e p
Ġ ent
Ġar t
Ġcan not
Ġother s
Ġpr inci
i us
. "
Ġs omet
Ġp resent
im es
Ġcomm on
Ġw ay
g et
is hed
at ive
Ġbod y
i ans
Ġ --
Ġdo es
oll ow
Ġs y
Ġdis c
u bl
th ing
m e
Ġnot hing
il ity
Ġde f
i x
w ith
ir t
at ing
Ġpl ace
Ġcons id
Ġp ur
Ġth ing
on d
Ġc ount
he re
Ġu se
v en
s h
Ġm ight
m an
et y
Ġr ight
iv id
Ġwho le
in ce
Ġ ra
t en
c re
ie f
Ġhum an
u p
Ġth ough
w ays
Ġpro du
ĠO ne
Ġst r
Ġf ound
ter n
Ġm or
Ġre f
Ġ ro
Ġs m
Ġagain st
ut ion
we en
ou l
a il
Ġy e
Ġha pp
Ġb oth
Ġcon f
Ġse em
ĠTh is
u c
ent ly
Ġ J
Ġus ed
Ġex t
ar k
st and
ic k
Ġ 2
Ġtr ue
d e
Ġsub ject
Ġp hilosop
p r
in ed
ed i
Ġe ither
re ad
h at
Ġor der
Ġknow ledge
Ġc or
ubl ic
Ġf ind
Ġthr ough
Ġl ess
Ġsu ff
Ġs c
Ġf ollow
Ġman ner
Ġ es
Ġd id
Ġad v
ment s
ri b
_ ,
Ġgener al
Ġc a
itt le
Ġs he
Ġas s
Ġo cc
Ġe ar
Ġ V
Ġal ways
Ġm atter
Ġcon st
Ġpart ic
b y
Ġh ig
Ġbet ween
Ġc ol
r ist
tain ing
Ġgo ver
Ġcon d
Ġto o
u ally
ak es
an ces
act er
Ġre st
Ġe qu
ord ing
Ġe ach
Ġj ud
Ġdiffere nt
Ġme ans
Ġpro per
u ll
t ed
Ġc ar
c er
r om
Ġg ive
Ġv irt
Ġle t
Ġgover n
Ġn um
Ġt ake
ere st
ĠO f
Ġs l
Ġw ar
Ġtr uth
h is
iv es
on s
re n
Ġm ere
Ġs oul
Ġf act
Ġwh om
ud e
o b
Ġo pp
Ġs im
Ġs et
Ġre c
Ġfr ie
Ġind e
ic s
Ġin v
Ġv al
an ge
f ect
o pe
Ġcont r
Ġ est
Ġp ut
Ġst ill
con d
Ġwor k
get her
Ġl ittle
Ġnat ural
Ġc r
Ġam ong
Ġpo int
Ġm od
a ir
Ġbe g
Ġne w
ĠI f
Ġn ame
Ġd et
it ed
) ,
te nd
u nd
Ġth us
pl es
Ġme an
Ġsm all
Ġide as
I I
ant s
Ġs ens
Ġide a
Ġso ci
Ġa w
in ation
t r
Ġc ase
ce ed
Ġconsid er
Ġe ffect
Ġreg ard
Ġad m
it ions
ak en
a x
Ġc o
ivid ual
p re
our se
ĠW e
. âĢĿ
id ent
is s
Ġar m
, "
Ġs ense
Ġfe el
ol og
ent ion
l f
id es
ve l
peri ence
I n
Ġcom e
Ġin ter
se qu
om en
cept ion
Ġwh ile
t s
c ul
Ġa ff
m on
ug ht
Ġim m
Ġgiv en
ci es
Ġ Y
ci ous
uth or
at ure
Ġchar acter
Ġcount ry
Ġpartic ular
pe nd
Ġd iv
Ġab s
Ġe ver
Ġpro p
ir it
en e
Ġwhe ther
Ġha nd
Ġ 3
ic i
ĠS t
in es
Ġop in
at t
p ar
Ġc ause
Ġin s
ad v
H E
Ġint erest
Ġtr ans
g ed
Ġword s
an y
ĠThe y
Ġg l
is ed
ag es
Ġhow ever
Ġp res
av ing
al th
Ġre ad
Ġple asure
Ġh on
i vers
Ġs ur
ĠA s
ot e
Ġse lf
ie w
hy s
Ġc ap
ward s
Ġv ar
m er
Ġe l
Ġof ten
ce ived
T E
Ġex am
ain s
t ing
Ġp ublic
Ġf am
Ġ '
Ġo ught
Ġre t
ar ch
f t
Ġbet ter
Ġl ove
Ġgreat er
Ġm ot
ce ive
Ġd ay
Ġd ire
iv ing
n ed
in ct
Ġsomet hing
r ow
Ġacc ording
Ġl ar
l at
er r
Ġexp ress
i red
Ġsh ow
od s
e c
the m
Ġob ser
ig in
Ġb est
Ġc le
Ġd em
m ost
Ġp ract
e nd
Ġre al
a pp
p art
Ġhe re
se m
ate ly
ir c
Ġind ividual
Ġappe ar
Ġl ast
as ter
Ġunder stand
os ed
Ġe t
Ġde ath
ut y
. .
Ġl ight
Ġne ed
Ġev il
Ġo ld
tern al
Ġ [
the n
Ġr ather
ir d
Ġst and
Ġqu est
Ġvirt ue
Ġ K
en ces
Ġex perience
on t
Ġd own
k now
Ġs ent
Ġf re
ci ence
em pt
ĠThe re
Ġad d
Ġg u
a red
Ġre qu
Ġca us
Ġsub st
Ġth ree
the y
Ġrel ig
st em
Ġ U
l and
Ġon ce
B ut
. ,
Ġmor al
as es
in s
ou se
Ġcont in
pos s
Ġe as
Ġch ild
in ite
con s
l u
Ġper taining
ist s
ap s
Ġa uthor
Ġv iew
c k
Ġlaw s
Ġbec ome
em ent
ic ult
Ġacc ount
Ġact ion
Ġl ook
Ġwho se
Ġpart s
r ates
ure s
Ġs ince
Ġan im
Ġd r
m en
Ġgovern ment
Ġnum ber
Ġt urn
A nd
pl oy
o ol
s w
ou b
Ġres pect
tain ed
Ġf ree
i or
Ġnecess ary
Ġk ing
Ġcon cer
Ġf ore
a id
Ġpro f
d om
oc k
Ġd one
Ġt erm
Ġin cl
Ġjud g
en ess
Ġbel ie
Ġposs ess
the ir
ou ra
Ġe y
au g
ain ed
ol it
Ġen em
pe ci
is f
st r
ro p
u b
i i
Ġaw ay
or n
Ġle ar
Ġinde ed
Ġim ag
pos ition
Ġc ity
Ġposs ible
ab l
Ġto gether
Ġform er
Ġspe ak
Ġs ort
Ġexist ence
Ġs ign
Ġobject s
Ġsp irit
Ġde g
y r
Ġp ain
Ġ ill
Ġor igin
om an
am ent
pos ed
j ust
Ġ ed
Ġm em
Ġd ra
Ġper fect
du ct
Ġf all
Ġcom ple
ou n
Ġb ook
th is
Ġcon sequ
a e
un e
ab ly
o id
iz e
en cy
ĠTh at
Ġsy stem
the re
Ġm ar
al e
Ġfrie nds
um ent
Ġqu ality
Ġany thing
c ur
ation al
ac ed
is es
Ġe le
f rom
Ġm et
Ġdet erm
w ise
wh at
Ġem ploy
b ut
âĢ Ĳ
ĠW hen
Ġs ays
Ġprinci ple
peci ally
w or
Ġt aken
u es
ir m
Ġan sw
Ġse ver
Ġopin ion
Ġrep resent
Ġear th
h ave
ci ent
Ġt em
h aps
read y
ar ing
i ver
Ġor d
Ġa ffect
Ġc irc
r ic
Ġl ab
s s
O N
f e
iz ed
Ġse cond
og n
ee p
Ġw ant
. ;
our s
ĠS o
Ġm akes
u se
p ose
Ġet c
Ġapp l
Ġser v
Ġl and
Ġst re
i um
is ion
. ]
o ot
Ġab ove
b r
d is
Ġpro v
Ġm ain
ar ly
Ġdire ct
l ig
Ġb ack
Ġlar ge
r it
ort ion
at ic
Ġne ither
one y
g er
ie ld
Ġquest ion
i er
ol ute
Ġfor ce
it ude
ĠW hat
ic es
h ip
Ġpre v
cc ess
Ġf a
as ed
Ġphilosop hy
as ion
Ġs ide
ang u
Ġye ars
Ġm on
ter s
b it
d en
Ġsomet imes
I t
ri ed
Ġex pl
Ġl ive
u ous
ust om
Ġr u
Ġle ast
Ġ ut
Ġf ur
h im
in ary
Ġbe a
Ġc are
Ġfor t
Ġa ble
Ġ 4
** :
Ġas k
ĠCh rist
Ġcond ition
Ġh ard
Ġhe ad
Ġconst it
ig h
Ġs ing
I N
c ri
Ġc ame
Ġs at
Ġ ess
er n
Ġes pecially
Ġimp ort
Ġmere ly
Ġdiff icult
Ġl o
g r
Ġspe cies
ang er
Ġh old
itt ed
w ill
y s
Ġgr ound
en ed
. _
Ġdes ire
Ġpr iv
y ing
Ġd oub
Ġd est
Ġde l
m p
o int
er ing
Ġt reat
Ġsever al
Ġc ur
Ġhe av
v ol
ru ct
Ġt imes
Ġde c
Ġm is
Ġac qu
Ġcomm and
li ke
i res
Ġin c
it er
Ġw ater
Ġprinci ples
Ġt ra
Ġperson s
us ion
Ġ ir
) .
e ll
an k
ĠE ng
it iz
Ġs il
Ġle g
Ġel se
wh o
Ġm o
ing u
is on
Ġcontr ary
ate ver
Ġcl ass
Ġseem s
t ic
Ġc ourse
p ir
c ing
e ad
Ġal one
ĠH aving
Ġfe w
Ġp ure
Ġal ready
Ġstr ong
Ġl im
Ġk eep
an e
ere nce
er c
ut ed
Ġar g
n ect
Ġp hys
Ġw is
w here
os ition
te ll
er y
th ough
Ġm ag
ar ily
Ġval ue
ur y
g an
Ġwith in
i ol
ĠG ree
Ġs k
ĠP lat
u nder
Ġimm edi
if ied
Ġhig h
Ġsoci ety
R A
Ġbr ought
en er
Ġfe ar
Ġall ow
u nt
Ġp ar
Ġc he
Ġh ar
ct r
g g
Ġm aking
pt ion
ici ent
ure d
Ġper haps
Ġcon duct
Ġf our
et s
Ġbel ong
poss ible
al se
Ġs ac
Ġhe art
olog y
Ġle ad
ib ility
Ġm oney
Ġm eth
Ġjust ice
T h
Ġhis t
Ġg ods
e w
ĠA r
Ġs cience
Ġknow n
Ġrel ation
Ġb ad
s y
Ġwor th
Ġf ull
Ġc ent
Ġpro ceed
Ġsu ccess
k ind
w as
oc rates
av es
ater ial
Ġun ivers
Ġbeg in
Ġres ult
mer ic
ous and
C h
Ġgen us
Ġauthor ity
al k
Ġb re
re g
con t
Ġd en
sem bl
Ġd er
s c
g es
l ing
Ġ X
Ġen ough
Ġfam ily
Ġle ft
Ġgr ow
Ġbr ing
is ing
Ġl angu
Ġbe h
ur ing
ĠN ot
Ġret urn
Ġli ber
ĠC on
Ġdoub t
Ġb us
Ġst ud
ant age
Ġcons ist
re l
Ġpur pose
Ġenem y
Ġs w
it ive
Ġb ene
H A
i ar
o ly
Ġh or
Ġch ief
Ġar r
Ġprodu ce
im ent
Ġb u
Ġso on
Ġyou ng
ound s
am p
on y
âĢ ĺ
o ice
Ġ &
Ġha nds
Ġr ul
Ġsh ort
ll ow
Ġse en
Ġ x
Ġa ge
Ġm in
Ġpro cess
Ġpr om
Ġgreat est
Ġop en
y ond
um st
it ing
Ġest abl
id ence
Ġh y
Ġ. ;
ow ers
Ġf ac
ci al
am es
Ġme asure
b ers
Ġmy self
Ġinf lu
Ġphilosop her
Ġf av
Ġour selves
ist ic
ĠE ur
tell ig
Ġp olit
Ġchild ren
ĠA meric
Ġact ions
e v
re m
al ities
c a
Ġc reat
Ġhapp iness
Ġde v
i ety
Ġm us
Ġdeg ree
Ġa v
Ġch ange
Ġsubst ance
er t
n o
c an
, âĢĿ
Ġm er
el lect
Ġabs olute
or m
Ġh ouse
Ġm ark
Ġbec om
x t
it es
Ġte ll
Ġab st
c ertain
op h
Ġbelie ve
Ġocc asion
âĢĲ âĢĲ
d o
Ġf alse
Ġrelig ion
A N
Ġp un
Ġcaus es
ĠO F
Ġ ign
qu e
Ġc itiz
Ġcon nect
ĠR e
Ġs ol
are nt
i pp
ĠA then
Ġmot ion
ain t
ĠPlat o
Ġcons cious
L E
Ġse par
Ġdist inct
und red
Ġfur ther
Ġequ al
ific ation
Ġent ire
Ġ 5
Ġm aster
as h
ve re
Ġso ld
ĠB e
b od
ĠI nd
T I
Ġsat isf
c hed
Ġexam ple
Ġapp ro
Ġin cre
Ġform s
tend ed
a im
Ġg et
al f
Ġre ally
ict ion
ĠC om
Ġth ousand
Ġal most
_ .
Ġ *
Ġunderstand ing
ce ll
Ġg ra
att le
Ġb ar
i o
T HE
Ġf in
j oy
m at
v ation
Ġw ise
ĠTh us
Ġbod ies
Ġdo ctr
Ġdes ign
Ġwh atever
iv il
Ġv iol
Ġ ver
Ġl atter
vel op
Ġo per
ish ment
hen omen
at or
re t
Ġarm y
ĠW h
ad j
Ġth ou
Ġwh y
ol ly
ix ed
ĠT HE
if y
om in
act ion
Ġqu ant
l p
Ġbe yond
Ġm aterial
Ġed uc
in ing
Ġs on
p ic
Ġsu per
b s
Ġne g
ic ation
Ġcon cl
Ġsoci al
us ed
Ġus ually
Ġqu ite
ac es
ce nd
Ġv ol
Ġb o
un g
Ġey es
om ent
Ġp ay
Ġide al
al t
Ġc ustom
Ġch ang
Ġp ra
ed om
ĠEur ope
Ġsu m
ĠS p
id ed
Ġdist ingu
Ġto wards
ĠO r
Ġex c
un ity
ĠThe se
Ġfrie nd
Ġlangu age
Ġ âĢĺ
ĠA t
air s
Ġh undred
Ġg ave
Ġf ather
Ġeas ily
T his
Ġd anger
ĠN ow
g ress
Ġansw er
ou th
Ġan cient
we ll
Ġse a
le ction
us s
an n
en g
Ġpl ay
ĠSt ate
Ġsupp ort
le t
g y
ill ed
Ġp ast
Ġsu n
r ies
ĠO n
it al
ic ally
ac c
it u
am ed
Ġe ff
Ġen g
Ġevery thing
Ġm ove
Ġde cl
Ġ ve
ent al
Ġpro b
Ġr un
cept ions
Ġhe nce
Ġ err
an cy
ĠS ocrates
Ġto ok
im ate
g o
Ġstre ng
im in
ĠI s
Ġcirc umst
p ers
it able
Ġbus iness
ĠH is
Ġwr ong
Ġcle ar
ac y
ro du
Ġt en
e av
Ġa ir
i as
Ġnecess ity
Ġadv antage
Ġpriv ate
Ġf ig
Ġl iving
Ġor gan
Ġcon ception
ĠA l
Ġfeel ing
Ġl ay
Ġc al
E N
pro p
h ab
ove red
Ġcom b
m ore
Ġp h
Ġmean ing
ut es
ĠA ll
ive ly
Ġex erc
Ġvar ious
Ġjudg ment
ro ss
if ul
Ġcomple te
f er
c rib
d es
Ġlong er
Ġte nd
ar m
Ġd uty
Ġcar ry
su b
Ġgiv es
Ġs ound
il ar
peri or
he st
0 0
re w
ot ion
Ġ )
Ġper form
Ġre sembl
Ġcon v
s p
Ġdiffere nce
so ci
U S
Ġs ch
at he
. âĢĶ
F or
ish ing
Ġex pect
Ġob lig
ĠP r
Ġpe ace
Ã ¦
im p
cre t
ne w
The re
Ġsim ple
Ġw omen
Ġproper ty
Ġacc om
Ġwe ak
Ġsp ace
Ġinflu ence
Ġu nt
Ġsupp osed
w hen
Ġim possible
Ġv is
i ers
p or
, --
a z
oura ge
re ct
Ġmeth od
Ġdiv ine
ĠF r
Ġru le
re es
ac hed
Ġen joy
w ould
H e
ex t
n at
Ġ1 8
Ġ ;
re ason
ur d
ur ch
ou ble
Ġqu alities
Ġcom es
Ġb es
Ġint ellect
Ġsing le
Ġf ail
i ke
ou d
iv ity
ast e
Ġpass ion
Ġincl ud
Ġc e
Ġprop ortion
Ġdra w
Ġp henomen
Ġhig her
to gether
Ġsay ing
r ing
g reat
Ġc ases
Ġin j
Ġign or
Ġex ternal
ĠH ow
Ġgener ally
ur ally
Ġm oment
and er
Ġk e
pl ied
. '
Ġs ight
Ġh ath
r on
ious ly
Ġhist ory
Ġconsid ered
Ġpr ot
Ġhe lp
Ġwis dom
Ġunivers al
Ġb ro
Ġin tellig
ĠS ame
Ġc our
ut ure
ĠB y
Ġpres er
Ġde pend
Ġman kind
i ent
il it
Ġbene f
I f
Ġsu re
sh ip
i et
be c
ch ar
Ġinst r
e qu
Ġh ome
y ou
Ġbecom es
k ing
u it
Ġc ut
c hes
ut ions
or ies
os es
R E
ĠC a
ĠD e
Ġgo ld
Ġth ird
ent y
Ġmind s
is hes
m y
W e
Ġc ivil
Ġrem ain
Ġquant ity
Ġsuff icient
Ġdes p
ful ly
Ġcond itions
Ġag ree
ĠR om
on der
b ar
e ch
Ġfac ult
Ġw ent
ab ility
ĠR ome
Ġatt empt
Ġimp ro
Ġfre edom
Ġt ax
u ed
ru pt
Ġimp ress
ul s
ord s
Ġre ceived
Ġn one
S O
Ġs le
Ġal though
Ġbea uty
S t
Ġha bit
Ġde velop
Ġcar ried
, âĢĶ
Ġfort une
Ġv ict
p ass
y l
at ch
Ġinf inite
Ġsu perior
ro l
all ed
Ġf ire
Ġfa ith
Ġs us
Ġex cept
HA P
Ġp ie
r ation
em on
Ġabst ract
Ġstreng th
d iff
er able
Ġc oun
Ġst ates
Ġle ave
os ite
TE S
he t
Ġan n
Ġne ar
up on
ĠA rist
or row
Ġa im
Ġpo et
Ġw ish
ow s
ard s
Ġliber ty
in ate
Ġappe ars
Ġsupp ose
Ġrel ations
ĠN o
ic ate
ĠL et
ru ction
Ġdoctr ine
Ġye ar
s ome
ere nt
ĠU n
Ġf un
Ġconcer ning
Ġanim al
aug h
Ġs ix
m n
in ter
Ġt ill
itt ing
m b
Ġend eav
p resent
Ġinst ance
Ġ 6
Ġp op
Ġl ost
um e
um ents
Ġnot ion
Ġan t
Ġne xt
aug ht
ad es
ent ial
iv al
W hat
Ġac id
re me
Ġl ine
Ġre ality
ĠEng land
Ġbl ood
Ġinv ol
Ġappl ied
Ġ Z
Ġprodu ced
Ġanim als
ly ing
ou p
Ġpr ice
A S
Ġcont ent
ĠP h
Ġcap able
f act
Ġth y
id d
th ose
ap able
Ġ1 7
Ġfre qu
Ġc ult
Ġt y
Ġh ope
Ġre du
el t
Ġsens es
Ġu nd
ĠAn y
Ġrec ogn
Ġord inary
Ġserv ice
Ġpl ain
ertain ing
on ly
s uch
Ġw oman
Ġcitiz ens
be ing
g ar
it ation
Ġde ad
j ud
ound ed
m s
Ġbel ief
. --
if est
Ġtem per
Ġheav en
w ere
Ġp en
Ġm ed
itt en
th an
Ġun to
the se
Ġb ur
Ġw ood
Ġthought s
Ġlab our
Ġsac r
ro y
Ġgood s
per fect
ĠN or
lect ed
Ġ Q
Ġn ight
Ġsa w
Ġdem and
Ġt aking
Ġwh ite
Ġhor se
Ġdis p
Ġsim ilar
an ch
R e
Ġf uture
ant ly
sh ould
res p
Ġl ow
Ġfor th
ĠS uch
Ġcl ose
Ġey e
v al
ress ed
ot t
Ġdo ing
in ction
iss ion
Ġterm s
h as
b el
Ġaff airs
h ib
st it
Ġfollow ing
Ġp at
f ort
Ġd ays
Ġinf er
Ġme et
over n
Ġt yr
er ous
ĠL aw
Ġcertain ly
E R
re am
ic er
Ġde al
Ġfollow s
TE R
th ings
le x
Ġpract ice
Ġeduc ation
Ġb ird
ore d
Ġcircumst ances
C RA
ĠW ith
T hat
ac ity
Ġex act
Ġpolit ical
ĠP ro
p et
bod y
E S
Ġc ry
Ġnat urally
Ġequ ally
ut iful
Ġother wise
ĠChrist ian
le g
Ġpract ical
Ġhe ld
Ġs itu
Ġm ist
Ġocc ur
W hen
Ġpl ant
Ġh alf
Ġhe ard
II I
Ġwor ks
Ġentire ly
CRA TES
ll ed
Ġhig hest
h ad
Ġspe aking
Ġthe ory
hen s
Ġbook s
U n
Ġd ue
Ġnecess arily
iver se
u ly
stand ing
d ist
ne cess
ĠP ertaining
Ġex cell
Ġform ed
il s
Ġemploy ed
SO CRATES
C on
Ġsh ip
ul ation
Ġso le
a us
Ġs we
Ġimmedi ately
Ġw ind
Ġl og
igh b
A n
l ict
Ġhe at
Ġin qu
Ġex cl
Ġun less
Ġm ult
com m
Ġrelig ious
Ġact s
s pe
Ġpo or
Ġarg ument
r ight
Ġst ri
Ġthink ing
Ġhon our
Ġarm s
Ġen c
Ġfore ign
Ġhe ar
ĠS y
Ġf ul
Ġdis e
know ledge
is ter
im ents
ens ion
o x
Ġact ual
Ġmag n
f ace
Ġhe alth
Ġpur su
Ġdisc over
ĠR oman
A s
iz ation
ĠE x
e al
Ġtr ade
c ent
Ġcon ce
a pt
with out
Ġmatter s
Ġcommon ly
Ġconscious ness
Ġf it
ur b
Ġbegin ning
A L
al y
hab it
Ġb attle
ed s
Ġoff ice
Ġt akes
Ġbe ar
Ġre ceive
Ġas ser
h ood
ĠA nt
ex ist
ci p
Ġatt rib
tain s
Ġn ames
Ġeas y
ow ed
Ġpro of
Ġr ational
Ġav oid
ar ies
st ood
Ġocc up
them selves
i od
m ay
Ġp osition
ing ly
Ġob tained
Ġinst ead
l ish
Ġf ive
Ġhapp y
Ġjud ge
Ġg ot
Ġsuff er
Ġr ound
if t
ra ce
op s
Ġappear ance
Ġg od
ĠY ou
Ġn ations
T o
Ġn ar
id er
est s
ĠP ar
e very
X X
il t
Ġ 7
Ġun ity
Ġto ld
Ġmus ic
e em
Ġs our
Ġf ace
ul ous
m it
Ġpe cul
Ġopin ions
on es
Ġinde pend
Ġregard ed
re st
Ġan g
Ġre d
g ener
n ature
ord er
Ġimag ination
Ġf ood
Ġf oot
Ġsch ool
h ow
uc k
Ġl ives
Ġre ven
Ġr ich
pl ic
Ġorigin al
c o
Ġask ed
ĠRom ans
ut ation
Ġch o
ro g
Ġf urn
Ġspe c
Ġcol or
.. ..
Ġde ep
Ġin n
Ġp ost
ver se
Ġpass ions
Ġapp re
Ġb as
Ġv es
Ġknow s
Ġatt ack
l s
Ġsee k
Ġ 8
Ġm ention
ap pe
Ġgr oup
Ġf ine
ad ed
ib ly
Ġgiv ing
os ing
Ġeffect s
b ly
c ure
om y
Ġde li
Ġstud y
Ġ ident
Ġac cept
I S
Ġafter wards
Ġexpress ion
Ġrem em
Ġsold iers
D e
d ay
Ġes p
him self
Ġimport ant
Ġinstr ument
Ġconsequ ently
g ing
h and
Ġunt il
Ġfe llow
en es
Ġder ived
Ġatt ention
Ġr id
Ġen v
cri pt
Ġpr im
Ġdifficult y
Ġn ation
Ġphilosopher s
r al
ic ism
Ġman ifest
Ġf ight
Ġpro gress
Ġconstit ution
resp ond
Ġb ound
h app
Ġmod ern
? "
Ġdo g
Ġev ident
Ġf ool
Ġre plied
Ġno ble
olog ical
m ind
com p
a fter
Ġw ays
Ġpl aces
Ġestabl ished
Ġto wn
e y
og ra
Ġphys ical
em pl
f l
g ood
Ġp owers
Ġre nder
ac le
Ġinterest s
b et
Ġuse ful
ain ing
Ġf ield
a pe
ast s
Ġm ass
Ġwr itten
ix t
TI ON
in to
Ġw it
Ġon es
Ġple as
Ġperson al
ĠAmeric a
p hilosop
ent h
ach ing
m uch
Ġdist ance
Ġves sel
Ġsee ing
Ġrul es
a ff
Ġopp osed
Ġc ourage
Ġmem ory
a j
Ġprev ent
Ġyou th
Ġam b
pos itions
ren ch
o le
Ġex cess
ĠA N
ob ject
eng th
o pp
ĠM ar
pos es
Ġrest r
ĠThe n
just ice
E x
or al
crib ed
Ġam ount
at s
es ar
Ġf ixed
ol ic
ie ve
Ġse cret
Ġgu ard
se e
ir th
ax im
ĠS h
Ġde b
Ġent er
ĠGree k
r ate
Ġcl aim
Ġformer ly
Ġconsequ ence
Ġwe alth
red it
T r
if ice
am m
Ġne ighb
Ġal together
Ġpers u
p ire
Ġpl ants
Ġcour t
p ot
h on
Ġd uring
Ġwh olly
Ġwe ight
the less
su ff
Ġw onder
Ġe lect
c he
c ome
f r
Ġinst it
Ġprof ess
Ġe nds
ra cy
Ġt est
Ġj oy
Ġbea utiful
at a
we alth
ag ed
ast ic
Ġem b
Ġenem ies
Ġpecul iar
o ke
are r
n s
Ġf air
Ġper ception
Ġdisc uss
ĠEng lish
b and
Ġwr it
Ġm other
Ġcon qu
Ġopp osite
Ġind ust
Ġ id
he nd
Ġdist inction
Ġgo ing
ivid ed
Ġread y
Ġre pe
Ġpr ior
ĠD o
sy ch
k en
ous ly
Ġde p
Ġpro ve
Ġprot ect
Ġas soci
Ġspe ech
Ġsil ver
ĠT r
l aw
ap ed
Ġobser ve
a emon
ĠY et
Ġd ark
u x
ot s
bec ause
Ġke pt
Ġcount ries
he ther
Ġmor ality
ri age
Ġdes er
Ġobser ved
ĠK ing
Ġex ec
Ġut ter
Ġ1 6
n ers
ort al
Ġdest roy
Ġbu ild
e ar
Ġp red
iv en
Ġsy mp
nat ural
g u
at ory
Ġres ol
Ġl aid
Ġqu ar
ĠN ature
Ġfr uit
Ġ1 9
Ġhar mon
ar p
ct ions
Ġkind s
know n
Ġs en
Ġd ie
Ġpl aced
Ġrem ark
Ġcomp any
Ġto r
Ġl ie
Ġj o
Ġfam il
Ġimmedi ate
d den
i ally
o e
Ġal ong
ag ain
Ġpass ed
l ong
Ġhon or
ĠP er
Ġcons ists
Ġcomm un
Ġc re
Ġin form
Ġprinci p
c ceed
A r
Ġcontr ad
Ġresembl ing
Ġdis s
p s
u pp
Ġs al
ĠM an
pr inci
in a
Ġw ife
Ġlear ned
O R
be en
Ġadm it
Ġsc ar
gg est
is c
Ġre vol
ĠS e
Ġc ast
Ġl ed
el f
Ġint rodu
Ġrem ains
Ġext reme
Ġt alk
overn ment
t le
Ġw all
Ġm ount
ĠW here
Ġbeg an
g ain
re nt
Ġb orn
im m
Ġass ist
Ġleg is
Ġpoint s
th r
Ġart s
Ġphenomen a
Ġl oss
Ġcap ital
Ġser ve
Ġext ra
Ġrequ ire
h um
o ff
Ġs ake
1 2
Ġl ower
at hy
Ġdiv ision
ĠFr ance
there fore
1 0
ul ate
aced aemon
Ġtr ust
e ither
in st
Ġint u
Ġsu dden
Ġconsist ing
as k
Ġt err
c le
ut ies
Ġle aves
il es
Ġ 9
Ġn on
Ġcon ceive
c or
su pp
at ors
ne x
P ro
Ġs in
Ġin habit
a f
al ed
bl es
Ġexerc ise
Ġthe e
Ġl ength
Ġallow ed
Ġcult iv
Ġtr uly
Ġvar iety
Ġpart y
Ġp os
w ay
ĠL ord
Ġh ur
Ġfe et
Ġt ree
Ġpossess ion
Ġe ternal
Ġst ep
Ġsh own
Ġspe cial
Â §
Ġsens ible
Ġfor ces
I L
o ved
ens ive
Ġext ent
ow ing
th ought
ĠB rit
Ġt it
Ġpl an
oc racy
Ġlear n
idd le
m ust
ĠH im
Ġfact s
Ġdire ction
I T
ac hes
âĢĲâĢĲ âĢĲâĢĲ
Ġess ence
Ġl ies
Ġy ield
Ġr ise
Ġun iverse
Ġ1 5
Ġincre ase
Ġem pir
Ġg ent
Ġan al
Ġdel ight
Ġbec ame
: âĢĶ
Ġcom ing
c ar
h old
Ġb ra
an other
ick ed
Ġm ut
Ġaff irm
Ġ ),
ort s
er ation
Ġfollow ed
. [
c il
s ide
er ate
an ced
Ġdr ink
i ence
Ġsome what
pl ace
Ġmy st
ll ing
Ġcomp re
in f
cur ity
A R
l ight
is ions
Ġd ream
Ġcor respond
HAP TER
Ġfa ult
ac her
Ġpra ise
in ces
Ġcr it
Ġto t
ic ial
ch ange
Ġnat ive
i ation
ch an
th y
Ġser ies
Ġsur face
Ġerr or
Ġt aste
Ġf if
Ġlike ly
ĠGod s
y n
in ity
it self
Ġs av
other s
Ġdem on
ok en
cons cious
Ġlear ning
ĠCa esar
Ġdeterm ined
ĠTh ou
i qu
ab les
Ġfig ure
Ġpop ular
Ġf elt
ĠH er
Ġper iod
u ff
Ġcom pl
Ġunder stood
re f
Ġpleasure s
m et
Ġimag ine
Ġcon vers
Ġcomp ar
Ġra ce
ĠAmeric an
us band
Ġseem ed
Ġdes ires
w o
ic les
t ime
se c
ĠA p
id ity
Ġpre p
Ġwhere as
Ġcon taining
us h
i ber
t is
at o
Ġm ental
C LE
ot ed
Ġdis ci
Ġcor rect
I V
l t
Ġhapp en
if orm
ĠG erm
ed u
Ġest eem
at us
Ġg ain
Ġca pt
Ġmod e
r s
1 3
Ġ z
Ġgl ory
Ġdra wn
c ourse
Ġamong st
Ġabs urd
Ġv an
Ġpro s
m od
p ly
Ġper ceive
Ġcomple x
us es
Ġindividual s
Ġchief ly
Ġv oice
a per
Ġbes ides
p ower
Ġt aught
r id
s ay
om s
Ġqu ick
Ġking dom
G ree
Ġk new
ap ter
Ġsitu ation
ot le
Ġnot e
Ġmain tain
Ġsu cceed
se t
ul us
Ġknow ing
Ġintellect ual
Ġinclud ing
Ġm ir
Ġst ra
Ġc old
Ġm ilit
s ame
Ġre nd
el s
Ġele ments
Ġtw enty
Ġpass age
Ġsubject s
Ġto uch
Ġan ger
Ġrequ ired
Ġme ant
Ġ1 2
W h
ir ing
Ġtr ib
Ġele ment
u fact
or ic
oura ble
Ġ {
Ġc ogn
ĠL e
ce iving
Ġv ain
Ġpr ay
Ġinst inct
Ġfriends hip
Ġess ential
Ġpr ince
Ġpre ced
C om
ĠS ome
ex p
f irst
ĠI de
Ġexp ense
Ġpie ce
Ġp arent
et erm
Ġsh are
C E
R O
Ġvirt ues
Ġg re
ou red
Ġr ank
Ġbl ack
a ud
Ġne arly
oc r
Ġlike wise
Ġfacult y
Ġspec ific
Ġmem bers
Ġb less
augh ter
Ġfrequ ently
ve y
Ġfav our
Ġst ru
Ġw a
Ġag re
Ġdef in
Ġir on
Ġsu ggest
Ġm al
ic ious
Ġs qu
Ġc over
Ġfeel ings
ne ver
G od
ac les
Ġdis position
Ġproper ly
y le
Ġprob ably
Ġsle ep
Ġh at
ĠF rench
ent ed
ap hys
Ġ1 0
ĠBe ing
Ġmark et
c ise
Ġh ind
Ġl ived
Ġexist s
Ġaffect ed
Ġinfer ior
ic ular
g in
Ġm axim
Ġty pe
m itted
Ġp aid
pp er
Ġdistingu ished
Ġst ock
icer o
Ġd ivided
Ġk ings
ĠF rom
Ġc ities
Ġm outh
ul ated
Ġwhere in
Ġarr ang
in ist
Ġl ater
Ġthere by
ĠE very
Ġpro ble
con tr
ca pe
Ġass um
N I
om pe
c ol
Ġl iter
Ġcon ceptions
Ġgr ant
ĠH ence
it ate
Ġpres ence
Ġc ru
Å Ń
Ġswe et
Ġact ually
Ġch ance
Ġconsider able
oint ed
Ġat tend
Ġdise ase
Ġadd ed
Ġsepar ate
j o
th ink
Ġbeh ind
l o
Ġt ro
Ġman ufact
ort ed
Ġconsider ation
id en
Ġconf ess
ĠAthen s
' d
Ġfor ward
e ed
Ġwor se
Ġ1 4
Ġimpro ve
Ġbe ings
Ġsu pre
Ġar ise
Ġhard ly
s omet
Ġf ast
Ġg ar
Ġturn ed
z ÅŃ
iz ing
Ġcle arly
Ġworth y
ĠAN D
Ġe p
1 8
ament al
Ġb irth
Ġm edi
or ous
Ġsa il
t ies
Ġfe ll
wor ld
Ġpun ishment
Ġphilosop h
Ġabsolute ly
Ġimport ance
Ġchang ed
ci ences
est y
ĠC le
Ġsim ply
C HAPTER
c alled
e ven
not hing
Ġ[ âĢľ
Ġprof it
l ife
Ġu r
ress ion
in ations
Ġlab or
Ġli qu
cri ption
i en
ĠA m
Ġsub s
arch y
l er
Ġbre ak
ct s
d ra
1 4
Ġb an
an im
om er
ash ion
Ġun just
Ġdef end
Ġch oice
A l
Ġev ent
Ġinter pre
, '
i est
i able
Ġw ild
ĠL acedaemon
Ġspe cul
Ġst one
Ġde pr
Ġpro position
sem bly
Ġtr ad
b id
Ġm athe
Ġev ents
ĠTh y
ign ity
a h
Ġm ad
ĠP hil
con f
ed y
Ġf at
Ġvict ory
E C
as ions
Ġsour ce
ĠM e
Ġcor n
Ġignor ance
Ġcont empt
ic ated
il st
ĠG reat
Ġl ose
Ġgo es
Ġnar row
m ade
Ġr ad
int erest
Ġref erence
Ġat tain
Ġbel ow
wor k
er v
Ġe ight
Ġchar ge
1 5
s ue
Ġf und
Ġcond em
: --
Ġsp oken
Ġbl ind
Ġp al
Ġsy n
Ġconnect ed
Ġex per
Ġpower ful
Ġright s
Ġbar bar
) ;
Ġd oth
ĠA d
Ġun f
Ġde part
Ġprior i
pl ay
Ġcho ose
Ġconcer ned
Ġf irm
pe nds
Ġgr ad
as ing
Ġun ion
Ġrel ated
Ġdirect ly
Ġd imin
ĠP l
Ġresult s
Ġcom posed
ici ently
Ġshow s
ii i
Ġconnect ion
Ġp ot
Ġh op
Ġd a
Ġref lection
ĠRe ason
Ġbird s
ĠT zÅŃ
Ġcons um
D is
ĠI I
Ġres ist
Ġadm ir
Ġaffect ion
Ġs ick
ir y
Ġdisc ourse
Ġra re
edi ence
Ġansw ered
h a
al so
ĠS c
N ow
Ġa id
Ġad op
Ġsp ir
P r
o cc
Ġh usband
Ġ1 3
Ġem otion
ĠGree ks
Ġintellig ence
un es
ign ed
Ġl oc
Ġgen ius
Ġin se
Ġgent le
ĠP ers
Ġscar ce
Ġd uties
Ġtr ouble
Ġsoul s
IN G
Ġempir ical
ic ian
Ġpart ly
Ġpre fer
Ġdemon str
Ġp et
1 7
Ġdeterm ine
Ġaccom p
ompe y
Ġp ress
ir ty
am b
Ġref er
i ance
bl ing
Ġposs ibility
Ġes cape
I AS
Ġwr iting
Ġcol lect
A THE
Ġdis g
Ġquest ions
Ġasser t
Ġpos itive
Ġe th
Ġcon form
Ġoblig ed
Ġmilit ary
al es
Ġbelong s
ra ction
Ġremem ber
S iden
n es
on ic
Ġper ceived
Siden ote
Ġh ast
Ġex ceed
ord inary
ĠJ ew
ĠAthen ians
S o
Ġact ivity
ail s
so ever
Ġst e
Ġcont rol
Ġcont empl
Ġi i
Ġra ised
Ġchang es
b es
Ġa pt
Ġp ict
s ens
ĠC r
unt ary
Ġcry st
Î ±
Ġf ish
Ġsac red
Ġ vers
ĠC or
ĠB r
Ġinst ances
Ġd ial
Ġev idence
not e
Ġacc ord
ĠD em
Ġneed s
Ġmag ist
Ġs ides
ire ct
Ġreg ular
o h
Ġref lect
v ious
z e
ill s
Ġar ises
Ġw ine
Ġme chan
Ġopp ort
Ġreven ue
Ġc amp
res h
Ġnum erous
Ġstand ard
Ġcontin ued
Ġoper ation
Ġcon ceived
ag er
Ġcomm er
Ġdevelop ment
Ġw alk
Ġb ase
Ġart ific
S e
en ing
ie nds
w ing
in ent
ĠH ere
Ġtr i
Ġstr ange
S p
l ar
ĠM en
ĠN ew
Ġindepend ent
L I
it ter
Ġm ach
Ġdisc overed
Ġc ra
Ġinv est
ĠSt ates
o es
al le
ag or
Ġact ive
Ġind iff
Ġyour self
Ġsl ight
ĠS part
B e
Ġsuff ering
sub ject
H ow
S h
m atter
Ġcomm unity
Ġreason ing
ĠArist otle
NI AN
Ġperfect ly
ATHE NIAN
A ll
m a
os en
Ġpr ide
Ġgr at
Gree k
ract ed
Ġconst ant
ate g
Ġim age
Ġadv ance
Th us
Ġprincip al
Ġv ice
Ġfl es
Ġear ly
Ġadd ition
os ity
Ġreason s
Ġrequ ires
Ġd i
Ġres p
Ġfl owers
Ġthink s
Ġw icked
at in
Ġm aj
Ġ Ã
Ġp ortion
Ġse cure
Ġaff ord
Ġsupre me
n ces
Ġsh ame
Ġ ing
sel ess
en ced
Ġexist ing
hum an
b its
p hy
er al
Ġfound ation
Ġindust ry
Ġwill ing
ab out
Ġhapp ened
Ġsens ation
1 6
p id
Ġf ancy
pe ople
Ġex hib
ĠW hy
Ġsort s
Ġap art
Ġrep ro
Ġsol id
Ġim perfect
Ġsp here
Ġcor rupt
lex ander
ĠQ u
again st
Ġspirit ual
Ġignor ant
Ġun ited
L et
or ough
ĠThe e
Ġwh ilst
agor as
ĠI N
Ġsubst ances
Ġb oy
Ġch urch
ĠTh ose
Ġheav y
Ġendeav our
Ġdef ect
m ight
u le
Ġl ist
ad d
Ġbr other
Ġbenef it
a res
id ing
if ying
er gy
Ġl ines
Ġg one
p ur
com mon
Ġhy pot
f ric
Ġso vere
Ġr ic
e as
Ġp ath
ro ad
Ġpro ved
Ġfun ction
Ġg e
Ġfor ced
Ġr ate
Ġdist rib
Ġevil s
i que
Ġa ut
Ġd ivers
ous es
l im
Ġc ross
Ġk n
Ġpre t
Ġl ust
Ġal ter
Ġob st
Ġexpl ain
Ġsatisf action
Ġwor ship
ĠR ep
Ġye llow
Ġdistingu ish
O f
ĠThe ir
Ġapp ly
Ġconcl usion
Ġt rees
Ġst ruct
Ġse nd
ind ividual
Ġconsequ ences
Ġsymp athy
Î ½
in al
Ġsp ring
ang ers
ĠR el
Ġple ase
Ġintu ition
o qu
Ġm ine
ĠC ar
ag ue
t ical
The y
Ġcomp an
Ġp sych
rop ri
um b
Ġnum bers
Ġvis ible
Ġo x
th s
il ities
Ġpr ud
Ġname ly
p o
Ġm ill
Ġst yle
Ġcom pe
ĠW ill
wh ile
be fore
Ġo d
Ġu lt
Ġte ach
cri be
necess ary
on ed
ort une
in ous
i ate
Ġag es
cient ific
Ġarg uments
reg ard
con st
li ament
Ġill ust
Ġlim its
Ġden y
Ġx x
s aid
ĠCh urch
Ġpur poses
Ġcent ury
Ġd ied
Ġun certain
ĠO ur
g l
h or
Ġbas is
ul se
Ġem pire
Ġviol ence
m ist
Ġs ought
or ious
ot ions
Ġus ual
ud es
Ġsacr ifice
Ġsp r
Ġcontin ue
Ġharmon y
a ign
om ic
ĠG r
Ġcont rib
thr ough
Ġm iddle
Ġde pends
Ġtend ency
exist ence
Ġhat red
ple asure
Ġappl ication
p es
ain ted
Ġappe ared
can not
Ġviol ent
Ġexcell ent
r ust
he ad
Ġre ject
Ġperfect ion
Ġimpress ion
in c
re qu
Ġp ains
Ġsh ape
Ġsa ve
Ġsl ave
Ġfav or
ur ation
Ġcaus ed
Ġlook ed
wor thy
Ġmed ic
Ġst art
Ġmem ber
ative ly
Ġpossess ed
Ġst ory
in th
Ġnot ice
Ġse x
Ġper man
ĠThere fore
Ġin ternal
Ġr iver
Ġme l
ser v
irt ue
Ġfound ed
Ġbelie ved
Ġrep utation
ĠEurope an
Ġtit le
Ġre ach
ĠM y
ful ness
c ount
Ġt re
ver t
Ġv ent
Ġcl ot
ex perience
Ġcreat ed
gy pt
a o
p res
ut ing
Ġdef e
Ġf ashion
Ġe con
Ġha bits
Ġpre cise
sh all
IN IAS
CLE INIAS
, [
ĠE ven
Ġp ort
Ġf le
de f
Ġbelong ing
Ġl ack
Ġre v
in us
Ġmention ed
Ġent ertain
p oint
ĠA fric
ail ed
tr ans
gener al
Ġcru el
Ġwhen ce
Ġdef inite
m ission
Ġv ul
ĠP ompey
Ġcap acity
Ġc redit
Ġlet ters
Ġsen ate
Y es
l ook
m ed
Î ¿
is ible
Ġd om
Ġsh arp
Ġad apt
diff erent
mb ol
Ġstr ict
Ġaccording ly
1 9
g ot
en cies
Ġhapp ens
Ġaccom pl
i ant
Ġt able
Ġin justice
Ġexpress ed
Ġw ide
Ġfr ont
Ġim pl
ors es
Ġsupp ly
Ġful ly
c ould
Ġh ost
ĠA fter
Ġhuman ity
Ġro om
Ġro ad
Ġre ve
Ġtr y
ĠC apable
cond ition
Ġmathe mat
A t
f ra
n a
Ġstand s
Ġcompar ison
Ġt al
Ġst age
Ġob ey
Ġsk ill
Ġfamil iar
Ġex peri
qu est
Ġv ig
Ġopp osition
Ġcur rent
Ġgrow th
Ġmove ment
Ġfacult ies
Ġocc asions
Ġsign ific
t ake
Ġ ).
Ġgr ief
Ġra ise
Ġb urn
ur ies
Ġfind s
Ġper pet
Ġsent iments
Ġcitiz en
Ġcon ven
Ġal t
cc ording
a ul
if ies
Ġsa fe
hes is
Ġnever theless
ab s
Ġacc ident
c her
w hether
Ġs orrow
or us
ĠA b
F oot
Ġb al
Ġhe ight
P er
Ġe at
Ġsent iment
Ġhy d
Ġsacr ific
Ġexact ly
Ġfles h
c us
Ġs ciences
ĠM r
Ġor n
Ġsuff iciently
y e
ci us
em ents
Ġind u
ud ed
D E
c r
f all
os p
Ġpre f
Ġinst ruct
f ollow
ot es
ld om
ore s
ĠC icero
Ġpur ch
Ġmar riage
Y ou
Ġd ignity
Ġst ars
Ġpass ing
Ġconf usion
Ġtyr ann
ig ation
Ġpr ison
Ġple ased
ertain ly
Ġb old
Ġst ood
Ġun known
Ġa ch
act ions
Ġregard s
u ity
Ġman ners
Ġrepresent ation
Ġd omin
Ġcon tains
Ġagree able
re p
ul a
Ġinj ury
_ ;
Ġb ott
Ġprodu ces
Ġd ouble
Ġtro ops
ic ers
Ġha ir
Ġcomm od
al ty
ĠE p
Ġpo ets
Ġsl aves
le y
Ġher self
Ġsl ow
Ġconcer n
Ġb reat
Ġf em
Ġadm itted
poss ess
Ġmeth ods
Ġrid ic
ce ives
od e
ĠC ato
Ġob sc
1 1
Ġc ost
Ġas pect
ant ages
Ġar ound
Ġext ension
Ġdanger ous
I m
n or
Ġmer it
Ġhur t
m ake
Ġp it
ane ous
ĠWh o
l ation
ch ief
em s
Ġoff er
Ġmet aphys
Ġr an
appe ar
Ġhe aring
Ġse ason
Ġlet ter
g ans
y our
Ġrep ublic
v ent
et er
ust ra
Ġobser vation
ar ath
The se
Ġredu ced
Ġdefin ition
c al
Ġso ft
pro per
re present
il ed
Ġch osen
Ġcomp et
cend ental
g ment
ar ian
st ate
Ġprop ri
Ġcont ro
part icular
Ġh ither
ĠI II
ĠA lexander
Ġapp arent
hens ion
ic le
Ġd well
us ive
Ġse curity
Ġinhabit ants
O O
Ġl ate
ow ard
Ġspe ct
Ġdes ir
Ġbl ame
Ġmot ive
Ġhist or
arath ustra
it ory
an ation
im ony
ere r
Ġdist urb
r ay
on ies
Ġsupp l
Ġsur pr
ĠHe ll
Ġmo on
ol es
ound ing
ĠIt s
cons ist
cont in
b ed
p ract
Ġc av
ĠS cript
ĠN e
Ġgr and
Ġdeg rees
s l
Ġle vel
Ġpleas ant
Ġc ell
ol ution
Ġtr ou
ru ption
Ġfl u
n um
Ġd edu
Ġall ied
Ġspir its
Ġa x
ad ing
Ġst at
ĠP e
Ġob tain
cre te
g en
Ġin ner
st er
Ġnot ions
t led
Ġanal og
Ġthr ow
Ġpresent ed
Ġs an
Ġclass es
? âĢĿ
s is
us ions
Ġprop he
Ġmult itude
b o
act ers
The n
ĠK ant
Ġweak ness
Ġto ward
ĠI m
Ġsovere ign
a cious
d iv
Ġh our
od y
man y
Ġexam ples
Ġhar m
b ack
Ġc op
Ġk ill
or ity
ou nce
Foot note
f ound
he l
com ple
stit ution
Ġfool ish
Ġcon tained
Ġgra ce
b i
Ġexam ine
O M
l ast
m ar
u ine
at isf
Ġin tended
ag ree
oc les
Ġdeli ber
Ġcons cience
Ġlog ic
N o
O n
Ġre ward
ther n
ag ement
te en
Ġrepresent ed
ĠGree ce
it ute
Ġh orses
O r
em per
Ġwr ote
Ġmot ives
ide a
Ġobject ive
Ġwr ite
ĠCom mon
b on
et ic
ict ed
Ġsur r
somet hing
Ġ iv
Ġex tend
ĠJ ud
g overnment
Ġv ast
-- --
Ġgreat ness
Ġprov ided
Ġlim ited
Ġt er
Ġs n
Ġse es
r ated
Ġal ike
Ġexpect ed
nex ion
ne y
Ġrec k
Ġorigin ally
pers on
O U
d eterm
n ame
Ġar ch
Ġpriv ile
ar n
Ġser ious
Ġqu iet
Ġdisc o
ĠE gypt
Ġform ing
Ġcomplete ly
E D
con sequ
Ġacqu ired
Ġliqu id
Ġ2 0
cons ider
ge l
ast ed
dis c
Ġpros per
A d
I nd
ll a
ĠS ub
Ġim per
Ġint ention
Ġneighb our
t wo
Ġh oly
Ġf an
Ġob edience
pect ed
cons id
Ġout side
Ġdes ired
Ġconf idence
tr uth
Ġsuper f
Ġpreser ve
ogra ph
Ġopport unity
P l
Ï Ħ
um p
Ġrem ote
me an
Ġpie ces
con cer
Ġmer ch
Ġadm inist
Ġph r
Ġstruct ure
E n
in y
Ġse ldom
Ġbr anch
Ġlim it
under standing
m atic
ic able
Ġl est
Ġpr on
Ġob vious
av i
ĠL ike
Ġextra ordinary
Ġp aper
as p
m iss
Ġt im
Ġc ateg
Ġru in
acc ording
Ġto p
Ġread ily
Ġwit ness
ver ted
Ġan x
fe el
Ġtax es
A nt
is p
Ġposs ibly
app ro
who le
Ġfin al
ĠBrit ain
Ġsyn the
in tellig
un ate
Ġemploy ment
I C
h ouse
Ġbe at
Ġs alt
Ġcertain ty
form ed
Ġparticular ly
Ġlar ger
Ġjudg es
Ġstra ight
Ġth irty
ĠC l
ĠIt aly
o z
r ical
Ġfind ing
Ġf illed
char acter
Ġparent s
c ks
n est
ak er
ag on
ĠCh ar
Ġcommer ce
r ational
at ives
Ġb ank
Ġre ached
te nds
Ġcr own
Ġcharacter istic
Ġsubs ist
ur s
Ġpro positions
Ġsuccess ion
Ġf inite
ar r
Ġor gans
Ġcon tain
ak ed
Ġpro ject
bl ed
h aving
ĠM aster
Ġprodu cing
Ġmo ved
eal ous
Ġwrit ings
Ġst im
do es
Ġeng aged
Ġinstit utions
2 0
im ag
Ġadv anced
Ġwar m
Ġcoun ter
. =
Ġf olly
Ġth orough
res pect
ag n
av en
Ġli k
Ġcomp ared
Ġval u
Ġtem ple
Ġord ers
Ġang ry
H IL
i ated
an es
ĠH omer
Ġact ing
ex am
bet ween
ĠJ ust
Ġcryst all
Ġvul gar
Ġt ext
Ġf ill
Ġn amed
op in
pl ine
cept s
Ġprodu ct
ĠSp irit
w ixt
re lig
Ġb read
ur ther
Ġfor get
Ġwhere by
Ġbeh old
b re
m al
es us
Ġe ars
Ġre nt
iv eness
ĠS over
S ub
g ent
id ently
Ġapp et
e ffect
m ere
ĠD ion
ll s
Ġcont ract
Ġbro ken
Ġwall s
Î ¹
Ġf resh
ĠC ons
Ġsa f
Ġwis hes
ĠX en
, )
v ity
ĠP ower
el ve
Ġar bit
Ġreg ion
Ġric hes
ie ved
ĠM oses
Ġcarry ing
y et
Ġc overed
Ġpre jud
Ġdist ant
Ġi ii
Ġstand ing
Ġsatisf ied
philosop hy
Ġproble m
N ot
c ad
Ġd ress
ĠF l
Ġes c
r am
Ġin ward
ur us
Ġbod ily
Ġdes cend
Ġestabl ish
P h
Ġs cientific
it us
Ġm arch
ul ph
Ġeff ort
u ke
Ġw ars
Ġm ort
Ġg ained
Ġcom position
Ġcol our
Ġobser v
Ġth ick
Ġdes cribed
Ġem pt
Ġtrans p
Ġt ong
Ġp ol
th us
Ġdiscuss ion
Ġm isf
un ction
Ġind ul
Ġsy mbol
Ġcirc le
Ġbro ad
het oric
s ur
Ġse ven
Ġsy ll
abl eness
plic ity
m edi
Ġg ame
Ġv ision
Ġpre par
b ation
Ġ Î
Ġc ens
Ġevery where
lat or
Ġhold s
S T
Ġp ubl
Ġf ly
id ae
Ġpure ly
Ġfour th
Ġship s
d el
w r
is ure
Ġsp read
P ar
Ġexpl ained
ustom ed
Ġimpress ions
.= --
i pe
ĠC an
Ġwor st
Ġoff ered
Ġconst antly
Ġsign s
Ġmain tained
ĠGerm an
is ite
Ġd ig
her s
us ing
Ġv ill
Ġoff icers
ipp us
Ġfund amental
c est
s ense
y th
uthor ity
Ġcompre hend
Ġb are
al ways
ap h
Ġneg lect
avi our
l ove
Ġd read
Ġpro posed
com me
olic y
Ġrend ered
Ġa st
Ġs ize
for ce
Ġproper ties
oph on
Ġappro ach
Ġ 0
Ġf ix
ic ians
ent ially
be ll
Ġcreat ures
Ġcustom s
fra id
Ġab und
Ġsw ord
Ġpoet ry
Ġaccomp an
um n
Ġbuild ing
er ve
Ġb ed
le br
iz es
Ġatt ached
Ġimprove ment
Ġw atch
Ġcons ent
ĠY es
ici ency
Ġa fraid
ch ang
Ġout ward
Ġro b
Ġmod es
Ġim ages
Ġhigh ly
Ġda ily
ac qu
ĠW or
ict ions
with standing
ĠÃ ł
s ign
Ġbecom ing
Ġperform ed
o on
p ore
re al
Ġp up
ac r
Ġc ir
Ġm id
Ġm ortal
con ven
Ġtreat ed
Ġsure ly
Ġprep ared
Ġb all
if ts
Ġfr ame
ĠP hilosop
ĠZ arathustra
Ġgood ness
Ġbr ings
Ġtyr ant
Ġamb ition
c irc
Ġst op
Ġsub ord
g ive
Ġc ere
an cing
ur ance
Ġtr ium
Ġimp ulse
00 0
Ġful f
Ġenv y
f ar
Ġperman ent
Ġsaf ety
Ġth in
ow d
Ġconf irm
I s
Ġbe asts
Ġgener ation
Ġchar acters
Ġmor als
Ġinterpre t
h us
Ġs ounds
ĠS to
ĠG ood
Ġvirt uous
ĠPr ot
ixt ure
Ġagre ement
s im
ĠA gain
Ġwhere of
Ġro ot
Ġconf lict
Ġest ate
Ġmut ual
Ġgre en
Ġs ons
un k
og ue
Ġint r
Ġcr ime
Ġlook ing
est ic
Ġapp ointed
Ġsk in
Ġ( _
ĠA ccording
il ty
ĠC HAP
Ġab and
Ġbless ed
Ġb itter
Ġab ility
Ġjust ly
Ġconcl ude
Ġindiff erent
r ance
ang le
tr ue
Ġphenomen on
Ġbott om
m us
Ġf ate
Ġdis order
ific ations
Ġm ixed
Ġh ouses
Ġat tained
Ġval ues
yr us
Ġmis ery
Ġ er
Ġsu itable
Ġse vere
Ġaw are
Ġinn oc
Ġstru gg
Ġmedic ine
Ġen ergy
ĠR es
Ġdifficult ies
as much
ĠC ol
Ġtruth s
ĠAs ia
Ġfam ous
Ġcoun sel
Ġdial ect
Ġhither to
V I
a ith
is ation
it ated
pro du
Ġdef ence
Ġlog ical
Ġobsc ure
Ġsh r
Ġreason able
Ġabs ence
Ġlead s
Ch rist
EN T
Ġc at
ur ke
Ġmet al
Ġoper ations
2 3
re c
Ġas ide
il aus
Ġprodu ction
H y
i ot
ent ions
ver ty
Ġpo verty
Ġw ished
ul ars
Ġpursu it
cip io
Ġhop es
b us
Ġthen ce
Ġtem por
Ġce ase
b ra
it or
il ing
Ġst ay
ĠM ore
Ġadv antages
en ance
es ides
Ġe ager
Ġus es
d em
Ġh ate
ĠA g
Ġco in
ĠUn ited
w ar
ir on
Ġst ar
Ġdirect ed
s ent
Ġb ased
Ġe ase
Ġfr u
cl es
Ġgl ass
ha ust
Ġcon vey
ĠC f
Ġlo ose
c itiz
Ġdo or
Ġrem ained
A E
e le
Ġl ux
cl aim
here nt
Ġear li
Ġvol untary
a i
am ong
Ġpo ison
Ġ2 3
Ġsuff ered
Ġgl ad
Ġcontin ually
Ġb orrow
Ġf ame
ch n
ace ous
Ġte acher
Ġmor ning
Ġdisp ute
Ġcre ation
Ġcogn ition
S E
ist ory
Ġdeli ver
Ġconvers ation
r ous
Ġl ot
Ġpr inces
know led
Ġenc oura
ocr atic
r or
ri al
pos ing
Ġassist ance
ĠJew s
Ġcon nexion
ain ts
Ġass ume
Ġinc apable
Ġdisco very
p on
Ġe tern
Ġtr ial
Ġun able
Ġwr iter
Ġdoctr ines
ogra phy
Ġartific ial
r ant
u cius
Ġu seless
ri ble
ĠR E
Ġrel ative
Ġexper iment
T H
or ation
Ġre form
Ġcon j
Ġsh ut
Ġgreat ly
Ġte nder
Ġgrow ing
Ġinqu iry
2 5
is ters
Ġad equ
Ġcreat ure
aint ance
Ġcon crete
end ed
Ġspeak s
Ġinvol ved
Ġpict ure
o ch
Ġl ad
Ġex tended
and s
Ġwhat soever
Ġoblig ation
Ġident ity
in v
Ġm ale
ant ic
Ġcall s
ars h
Ġmis erable
Ġdestroy ed
B y
ic it
Ġre vere
Ġsubject ive
Ġput ting
Ġattrib ute
v ag
Ġt um
Ġbet wixt
Ġaffect ions
Ġfin ally
T U
ive red
ud d
Ġdis posed
vers ion
Ġgovern ed
Ġview s
Ġmaster s
Ġincre ased
Ġremark able
is k
Ġd ry
le ar
Ġconsider ing
Ġcommand ed
Ġkeep ing
Ġw ret
ic ed
Ġwe ar
ĠCom m
comme nd
C l
f ind
n on
Ġgr own
Ġac knowled
Ġprof ound
Ġut ility
Ġdest ruction
Ġbring ing
âĢĲâĢĲâĢĲâĢĲ âĢĲâĢĲâĢĲâĢĲ
Ġphilosoph ical
2 4
Ġbe aring
ide as
Ġdis char
Ġsp ite
Ġmaterial s
Ġneg ative
Ġcal cul
Ġbra ve
ĠLacedaemon ians
Ġtrad ition
Ġfem ale
Ġb ond
Ġst ead
os m
ĠL atin
Ġdeb t
fr iends
Ġcontrad iction
O L
y m
Ġn ational
iv ities
Ġsh ad
Ġk illed
are st
Ġdes cription
ĠIde a
Ġgrad ually
b al
Ġrem ove
Ġas sembly
Ġgr ass
Ġapp ropri
Ġfall s
Ġacqu ire
Ġvan ity
at ur
Ġh ot
Ġth reat
Ġn av
ĠT O
Ġgen uine
Ġrem oved
edi ent
Ġmist ake
in n
Ġo il
Ġis land
ut us
ĠTh ough
Ġpre tend
Ġhon est
Ġdr iven
Ġacqu ainted
Ġprob able
Ġappe al
." [
Ġwork ing
ĠWith out
S c
ĠA ges
ac on
ie v
Ġmy th
Ġw ants
an qu
Ġse arch
est ed
Ġtreat ise
Ġmo ving
Ġfun ctions
s m
Ġs it
Ġear nest
Ġrevol ution
H Y
Ġdis play
Ġright ly
Ġsc he
Ġdem ocracy
Ġord ered
Ġintrodu ced
Ġdisg race
Ġwor n
uth ors
Ġpass es
Ġbeg ins
how ever
he art
Ġp olicy
Ġpart ies
Ġread ing
reg ular
i am
Ġde ar
Ġch apter
Ġus ing
Ġequ ality
Ġsold ier
Ġresp ons
A m
S ec
s he
Ġg ro
Ġle isure
Ġcomm itted
Ġserv ants
Ġhead s
a ult
Ġp ity
Ġf ab
em por
Ġcom fort
Ġag ent
Ġcl oud
ob ser
Ġwant ing
Ġarr ived
Ġbu ilt
ĠAl so
Ġult imate
Ġw at
Ġal ive
Ġem otions
Ġut most
Ġlo ved
L e
ed ition
id ents
ens ions
Ġend ure
Ġche ck
Ġreturn ed
princi ple
C or
t on
ro se
Ġra pid
Ġconst ruct
Ġexpl anation
r ary
ĠD iv
go ing
b oth
c ity
im on
ĠE m
Ġli able
Ġform al
Ġbr an
Ġbr ight
Ġland s
Ġstre am
quest ion
g ement
Ġh ang
Ġfar ther
Ġ2 5
.âĢĿ --
Ġce lebr
it ure
ph al
ipp ed
conscious ness
count ry
Ġc attle
ur ious
Ġex change
Ġtell s
2 2
Ġre con
Ġv it
ĠF irst
err ing
Ġhold ing
Ġvessel s
ar g
ĠI ll
ens ity
ĠD es
Ġexist ed
Ġ2 4
Ġshow ing
pir ation
Ġclose ly
Ġb ind
Ġd il
ot ing
Ġno ise
Ġwrit ers
Ġt u
er ved
it ious
ch ild
Ġcr owd
Ġpolit ics
Ġaim s
Ġaccord ance
o oth
Ġr ig
Ġpun ish
Ġrepe ated
b orn
Ġs ong
Ġh id
ys is
or ph
Ġfl ight
ec ause
gr ound
Ġc and
ol s
Ġse c
ĠL ife
Ġtw elve
Ġimp art
Ġsmall er
Ġmot ions
ours es
Ġjo ined
Ġmod erate
Ġfall ing
Ġfig ures
Ġfif ty
ĠScript ure
l iness
Ġb ul
Ġfr ag
Ġst ated
ĠC alled
adv antage
aced on
Ġempt y
f inite
Ġd uration
ist ed
Ġnature s
Ġstate ment
Ġgovern ments
Ġshow ed
Ġsent ence
Ġstrong er
Ġsus pic
Ġfrequ ent
. âĢĻ
M y
or gan
Ġthrough out
Ġve get
Ġquar rel
a ffect
Î µ
Ġj oint
Ġacc ur
Ġproceed s
ĠInd ian
f ather
s atisf
Ġm ur
Ġmore over
Ġridic ulous
Ġcrystall ine
z z
pp ed
ens es
ĠRep ublic
Ġtong ue
Ġtrium ph
Ġfor bid
Ġse ed
Ġfl ower
Ġfl atter
d r
Ġa ug
ic a
Ġrem edy
Ġthr own
Ġconf ined
Ġsystem s
Ġfurn ish
Ġutter ly
Ġdisci pline
f ish
Ġre ign
ĠI nt
Ġst orm
Ġat tended
.) ,
ĠM in
omet ry
ism s
Ġrun ning
c reat
Ġl ic
Ġu pper
ĠL y
Ġmagist rates
ĠSover aign
Ġt ask
Ġas h
Ġsp oke
Ġref use
Ġmeasure s
Ġdevelop ed
Ġcons ul
Ġcl oth
Ġadv ice
Ġground s
Ġtot al
m is
ur able
Ġv ices
Ġal tern
Ġper ceptions
Ġacc ustomed
ĠD i
l ittle
m oral
st ill
ol ation
Ġj our
omet er
end ing
ĠCon f
Ġerr ors
Ġprotect ion
or ing
Ġle aving
pro v
Ġprom ise
Ġdecl ared
Ġexec ution
Ġgrant ed
P lat
m in
id as
ĠP art
Ġcomp ass
Ġass ured
Ġf ishes
id s
ig ne
Ġtr if
ia h
pro f
Ġdef ined
oun ter
Ġinform ation
Ġsudden ly
iqu ity
F l
r ather
t aken
Ġse ct
Ġne arer
Ġext rem
Ġtrans cendental
Ġl a
ĠJ esus
Ġfeel s
Ġprofess ion
d ess
il k
ĠS ch
ĠM et
Ġqu al
vol ution
acc ount
Ġinclud es
Ġann ual
s oul
Ġf ing
est abl
Ġ2 7
Ġjo in
2 7
ed uc
Ġr hetoric
Ġen lar
ple x
ĠR ight
Ġfl at
Ġconf used
Ġpreser ved
Ġe rect
Ġun iform
Ġcomp ound
I R
Ġw inter
ĠI V
ok ed
Ġrec ord
ĠInd ia
sub st
Ġphr ase
or igin
se en
ĠS he
ĠS ol
ĠE pic
Ġcall ing
Ġcompe lled
re nce
Ġn ay
ot ic
am ents
ra g
Ġso il
Ġbl ow
ĠNot hing
e k
v ar
Ġb one
pe l
ra c
ri a
Ġrespect s
Ġrefer red
oh n
v irtue
or g
ĠB ook
Ġwhen ever
sem ble
rel ation
Ġenjoy ment
IT Y
S y
k in
am in
Ġset tled
Ġleg al
ĠNor th
Ġm ess
ar se
Ġd am
ĠO ther
Ġrem o
Ġ2 6
Ġcol onies
Ġdraw ing
diff icult
s pr
Ġc oll
ple nd
Ġent ered
Ġfall en
._ --
ic ks
Ġan cest
ro s
ra ph
Ġse ll
Ġsh ru
ag ner
ĠE ast
Ġrel ating
Ġdiff er
Ġatt itude
Ġbl ue
Ġprim ary
T is
s ight
Ġexcell ence
Ġsole mn
ĠBrit ish
Ġhypot hesis
com ing
Ġpresent ly
up iter
Ġsepar ated
Ġexcess ive
Ġtyrann y
b ur
d s
er ies
Ġpresent s
Ġconcer ns
imm edi
Ġcultiv ated
2 8
A TION
C ont
e ach
er ity
Ġp ounds
Ġd aughter
im ately
Ġturn s
oc ks
me ans
OO K
S uch
ĠLaw s
bet ter
Ġan ci
Ġcircumst ance
en n
Ġte eth
Ġel oqu
happ y
m aster
Ġw ages
se ver
ĠA ct
Ġsu it
con nect
Ġinf l
Ġset ting
Ġsch ol
Ġredu ce
Ġplain ly
Ġmaxim s
e en
Ġb ow
Ġst ir
ĠS cipio
Ġdiffere nces
Ġinter course
ĠSo cial
Ġmin ute
a very
d ig
f in
ch ing
Ġwith dra
ist ing
per or
now ledge
Ġmedi um
u ge
or a
Ġd ict
Ġre vel
em y
Ġind ic
Ġover come
Ġserv ant
Ġscarce ly
Ġmechan ical
A fter
Ġ Â§
Ġa ud
or ne
Ġex ception
Ġst up
Ġreg ul
sh aped
happ iness
T US
m ical
Ġthere of
ĠE n
cept ible
Ġro y
Ġimm ortal
Ġinstr uments
Ġcere mon
! âĢĿ
wh om
ict ory
Ġess entially
imp ort
Ġpersu aded
Ġin ev
ant ry
ĠP yth
Ġread er
Ġturn ing
Ġmach ine
2 6
N O
Ġt ail
om b
ĠS ic
ĠS am
Ġadd ress
Ġgu ilty
Ġcontin u
Ġphys ician
Ġlead ing
sp irit
Ġprud ence
Ġprecise ly
m or
ort ality
Ġsl ain
princi ples
Ġmanufact ure
; "
N e
ĠS ir
Ġfl ow
ĠV en
Ġhon ourable
Ġsil ence
suff icient
agree able
an us
ĠC y
ĠC yrus
Ġour s
Ġj ealous
Ġag o
Ġbr ain
Ġsc ale
Ġwant ed
Ġmaj ority
d est
p hys
Ġe ld
Ġre ceiving
if erous
ĠS outh
Ġpres um
Ġlook s
s ince
u el
Ġwas te
Ġpr int
Ġte aching
Ġ2 8
cond ly
Ġgl o
ĠWh ich
ĠC al
Ġser ved
ae us
ĠChristian ity
Ġbran ches
V II
a ut
om ach
Ġim posed
Ġoff ices
D o
g iven
Ġf il
Ġad just
Ġcommon wealth
man ner
Ġtra vel
Ġmult i
Ġspecific ally
Ġstru ck
Ġfru its
citiz ens
? '
ort ation
ĠM ed
ĠG overnment
Ġgener a
ug ust
Ġexam ination
Ġdeterm ination
Ġmark ed
Ġpun ished
c ase
ĠP rop
ĠO pp
Ġfl our
Ġprev ail
Ġprosper ity
Ġadminist ration
the tic
Ġdis hon
Ġass ent
Ġpartic ulars
ĠXen ophon
i ary
p ired
Ġt rop
Ġf ond
Ġinf lict
Ġtrans l
will ing
equ al
Ġwonder ful
Ġspecul ative
got ten
ĠS u
Ġoff icer
Ġgu ide
Ġprev ious
Ġcomb ination
Ġconv in
Ġre tain
our t
Ġfl o
Ġcr imin
Ġsens ations
Ġident ical
W ith
Ġg ift
ag ger
Ġinst ruction
Ġte ars
Ġest im
Ġsatisf y
Ġmount ain
re nder
Ġm ixture
Ġf er
Ġh un
Ġl over
ans w
ĠAr t
Ġresol ved
ĠSc ot
Ġloc al
Ġsignific ance
B r
Ġis sue
Ġsu st
Ġr ough
ĠC ont
Ġtr ain
Ġen qu
Ġkind ness
Ġjudg ments
Ġdel ivered
Ġresembl ance
Ġdemand s
Ġ lying
Ġa str
Ġl ord
ver age
Ġfe ed
su ccess
Ġstri ke
object s
A O
ip s
Ġgener als
ĠSpart a
circ umst
b u
et us
Ġopen ing
Ġdepend ent
W hy
Ï Ĥ
Ġt empt
Ġh om
Ġle af
Ġher o
Ġsm ooth
Ġinc or
Ġadop ted
Ġperpet ual
B l
F rom
p ut
ĠC ON
Ġbr ief
Ġrep ly
Ġprov ide
M an
Ġc oward
ce l
ĠA re
og enes
Ġexc ite
Ġcontempl ation
3 0
k es
o il
al ing
Ġd ull
ĠA ch
Ġse at
Ġab road
ĠM acedon
Ġlo ves
Ġproceed ing
ival ent
Ġlow est
P HIL
f our
m ing
Ġpr oud
Ġar ist
Ġleg s
Ġa uthors
Ġg ather
Ġas certain
be a
Ġrepresent ative
ĠPar liament
Ġprim itive
Ġcommod ities
Ġvalu able
Ġaccompan ied
c ause
e ous
Ġpro hib
Ġpr iest
com pre
Ġcor ruption
In ter
Ġ3 0
Ġpain ful
Ġacqu aintance
ĠAthen ian
Ġcrit icism
Ġwa it
opin ion
h ost
p ent
w ords
Ï ģ
ra b
Ġde ce
ĠH ouse
Ġev idently
less ness
Ġro ck
Ġinv ention
Ġincl ination
Ġget ting
p ost
r at
ĠU nder
Ġadequ ate
is dom
Ġex posed
Ġv ote
our selves
ĠAp oll
Ġquick ly
Ġsqu are
Ġcondem ned
R ep
r as
Ġc ure
ve ll
Ġsee king
Ġrul er
Ġsuper st
Ġinqu ire
2 9
v iew
re ction
Ġs and
ul es
Ġv en
Ġche er
uls ion
Ġconqu er
; --
f am
l or
or able
Ġin cur
ci ation
un ivers
ĠD is
Ġver se
Ġl oud
Ġg ifts
ĠS ince
Ġr ude
ĠL ys
ĠD el
ond on
Ġput s
Ġelse where
Ġx v
Ġlegis lator
ut ive
Ġne ck
Ġact ivities
ĠJ upiter
Ġsing ular
Ġcal m
Ġextreme ly
d id
n al
Ġbe ars
Ġthere in
ri ous
Ġcount enance
Ġcharacter ized
Ġprov ince
ĠAfric a
Ġtrou bles
Ġwret ched
in ence
ad m
all ow
Ġneed ed
Ġele v
Ġdesign ed
Ġh unt
ic us
ie nd
con duct
Ġsuperior ity
Ġadmir ation
Ġdom estic
comple te
I X
g reg
i hil
ar ks
Ġid le
O ver
Ã ©
con ception
Ġintellig ible
Ġach ieve
ĠIll ust
Ã ¼
an th
al ry
Ġtr ied
Ġsp ent
oun ced
Ġinstit ution
Ġemb ra
Ġcir cul
Ġash amed
f ull
in cl
Ġl augh
ag re
ab st
ĠE th
com es
Ġdr am
Ġrul ers
ĠHow ever
Ġing en
ĠPhilosop hy
. _,
le v
th ree
Ġde cre
Ġwhe el
ĠP le
Ġpart ial
Ġsp ot
upp ose
contr ary
Ġbal ance
Ġv i
ĠC ertainly
ĠB urke
Ġun eas
Ġpen et
S oc
Ġst ones
Ġsh ill
su per
Ġset tle
Ġsepar ation
Ġesteem ed
Ġthorough ly
A rist
H ere
Ġto uc
ri us
any thing
Ġconstit utes
Ġstud ies
Ġenter pr
Ġliter ature
á ½
Ġd are
Ġno bl
TE TUS
P re
i os
m em
en ic
Ġn ut
us c
ĠS pe
ge ls
ĠM on
int ellect
Ġdisc ern
E p
s ing
Ġw ool
Ġs ulph
Ġf led
Ġd iver
ĠS omet
ĠS elf
ab or
Ġcons ult
Ġsub mit
Ġarr ive
Ġtest imony
Ġsucceed ed
Ġarrang ement
I nt
b rew
t a
Ġs ink
Ġp ed
Ġh ours
im il
ĠL a
Ġarm ed
Ġbur den
ĠBr utus
Ġadapt ed
b ing
Ġan tic
Ġv iz
app l
Ġmon th
ĠX X
Ġsoon er
M E
s ch
w it
Ġappear ances
poss ibility
Ġprom pt
THE AE
Ġsole ly
Ġappre hend
Ġaccept ed
THEAE TETUS
A b
p ublic
Ġde ceived
Ġins ol
Ġincl ined
Ġfamil ies
Ġtri be
Ġmathemat ics
e per
Ġo wing
Ġs olit
Ġr ain
Ġtr aining
ĠM any
Ġform ation
form er
Ġ2 9
Ġmar ks
Ġtreat ment
bi ades
V III
Ġs ad
Ġas sembl
Ġnot es
Ġdiv ide
Ġabs or
Ġterr itory
b est
Ġo mn
Ġs em
Ġin conven
ex pl
Ġass ign
Ġjud ged
att ered
Ġbu y
Ġassum ed
b ook
t urn
w ater
Ġs me
it ative
Ġre n
ect ion
ĠC all
Ġim itation
Ġspe nd
Ġintellig ent
Ġmount ains
Ġrevere nce
ĠAges ilaus
ter ior
Ġch ap
ib us
Ġcomp are
Ġcar ries
Ġdec ay
Ġmove ments
Ġdark ness
Ġimpl ies
ĠG e
Ġapp oint
Ġconstit ute
Ġliber al
Ġdepr ive
Ġpress ure
HY L
r us
Ġm iss
ĠT im
ter y
ĠO b
Ġdist ress
Ġpass ages
Ġsupp osing
Ġent it
Ġrequ isite
ĠSp ain
Ġtown s
Ġast on
iron ment
Ġb le
Ġex haust
Ġst ro
Ġse lect
Ġr ays
Ġconv iction
Ġdise ases
Ġfight ing
Ġresol ution
Ġagre ed
Ġrad ical
O ne
l eness
on us
Ġg all
Ġsav age
Ġantic ip
! "
Ġr ange
ud ing
be ar
Ġext ensive
Ġoccup ation
mere ly
f ree
Ġn our
Ġso ph
Ġtheir s
el ic
ĠO ld
Ġset s
ev il
Ġsupport ed
Ġcomb ined
alle l
Ġfle et
Ġarbit rary
pore al
g ra
st one
Ġfor ty
Ġex ert
ant ed
cc les
ast ing
Ġsa ith
Ġcomm it
Ġem ph
Ġarm ies
Ġir regular
W here
p un
Ġin her
Ġth read
to o
ag ing
Ġspe ed
oub ted
Ġdec ided
Ġgod dess
Ġcorrespond ing
abs olute
Ġappet ite
Ġroy al
i ast
Ġh orn
Ġd rop
ĠB el
Ġmist aken
Ġreven ge
Ġpreced ing
2 1
Ġc atch
Ġad vers
Ġen able
Ġinv ent
Ġattrib utes
Ġpropri ety
ce an
Ġl ament
im s
ci biades
Ġv ary
ĠH oly
Ġar ising
Ġob s
av ed
Ġac knowledge
Ġprov isions
Ġfurn ished
Ġinn ate
Ġdesir able
spr ing
y mn
ur is
ch us
Ġshe ep
Ġdecl are
Ġmeet ing
mind ed
EC T
S u
d own
i ations
Ġb ounds
ĠF ather
Ġtrans fer
Ġcaus ality
Ġserv ices
mean ing
Ġearli er
M ar
r ison
Ã ª
Ġg ard
Ġv ir
ind eed
Ġrep ort
uls es
Ġassoci ation
Ġdepr ived
Ġmad ness
Ġmisf ortune
o bl
o ven
Ġ -
re edom
Ġw in
Ġs plend
Ġm erc
Ġf ier
Ġth irst
Ġse eds
Ġfe e
Ġsub tle
Ġpur sue
Ġass igned
Ġproceed ed
Ġhyd ro
Q u
Ġo w
ĠT H
ĠT AO
il ius
ĠN either
Ġgra ve
arm ed
Tr ans
Ġstrugg le
3 3
he m
Ġp an
Ġpr i
Ġper mitted
Ġsp ont
Ġinst ant
Ġte nds
Ġadv oc
Ġsens uous
Ġgrow s
bec ome
Ġschool s
jo ined
ĠCor inth
Ġbreat h
f oot
i osity
n ation
o v
ut able
Ġwe ap
us hed
Ġatt ach
Ġ3 6
Ġexpress es
Ġdr ive
oub t
Ġremain ing
Ġoccur s
Ġoccup ied
Ġextra vag
ĠIde as
Ġcover ing
Ġw ings
om atic
Ġre commend
ow ards
Ġnot withstanding
ere nces
ne ither
Ġsub l
Ġheav ens
Ġorn ament
O D
R I
Ġin it
as is
se em
am ing
ĠS tr
ĠB esides
Ġun ite
form ation
Ġpay ment
rog en
Ġresist ance
ĠMore over
Ġjour ney
M e
V E
w ood
Ġo ath
Ġthe ology
Ġc y
Ġin consist
Ġd ro
Ġn aked
Ġcon cept
Ġconst r
HA T
Ġdream s
medi ate
Ġthe ore
Ġd im
Ġe go
um in
ind e
Ġme at
Ġcol lection
ull us
sequ ently
Ġsol ution
Ġexerc ises
Ġassoci ated
Ġd ying
ĠO N
of ten
Ġatt ract
Ġ3 4
Ġins ult
Ġfree ly
Ġmis chief
Ġbre ast
Ġcal am
Ġhind er
A gain
ou ch
and ide
av oid
Ġshe ll
Ġpoint ed
Ġjudg ement
Ġdeterm ining
Ġden ied
Ġdesign ating
ĠPar is
Ġclaim s
Ġsacrific es
Ġanci ents
M is
Ġd rew
ĠS un
Ġv ital
ĠH y
el op
Ġ3 8
Ġsecond ly
Ġstep s
RO P
c are
Ġw ont
es c
ar th
id el
ĠA pp
ĠB E
ĠE mp
ĠL ondon
Ġbr own
Ġref used
Ġadv ent
comm un
Ġattrib uted
Ġmir acles
contr ad
Ġmill ions
Ġexperi ences
a ed
Ġ |
ol ved
Ġman agement
ĠG ener
Ġout er
Ġbr id
Ġcare ful
sc he
Ġ18 9
Ġcour ts
Ġpri ests
Ġs cept
ar i
ly mp
ĠA ugust
op er
Ġch ain
Ġper ish
ten ance
Ġnew s
Ġsil ent
A p
C I
Ġacc ess
Ġetern ity
U nder
u ct
Ġm ilk
am ber
ĠC ap
ĠJ ohn
Ġsl avery
ĠWe ll
Ġeff orts
Ġpen alty
Ġguard ians
Ġdeser ve
Ġsav ed
ĠDion ys
Ġwat ers
E very
a it
b ered
h ard
it ect
et rius
Ġhe l
Ġr out
ĠW agner
Ġind irect
Ġbene ath
prop ortion
Ġhid den
ist ics
ment ion
Ġme as
Ġsur v
Ġeng age
Ġrend ers
Ġinse cts
Ġclot hes
t aking
as c
us al
ra el
Ġde ed
Ġwor sh
aw ay
Ġres our
ĠHe brew
par able
Ġself ish
Ġpossess es
cont ent
Ġorgan ic
Ġcult ure
Ġeth ical
p olit
om p
ĠB ecause
Ġab ol
Ġfe ature
pro ceed
Ġsy m
ĠV I
Ġimag ined
Ġcare fully
Ġche mical
Ġbene vol
Ġcut ting
Ġtal ents
S ocrates
Ġnot ed
ĠS oph
Ġam use
Ġrel ates
yr r
Ġmar ried
Ġmon ths
under stand
sy stem
Ġincre asing
Ġfail ure
Ġdrink ing
Ġter rible
Christ ian
m ain
ĠS at
Ġcomp r
Ġte chn
cul es
Ġkeep s
Ġmer cy
ĠOn ly
comm and
Ġstri king
Ġelect ric
Ġfat al
Ġw on
ot y
Ġde eds
de ath
Ġsuccess ful
Ġlegis l
Ġcateg ories
es thetic
Ġin asmuch
em ploy
ard on
Ġun like
te gr
ors hip
Ġcr imes
Ġpurch ase
C r
en o
le ep
st ead
ur t
ĠW est
aw s
Ġco ast
ĠChrist ians
Ġmin eral
Ġpursu ed
Ġcav alry
, _
r ict
Ġo lig
Ġf oll
ĠP oly
Ġrec ol
Ġadm ire
Ġdiv isions
Ġbo at
Ġadvantage ous
Ġdesp air
Ġthy self
dist ingu
spe ak
every thing
Ġpersu ade
Ġcultiv ation
Ġadop t
M et
er g
Ġc up
Ġf est
Ġha z
ĠSy lla
Ġconqu ered
Ġarrang ed
M on
a uthority
Ġa rose
Ġw ives
it udes
ĠThe b
Ġse ized
ass ad
Ġact ed
ĠN um
ex pected
Ġbeg un
Ġmet als
Ġdec ision
G r
c all
s k
Ġw ing
Ġc it
Ġre pl
Ġhe s
Ġcon c
ci an
Ġro se
Ġcirc um
Ġprocess es
athe tic
Ġinvol ves
.... ....
Ġprivile ge
Ġpup il
m as
Ġe gg
ress es
Ġide als
Ġchar ity
arch us
Ġtreat s
necess ity
child ren
Ġsuspic ion
G l
p her
á ¼
Ġone ly
un ning
li ber
Ġequ ivalent
Ġcontr ast
Ġhon ours
Ġcent re
Ġfather s
great er
ĠAnt ony
inf lu
re en
er ves
Ġs now
Ġf itted
th row
ĠC e
ĠL ove
Ġconcl usions
Ġcruel ty
Ġb orne
Ġp atter
Ġbe ast
Ġser ves
Ġopp ose
Ġco arse
Ġinter f
Ġdem ons
Ġdec ide
ĠSp an
Ġbarbar ians
is ition
Ġp ull
ĠT est
Ġst ation
av ior
Ġtw ice
Ġapp ar
Ġ3 9
Ġder ive
Ġanal ysis
Ġmathemat ical
I de
s al
ot ism
to ok
Ġno body
Ġobject ion
Ġret reat
Ġord in
Ġappre hension
num ber
; âĢĿ
p ed
s us
Ġbe e
os is
Ġr ub
ens ible
ĠN ever
Ġconsider ations
part s
Ġconstit u
h ig
i ac
t w
as m
ig ion
iv able
ĠG l
cl ass
Ġcle an
unt arily
ĠCom p
Ġrun s
Ġcelebr ated
n ight
Ġt one
Ġre new
od es
Ġr ing
ord ers
ign ation
Ġbet ray
ĠV ol
Ġcol lected
Ġphys ics
Ġprob ability
Ġcompan ions
Ġdomin ion
Ġcontro vers
Ġesc aped
d irect
Ġl of
ĠT s
ĠL u
Ġcol le
Ġcol ours
ins ic
str ong
Ġconsist ent
Ġappro bation
e ff
h ar
in et
Ġb ill
Ġc red
Ġf ought
Ġd angers
ci pro
con ce
ual ity
Ġins ight
Ġcur ious
RA L
Ġheart s
Ġdistinct ly
pers ed
Ġinclud ed
Ġconce al
ĠAm ong
Ġconsum ption
Ġc ried
al ready
Ġcon ject
ch o
per haps
ne g
pr iv
Ġ3 5
Ġobser ving
Ġcaus ing
Ġdoubt ful
Ġattempt s
Ġsubord inate
Ġinnoc ent
d ep
g n
i h
l ine
Ġ ly
Ġis su
Ġg ross
ac ing
Ġem inent
Ġimm ortality
Ġcontin ual
Ġtra ged
rupt ed
XX X
Ġquar ter
Ġmanufact ures
ĠSub ject
R es
c ap
Ġa verage
ic ro
as ant
Ġas cend
ad s
Ġv ac
wh ose
Ġwhere ver
Ġprof its
pic uous
Ġexerc ised
Ġpsych ology
s acr
Ġde pos
Ġch ast
Ġacc us
Ġsim plicity
Ġdeg r
Ġed ge
Ġdel icate
Ġsour ces
Ġexperi enced
Ġmid st
3 4
or ter
or ial
al ian
Ġwe lf
Ġr ites
el ess
Ġper plex
Ġam id
Ġdes crib
Ġsum mer
anim ity
N or
Ġf ed
Ġre ceives
ĠA ust
ant ial
Ġcomp ens
Ġ3 7
Ġsign ification
ĠAr g
Ġheaven ly
Ġspr ings
p ri
Ġb ount
Ġf ert
Ġl at
Ġl od
Ġg ames
Ġg rew
ĠP aul
Ġtr u
ĠN ay
Ġgr ain
Ġac ross
Ġpar allel
ĠInd ies
Ġsubl ime
p henomen
Ġb ent
ic acy
Ġan gels
Ġse v
Ġinf erence
Ġsur pass
Ġmon arch
Ġcent ral
Ġrepe at
I ON
S ee
Ġp iety
ĠU pon
Ġstre t
Ġcent uries
Ġfalse hood
Ġdep th
Ġrepro ach
Ġsynthe sis
Ġs ed
ou thern
ut ter
ain e
Ġwho ever
ĠL uc
ĠN O
ach us
Ġconstit uted
mat ical
Ġve x
Ġhistor ical
Ġlux ury
Ġwelf are
D em
s on
t ered
Ġn it
Ġn omin
Ġfor gotten
Ġr ising
ri um
Ġgr asp
Ġcor por
Ġpreser vation
dist inct
ĠPhil ip
Ġmeas uring
l ive
in qu
Ġw and
ĠT e
Ġpre cious
ib al
Ġsupp osition
Ġinv ented
Ġinc ident
Ġperform ance
Ġproof s
Ġterr or
Ġeth ics
Ġhost ile
Ġmur der
W ell
Ġthe at
ad ox
ĠP re
Ġexpress ions
O ut
Ġsu gar
ac ult
Ġun it
com pl
Ġadd ressed
Ġcontin uous
Ġele ction
Ġunivers ally
ĠDe ity
Ġvent ure
, âĢĻ
H er
ra ge
Ġv oc
Ġat oms
un ct
ish op
Ġfe ars
Ġfe ared
Ġmight y
cond itions
Ġcommand s
Ġinfinite ly
ĠRel ating
Ġran ks
r is
z en
Ġt rem
Ġm urd
or ical
Ġth ither
et ern
Ġde ceive
op en
Ġgener ous
Ġnor th
Ġstr angers
Ġterm ed
Ġsle nder
Ġaccompl ished
feel ing
Ġshill ings
w ord
Ġw ound
it ch
Ġm our
ĠG u
ĠWh ile
Ġtemper ance
Ġoccur ring
Ġang les
3 6
o o
p ra
st re
Ġan te
th ousand
Ġexc use
Ġconform ity
Ġboy s
Ġflu id
f av
v est
ĠI DE
Ġr ot
Ġno vel
Ġun c
ĠW hether
Ġfore st
ctr ine
pers ons
Ġfaith ful
Ġdeal ing
Ġindepend ence
law s
U R
in ner
Ġd ate
Ġg un
ir s
ĠM ind
Ġcont act
ove re
Ġres ent
Ġenv ironment
Ġz eal
Ġtre asure
Ġecon omic
m aking
Ï Ģ
Ġs well
it ating
or k
Ġsh ore
Ġany one
og ism
pos al
Ġrel ief
pro b
Ġdel ay
Ġbo ard
Ġplay ed
Ġant iquity
C AL
Ġl if
ro d
Ġcon verse
Ġst ick
os c
Ġr hy
og y
wh atever
Ġimp ulses
Ġinter v
ines e
Ġtrans ition
Ġorgan ization
anch oly
bel ieve
Ġpray er
Ġinvest ig
Plat o
t es
Ġthe ories
um es
Ġper t
ke ep
ade qu
Ġart ist
Ġabs ent
Ġ4 0
Ġir re
gu ard
Ġ ice
on omy
it ably
Ġb ore
Ġc ro
Ġp ig
Ġd ust
Ġl aug
Ġtr anqu
ap ing
Ġspe ci
Ġsee ks
Ġwr ites
de g
.. .
Ġstrong ly
Ġchang ing
Ġbenef its
Ġsche me
Ġsuperst ition
Ġm ild
ir l
ver b
ig nt
Ġso ever
br ought
Wh o
Ġadmir able
Ġshad ow
circumst ances
S l
w rit
Ġb ones
es ter
Ġc as
ĠM ess
Ġpl ate
ry s
Ġint ent
Ġdist rict
Ġent hus
Ġra ising
Ġneg lected
Ġfail ed
think ing
Ġvers es
Ġlist en
pur pose
Ġcrimin al
C ertainly
e us
g ence
i k
Ġb ull
Ġh ollow
se ll
Ġg ets
ĠF ull
ĠAr ch
Ġestabl ishment
soci ety
Ġhealth y
Ġproble ms
ic o
ra p
Ġv ii
Ġde em
Ġwill s
Ġpre m
Ġmain tenance
Ġav ail
ĠAl cibiades
fort unate
Ġdistrib ution
Ġanalog y
Ġentit led
S elf
b ene
ig onus
Ġent reat
Th ou
Ġ) ;
Ġfif th
Ġdefe at
Ġprophe ts
5 0
A T
a ur
on ce
Ġb and
Ġp ill
Ġd ance
ur g
if old
od orus
ĠB oth
so cial
com b
Ġstr anger
ĠIs rael
Ġexcl usive
Ġcre ate
Ġmetaphys ical
relig ion
x x
Ġb ig
Ġh o
Ġn ine
op les
Ġle ct
ri an
Ġ1 1
Ġdef ine
Ġprev iously
Ġlive ly
Ġbre ed
Ġappropri ate
Ġv iii
Ġal ien
Ġj u
Ġag r
og en
Ġser ving
Ġdest ro
Ġconv ention
ĠMar ius
Ġsubsist ence
m itting
o et
Ġb i
Ġh ol
Ġim itate
ab led
Ġmost ly
Ġrest s
ĠK nowledge
pass ion
Ġnar r
Ġpret ty
E ng
Ï ĥ
Ġc og
Ġc ook
od a
Ġper ceiving
Ġab use
con cl
be gin
Ġart icles
Ġlangu ages
Ġtend ing
ĠCar th
Ġcell s
Ġpubl ished
Ġeloqu ence
u ated
Ġh arsh
ar ation
.) .
am ation
iv ill
ĠS al
Ġr at
ĠM or
Ġins pired
Ġsus pect
Ġcoun cil
Ġmagn ific
Ġsick ness
pract ical
Ġsuperf lu
Ġaband on
d ome
m ot
v an
Ġc art
Ġcon sec
Ġex ile
to ld
Ġcomm end
Ġeven ing
ĠHe aven
Ġrep ose
Ġrec all
Ġgl orious
Ġexc ited
bo ard
Ġinterpret ation
Ġacknowled ged
' t
A then
f ig
Ġe ating
all ic
ĠE ach
Ġacc um
Ġfar m
Ġdet ect
Ġsil k
Ġvis it
Ġgold en
Ġcompet ition
h am
is en
Ġpl ane
Ġcomp ounds
Ġreg ulated
Ġple ases
Ġmain taining
Ġgra vity
p en
u ation
Ġo pt
at ural
se cond
Ġre verse
Ġre semble
ro b
pp ing
Ġun worthy
so ld
Ġfe ver
ink s
Ġrem ind
ĠV ir
Ġhere after
Ġrepresent s
Ġprov inces
Ġmon archy
iet z
Ġreve aled
Ġproduct ive
Ġdischar ge
ignt y
4 0
p ain
es tern
es pecially
Ġc ord
Ġp p
ug n
Ġbefore hand
pr om
Ġdec ree
Ġrecogn ized
Ġprefer red
Ġprejud ice
Ġtrop ical
Ġth rew
ĠC rit
Ġwill ingly
ign or
Ġpo ly
Ġwr ought
Ġop ened
Ġsc ene
Ġadm its
Ġmon op
Ġmin ister
Ġbo x
Ġpat ri
Ġpleas ing
ĠWhere fore
Ġcapt ain
Ġtrib es
Ġdemonstr ation
Ġancest ors
3 7
C ons
T S
r ich
Ġc her
so le
Ġen light
Ġfl ame
Ġexpress ing
land s
Ġtem ples
des ire
Ġanx ious
ĠProt agoras
ietz sche
O F
he ld
er a
ci le
ous se
ĠP ol
ĠB ible
con v
ĠD r
angu age
Ġce ased
ĠDiv ine
C H
O b
a ver
at um
iv ial
ass us
Ġsens ibility
Ġinter mediate
Ġinterest ing
alth ough
Ġold er
Ġbelie ves
Ġlarge ly
Ġinhabit ant
ĠPl ut
Ġpropri et
it imate
Ġf ro
ot he
Ġst omach
to le
Ġev olution
Ġcont est
ace ae
Ġdes ert
Ġreg ions
pre t
Ġprop ose
Ġdeep ly
Ġtor t
ĠDem etrius
3 9
m ount
Ġo we
Ġs ister
is her
Ġp il
Ġin ex
om ents
em ber
ort unes
ĠF e
ious ness
ru g
Ġrem arks
Ġoff ence
less ly
Ġrep orted
Ġimm ense
Ġbre aking
Ġhy p
Ġdesp ise
Ġinvol ve
Ġaccomp any
Ġaddition al
F irst
Ġc el
id ance
ill us
Ġem bod
Ġpass ive
Ġprom ises
Ġfair ly
Ġfault s
ĠGerm any
Ġrecon cil
G E
L Y
v a
pe lled
Ġse cre
ment ed
Ġgo al
ud ence
ib ilities
Ġhum ble
Ġpur ity
de velop
row s
Ġaccount s
ock ed
Ġsuccess ive
Ġbeh alf
Ġdev oted
Ġmus ical
Ġecon omy
ĠRes em
3 5
m osp
s ays
t reat
in ery
Ġb ark
ar ia
ol ated
Ġall ies
ĠB ra
Ġcons pir
Ġsub t
ĠHe gel
Ġjust ify
Ġhum ility
Ġexp edition
Ġpartic ip
pend ed
Ġcontin ues
ane ously
Ġdev otion
Ġappro ve
Ġdisci ples
Ġur ged
ĠAccording ly
Ġ Â
Ġt ang
an c
al d
im possible
Ġdis agreeable
ĠD E
ib r
Ġcomp act
Ġass urance
Ġpartic les
icult ure
Ġsecond ary
ev ident
Ġreck on
Ġarch itect
oubted ly
U L
Ġ =
Ġf et
ow der
Ġfr ight
res ist
ĠM oral
Ġacc idents
Ġinf inity
ĠAn other
Ġregard ing
Ġdev ice
Ġbelief s
Ġcommun ication
u ary
ĠT ur
au nt
Ġro ots
ĠAs sembly
Ġadd s
Ġdirect ions
rel ations
great est
yl on
Ġassert ion
Ġreject ed
Ġstrict ly
ousse au
Ġs outh
Ġwe ather
Ġv icious
Ġal leg
Ġk ne
Ġmod eration
Ġfort unes
Ġsk illed
Th ose
ĠPro v
Ġconce aled
ĠTr uth
Pro of
Ġrare ly
Ġxx x
ĠSto ics
U M
d one
u a
le e
us ual
Ġse qu
ĠC andide
ong ing
ĠE ss
Ġrec over
Ġdra g
Ġtra ce
plic it
ear th
Ġinform ed
---- ----
Ġmerch ant
Ġconvin ced
p ie
Ġg ymn
il le
per t
for th
Ġpers ist
Ġinf irm
Ġte aches
Ġsc ru
Ġmar ched
redit ary
somet imes
Ġdefe ated
Ġstup id
ĠOpp osite
ĠScot land
univers al
idel ity
S S
it ic
Ġin hab
Ġcon du
all owed
Ġpro dig
res ult
ĠE nd
Ġcont ing
Ġint im
cur ing
ruct ive
ĠWh atever
Ġenjoy ed
reason able
bel ief
appe ars
Ġwithdra w
ĠTest ament
F r
I mp
he tic
Ġd yn
ent ire
Ġre ct
Ġex empt
Ġst opp
Ġv ague
op eration
Ġind icate
eth od
Ġcol ors
Ġansw ers
Ġinflu ences
athe red
Ġmagn itude
Ġamb assad
Ġmir acle
D es
I G
a et
v iously
Ġb ag
Ġbe nd
Ġcon cur
Ġcom ment
ere rs
Ġdis gu
Ġro cks
Ġpract ices
Ġcur iosity
Ġder iv
Ġdistinct ions
Ġcand id
3 8
a igne
m o
Ġcon ve
act ory
Ġrep rodu
Ġchar ged
Ġmo ist
Ġstrong est
Ġlim bs
Ġsk y
fr iend
Ġdivers ity
Ġprud ent
ĠPe ople
iev ous
P e
in ated
Ġc osm
Ġh ill
Ġal le
ĠP ope
ĠO lymp
pl us
ĠW ar
con stit
ĠL iber
ug al
Ġco at
Ġhor iz
Ġfriend ly
ĠFr iends
Ġbes ide
diff erence
Ġbur ied
Ġinn um
Ġdisg ust
_ )
u ang
Ġc aught
ĠA bs
am s
ĠH ipp
ug g
Ġexpect ation
Ġdil ig
P age
T A
Ġ vel
Ġs ins
Ġwe ep
Ġr isk
ĠCh inese
Ġconf er
Ġsur vey
Ġbest ow
Ġess ay
ĠInd eed
Ġsuggest ed
Ġsan ct
isp ens
ĠWor ld
Ġrevel ation
C le
f ive
er ving
Ġst amp
ĠS U
um an
ĠH s
Ġup right
Ġper i
Ġen act
Ġsp ort
Ġsp ake
Ġcl im
sequ ent
Ġdog s
Ġsal vation
Ġtot ally
Ġinstinct s
occ asion
Ġcens ure
ĠDionys ius
Ġhaz ard
g us
s cience
Ġs ter
Ġin herent
al ter
Ġn et
Ġv oy
Ġno b
ide al
te enth
Ġpre tended
uc le
Ġaff ords
Ġsystem atic
Ġopen ly
Ġfav ourable
Ġsum m
Ġattack ed
Ġobserv ations
inde pend
ĠResem bling
] ,
l ic
m aterial
Ġf lying
ou re
al one
ig uous
Ġsh alt
ast ly
Ġper mit
ord ered
Ġdes cribe
Ġprop het
Ġphys i
Ġsw ift
Ġprom ised
Ġneighb ours
Ġburn ing
ĠEth ics
d ent
l in
Ġv oid
Ġr ival
with in
ĠV ery
Ġfail s
necess arily
Ġuncertain ty
Ġdesir ous
ccles iast
ĠÂ £
Ġinnum erable
C o
T Y
m akes
Ġf aint
Ġsu cc
ac l
Ġpl ays
Ġless er
ĠV II
Ġimag in
Ġyoung er
Ġsix ty
Ġcorrupt ed
E m
P oly
Ġfr aud
ol a
um inous
op ter
ĠP ort
ĠE v
Ġcl o
Ġyour selves
form ity
Ġconst ruction
pre p
Ġrespect ing
Ġimag inary
chang ed
H is
u ate
Ġw ax
ur a
ad ig
Ġde eper
ĠC reat
ĠP ri
ĠH igh
Ġmar ine
Ġcomb ining
There fore
Ġquar ters
Ġtum ult
establ ished
" ;
in cre
Ġs itting
is y
Ġh ide
se par
ist ry
ĠM ag
con stitution
Ġen um
me asure
Ġsc ope
Ġcol ony
Ġdiv inity
Ġsince re
Ġstud ied
Ġprom ote
emon str
Ġpat ience
ES S
Ġmass es
Ġprep are
Ġabsurd ity
condition ed
rec ogn
ĠConf ucius
agre ement
S ome
f it
Ġm amm
Ġf ain
ul ent
ci ans
Ġun happy
Ġrem ed
Ġoff spring
Ġmar ry
Ġlay ing
Ġty pes
Ġpros pect
sm all
Ġfab ric
ĠPle asure
k al
u ber
on ent
Ġsh ield
ĠC ast
Ġun willing
og ues
Ġbel oved
ĠCh ina
Ġra il
Ġest imate
Ġco pper
ĠTr ue
Ġconven ient
ĠApoll o
r imin
Ġa esthetic
Ġre le
Ġde ity
Ġpro ves
Ġr ud
ĠP elop
Ġint imate
Ġbr ill
ae ans
Ġprov ision
Ġquant ities
Ġcontrad ict
CLE S
Ġtim ber
c ame
Ġo cean
Ġan aly
ĠS w
ure ly
Ġcomm ission
hy l
Ġrel ate
Ġint ense
Ġthr ust
Ġend less
Ġche ap
Ġbeh avior
ret urn
Ġattempt ed
Ġpost erity
Ġbarbar ous
Ġpict ures
Ġwalk ing
Ġinvest igation
Ġanx iety
p op
re ality
Ġn ose
ĠB l
Ġtr ying
ign ific
Ġacc used
Ġpre y
hen es
Ġrecogn ize
Ġpat ient
philosop hers
Ġcrit ical
Ġhun ger
Z adig
t owards
ate ful
Ġr ash
ĠC ivill
per ception
Ġad ject
Ġinv isible
Ġdet ails
Ġinterest ed
Ġfield s
Ġconqu est
Ġspecul ation
Ġste el
Ġmagist rate
Ġdi am
Ġsuppl ied
ĠHell enes
Ġuneas iness
re str
ig r
Ġr ivers
Ġtr ained
Ġpe oples
olog ist
Ġprof itable
Ġill usion
iet ies
Ġcivil ized
Ġgentle man
Ġpet ty
ĠRel igion
Ġpref erence
import ant
Ġb en
Ġc ove
Ġm ing
Ġwh it
est ial
art s
ne ed
Ġgr ay
Ġpre cip
ip ides
Ġinf antry
Ġend owed
li us
iss ue
Ġoccasion ed
Ġ19 0
occ up
Ġax i
Ġmerch ants
P ROP
a is
it ement
Ġb ade
Ġm aid
Ġpro claim
Ġfe ather
og ic
Ġpre cepts
Ġreg ulate
Ġsim pl
Ġdeg ener
Ġbeh aviour
Ġaccom mod
Ġbur st
ĠAnt igonus
Ġindiff erence
Ġexhib it
Ġpit ch
imag ination
subst ance
elic ity
C a
n ings
t imes
on ius
Ġd ed
ess ed
em en
Ġsh oot
ĠP yrr
pt uous
ĠM ay
ĠE X
Ġpo ll
Ġsim il
Ġdet ail
Ġdoubt less
equ ality
Ġpop ulation
Ġsuppl ies
Ġsuperf icial
concer ning
ĠEpic urus
sever al
stre ng
C ar
E d
c apable
z y
Ġst ages
ĠH ad
el se
Ġrest ored
TE N
Ġpossess ions
Ġvol ume
ilit arian
Ġcontrib ute
Ġmel ancholy
Ġwide ly
ĠJust ice
Ġteacher s
Ġsec ured
Ġobs curity
; âĢĶ
C icero
ro om
os a
Ġat mosp
Ġpro cure
ant ing
Ġun equal
ap es
de v
Ġrest ore
Ġmod el
Ġmod esty
Ġco al
Ġbest owed
Ġoper ate
ann ibal
arm s
Ġalter ation
ĠFl ore
immedi ately
Ġt ent
Ġw aves
es e
Ġp ick
Ġh ung
Ġre ar
ĠI S
qu alities
ab b
ĠE l
oc rit
Ġjust ified
Ġpres upp
wor th
Ġrepresent ing
bit ious
Ġcompan ion
ye ars
Ġconj unction
e nds
f old
f alse
k ed
ot us
Ġex h
Ġexp ortation
Ġshe l
Ġval id
Ġask ing
Ġarg ue
Ġpar as
Ġappro ved
Ġprevent ed
Ġlegis lation
Ġge ometry
abst ract
? --
V ery
d anger
Ġw ounds
Ġm iles
us hing
Ġne arest
Ġres erved
Ġimp ose
Ġrequ est
Ġjudg ing
Ġtemper ate
co h
Ġborrow ed
O ur
m ag
Ġm ix
Ġf oul
al ted
Ġd ata
Ġan nex
Ġcon verted
ant e
ĠM atter
con ceptions
Ġart icle
peci al
Ġorgan ism
Ġanalog ous
B OOK
e h
f urther
Ġp ale
Ġd u
ĠC ath
Ġdo ct
Ġcont empor
Ġchar m
Ġhand le
Ġgu idance
Ġsubst it
Ġbelie ving
do ing
Ġ5 0
Ġdepend ence
ĠRom ulus
hens ive
Ġprincip ally
Ġexper iments
Ġslow ly
Ġabund ance
Ġresour ces
Î ¼
en ough
Ġe lected
Ġg as
ay ing
Ġv ap
op hy
ie ge
ost les
ĠE d
ĠV al
Ch apter
Ġreturn ing
rel ative
Ġcondem n
appear ance
Ġinev itable
V er
b ad
e enth
er o
Ġc ott
Ġm at
le ts
us ively
qu al
Ġch ose
act ive
Ġher bs
Ġent rance
Ġcontr iv
Ġcharacter istics
Ġdr unk
Ġele g
Ġearth ly
under stood
Ġpar liament
Ġpar adox
Ġcent er
Ġeduc ated
Ġeng ine
het ical
ĠHim self
Ġwicked ness
Ġsurpr ise
Ġprivile ges
Ġgard en
Ġspeci ally
) :
I M
Ġp ond
Ġto l
Ġl oses
Ġre cipro
em an
Ġman ifold
Ġle nd
Ġle ather
de cl
Ġinde finite
Ġdeterm ines
Ġabst raction
Ġplay ing
Ġrecogn ise
Ġintrodu ce
Ġcop y
Ġprepar ation
ĠSic ily
p at
p al
er ior
Ġf old
et ies
Ġsh out
Ġwhe at
Ġj uris
Ġi x
form s
de c
Ġval our
Ġpract ically
Ġincl ude
Ġconduct ed
Ġlead ers
Ã¦ st
ĠZ eno
Ġdemand ed
Ġemb race
Ġdimin ish
oz o
Ġtrif ling
mention ed
influ ence
O W
t us
t ra
he res
Ġp ul
ill ing
Ġr ises
Ġpl ural
Ġcons picuous
og ene
Ġnor mal
pro ve
Ġgovern or
Ġrec ent
Ġsmall est
ene ca
Ġgroup s
Ġhurt ful
Ġbul k
Ġarist ocracy
W ater
d oubt
Ġs pl
Ġm oments
ut er
ak ers
Ġper f
ĠM ost
ĠE le
Ġoff icial
Ġright eous
Ġra ge
Ġadm itting
Ġindividual ity
Ġrepresent ations
Ġmo ves
Ġreturn s
ony m
ca uses
Ġdev il
Ġpay ing
nat urally
Ġant agon
jud gment
hens ible
Ġasser ted
Ġdisturb ed
adequ ate
3 2
i eth
ere n
pt ure
un ities
ĠF ortune
Ġpur ple
Ġret ire
Ġcomb at
Ġbro ke
Ġrecogn ition
Ġgrat itude
Ġdefect s
Ġsurpr ised
relig ious
intellect ual
Ġsme ll
b a
b ro
Ġp ier
Ġth ro
le ast
ul ating
iv ol
ĠM er
ex ternal
ex erc
Ġro of
Ġaff lict
Ġincl inations
Ġsign al
Ġav ar
Ġinj ure
Ġrecogn ised
Ġtyr ants
Ġavoid ed
Ġtalk ing
consid erable
Ġfing er
Ġappar atus
Ġs hed
on ia
en emy
Ġh aste
Ġst em
ci ble
Ġun conscious
ort ions
ost henes
ĠN ietzsche
Ġfar mer
Ġconsid ers
ĠV irtue
Ġco ol
Ġeas ier
Ġsign ify
Ġmo le
Ġsum mon
Ġimpro ved
ĠSh all
Ġmach inery
rust ed
Ġsex ual
Ġstat ue
Ġrapid ly
. (
d iction
it ors
Ġm art
Ġp air
Ġan ew
Ġse ize
ci a
ers on
Ġle v
Ġpl ot
ab ove
for ced
ial ect
ink ing
Ġbl ows
Ġro pe
ĠSo ci
Ġcondition ed
Ġdesign s
Ġimpro per
Ġliter ary
Ġdistrib uted
consid ered
intellig ible
i ating
Ġas cribed
iv als
ĠS up
br ing
exp ress
ĠTheb ans
Ġlof ty
D i
_ :
j oice
} ,
Ġw ond
Ġw rest
Ġm icro
Ġin ser
ut ch
Ġg ains
Ġcon vert
os ph
Ġpo em
Ġsur render
Ġcommand er
Ġmeasure d
az e
Ġ18 8
Ġappre ci
Ġsan ction
consequ ently
ispens able
H or
Y et
m ark
Ġ á¼
ĠS aviour
em us
ĠW u
ĠM O
ĠR ousseau
de pend
Ġsubject ed
ĠK ings
Ġfellow s
Ġcompl ain
mist ocles
Ġalt ered
Ġcloud s
ĠGener al
Ġresent ment
v is
Ġw ounded
Ġs cre
ith met
ol t
Ġch ann
el ius
ĠF urther
Ġadd ing
Ġgu ilt
Ġunivers ality
bod ies
Ġtouch ing
Ġaccident al
Ġveget able
Ġenterpr ise
N ature
c ation
u i
er vation
Ġs ale
Ġc ou
Ġin tend
Ġex tern
ort ing
ple asant
Ġcl osed
ex cept
Ġcar riage
Ġappl ies
Ġintr insic
C y
c ular
Ġor ator
ith rid
pe red
un less
Ġsp o
cl ose
Ġimp ed
Ġexp edient
Ġkind red
Ġstr ain
Ġref lected
Ġsuff ers
Ġrec ourse
att rib
app re
Ġfre ed
Ġmem br
.] --
Ġsing ing
Ġincre ases
Ġve h
ias m
Ġcontent ed
Tr ue
Ġtempor ary
Ġfee ble
Ġbenevol ence
A pp
H ell
M EN
g ods
Ġin tegr
ill a
ĠB acon
ign ant
Ġimp ly
Ġra ces
Ġfollow ers
Ġcr iter
att les
end eav
Ġlead er
Ġbo ast
Ġke y
Ġdisp utes
inf inite
Ġaccompl ish
Ġapparent ly
Ġdeliber ate
Ġeld er
Ġtouc hed
3 1
f acult
i ences
m agn
Ġw id
Ġp ardon
as y
ch ance
Ġwe ary
ĠS ec
Ġpro long
Ġpro sec
ĠB ar
ens ed
ĠD est
Ġreason ings
ĠV III
Ġret ired
Ġpract ise
fe ar
Ġprev ailed
Ġfort unate
cont rol
Ġpra ises
ĠPh aed
thought s
Ġod or
proper ty
Ġpatter n
Ġperi ods
4 7
P hil
g iving
en ate
Ġh osp
Ġd ivid
Ġhe reditary
ĠW ord
Ġdis ple
Ġlaw ful
ĠY u
gr at
ĠEur ipides
Ġsitu ations
Ġtal ent
Ġindu ced
Ġaspect s
Ġdwell ing
Ġbeat en
Ġvill age
C al
r un
s um
Ġcon cent
am us
Ġso ber
ag in
Ġfl owing
Ġent ers
Ġfur y
Ġdest iny
Ġindust rial
ĠDo es
ĠPer icles
inst ance
Ġreck oned
Ġolig archy
ĠAust ral
A c
h alf
h istory
l ord
Ġf ib
se ems
Ġl in
Ġl ion
Ġall iance
ĠH on
Ġus ur
Ġar rog
Ġhum our
pro of
Ġdef ense
Ġsubst itute
Ġir rational
Ġtell ing
Ġsitu ated
Ġport ions
name ly
Ġdialect ic
Ġcompr ising
4 6
ic ates
ic ating
Ġbe w
Ġre jo
Ġhe ed
ess ion
Ġex agger
Ġv iv
Ġpro ced
ĠC at
ĠP is
Ġdo ors
ĠF ab
Ġpl enty
Ġent ering
Ġref ined
Ġexam ined
fe llow
IS T
see ing
Ġcrit ic
interest ed
exam ple
Ġbount y
Ġante ced
M en
P LE
g est
Ġa version
in o
Ġb it
ic ide
Ġg erm
Ġk not
ie ving
ĠO ff
Ġdis appro
ĠM ad
Ġqu oted
Ġag ency
Ġfe ast
other wise
ĠR uss
Ġcl ergy
Ġext racted
ĠY our
Ġang le
exp ression
regard ed
intellig ence
ĠDi ogenes
4 8
re ck
Ġre tained
Ġha m
ac ities
ĠW as
Ġevery one
Ġpo le
Ġstr ive
Ġext inct
Ġx i
Ġcustom ary
Ġorgan ized
resp ons
val ue
Ġremem bered
philosop h
Ġmeant ime
Pr ot
ĠCr assus
Ġmill ion
ĠSol on
h ist
Ġt ale
ad el
Ġst uff
os om
Ġv ener
ĠP ass
ĠE u
ount ain
Ġher b
Ġyour s
Ġtrans lation
Ġdraw s
my self
ĠKing dome
Ġpred omin
connect ed
har mon
A C
f reedom
l oss
p in
re ceived
an a
ic ing
st ud
ĠC ourt
Ġal coh
ĠE r
Ġunder go
int ed
Ġbr others
Ġthr one
pr ot
Ġaw aken
Ġappear ing
Ġdeterm inate
Ġaffect s
Ġir rit
Ġhar b
Ġhouse hold
ipp ing
ĠPr ince
S em
b all
d ish
m es
m ove
m otion
Ġm ines
ĠT ra
Ġcon cepts
Ġwe aken
ĠS aint
Ġse as
Ġv ine
art es
ĠG al
Ġad j
we ed
Ġra p
Ġed ition
Ġones elf
Ġrestr aint
Ġpersu asion
IL L
Ġvers ed
Ġlik eness
r um
or ned
id a
ĠA ng
um ed
all en
Ġal kal
ĠM us
of t
ru ly
Ġexp enses
Ġser iously
Ġext ingu
att empt
ec hes
Ġwis er
Ġfirm ly
Ġgentle men
Ġprison ers
Ġdread ful
Ġinher it
Ġfeature s
ĠSpan ish
deg ree
sold iers
Ġnob ility
s es
u um
Ġo st
Ġp ressed
Ġg ates
ĠP op
ĠB et
Ġun expected
Ġag greg
Ġconf ine
Ġaff air
ont aigne
Ġvol untarily
Ġwood s
Ġyield ing
Ġseason s
Ġglo be
Ġrhy th
m ult
n y
u zz
v iol
Î »
re ally
at ical
Ġto il
il ia
ill ity
Ġsub du
Ġdiff ers
Ġinf all
Ġrep ent
ĠJ er
Ġeffect ive
Ġlast ing
br ance
ĠAr cad
Ġsupport ing
Ġerr one
Ġmyst ery
Ġemotion al
Ġshru b
Ġtechn ical
L acedaemon
S tr
c rit
re nd
Ġb id
Ġf f
Ġst ore
our ing
ĠP olit
ĠH erm
un ken
ĠG re
ress ing
Ġunder take
com par
Ġsc orn
Ġeffect ed
Ġins ide
Ġlast ly
Ġfin ished
Ġtend encies
ĠPr inci
Ġmanifest ation
ĠPers ian
Ġaband oned
Ġshru bs
Ġtraged y
a wn
h igh
in er
Ġb on
en us
Ġf ol
Ġbe fall
ĠS on
Ġtr ades
ip h
Ġart ic
man ifest
ail ing
Ġcor poreal
Ġwork ed
Ġsur plus
app oint
Ġsuper natural
ĠTr ans
Ġsurr ounded
ĠPyth agoras
E nd
U C
a uls
g reen
at ible
Ġc ard
Ġm ob
Ġl ately
ant ine
Ġal arm
ac he
Ġtr ivial
ĠH app
Ġper ceives
Ġen orm
Ġen abled
Ġcont end
sh ort
Ġ2 2
Ġinter ior
Ġdest itute
Ġdesp ised
LI CLES
Ġtrou bled
CAL LICLES
u ing
v irt
as se
Ġbe ll
Ġe ast
Ġre action
Ġper sec
Ġnor thern
Ġadv ancing
Ġlo vers
Ġph ot
Ġann oy
ĠZ eus
Ġban ished
ĠSpart an
Ġcommod ity
Ġstro ke
ĠFriends hip
ithrid ates
4 5
4 9
? âĢĶ
M ENT
R om
c ast
r ot
Ġa ven
ar ius
qu ality
Ġpro verb
ĠP rodu
ĠH annibal
Ġdis miss
ĠG org
Ġpra ised
Ã¦ s
Ġsymp ath
ĠHer cules
Ġpray ers
Ġinconsist ent
N on
l iter
Ġt issue
en c
Ġp in
Ġp ages
Ġwh oles
Ġor acle
um ber
ĠC ass
Ġpr ize
Ġcomp ose
Ġins ist
Ġvar iation
Ġgu ided
Ġphys icians
Ġce ases
cript ions
comp an
say ing
Ġtri angle
serv ice
Ġrespons ible
Ġagr iculture
] .
s pect
u ition
w hel
Î ·
in j
in vol
ot ted
ent er
ut or
am y
qu in
ol is
ak eth
ous ed
Ġun fortunate
ĠD id
Ġevery body
Ġobject ions
Ġexp ose
ird ly
Ġemploy ments
Ġinj ured
Ġoccup y
Ġrender ing
Se a
Ġillust ration
Ġsacrific ed
Ġinterv als
C ol
b ound
i ents
} .
Ġt ie
es se
Ġg athered
Ġas cribe
ĠS m
ĠC re
Ġany where
ke y
Ġqu ot
Ġimp at
Ġfl att
Ġdisc ourses
Ġcar bon
cur gus
br id
Ġdec or
Ġinc red
Ġhands ome
idd ing
leg is
Ġspect ator
Ġcomprehend ed
ĠEm peror
Ġcompass ion
Ġjealous y
bea utiful
Ġworsh ipped
B LE
R el
e a
g row
l oc
m orrow
the ism
em pir
Ġsub sequent
Ġres c
ph a
pro duct
tern ational
Ġ2 1
Ġfact ors
Ġmod est
Ġru ined
you ng
bel ong
Ġrestr ain
Ġvig or
Ġsignific ant
Ġfier ce
S w
c ivil
m oment
w ort
Ġ âĢĻ
Ġt ur
ur rection
Ġhe m
Ġwe l
Ġst able
os h
ĠS overe
iff erent
ang led
for ward
Ġpre cept
ex cell
Ġperson ality
man kind
Ġsubject ion
adv ent
Ġtreat ing
Ġhor ror
Ġfun eral
Ġmyst eries
Ġgar ment
ĠAfric an
Ġconvey ed
ĠNever theless
Ġshel ter
h ind
w he
Ġf oss
ar ant
le ad
and ed
Ġbut ter
ĠM art
Ġli ps
Ġfe ud
Ġrel ax
Ġoff ers
Ġca res
ĠV er
app ointed
Ġpain ting
ret ion
Ġvol ition
Ġke en
Ġdeser ved
might y
bus iness
lear ned
ĠBel onging
liber ty
Ġcontrovers y
g overn
k er
w oman
Ġt ables
on ian
Ġp age
an ing
Ġn erves
Ġis olated
im al
Ġsh ock
Ġcom pos
ĠH el
un ciation
ab ylon
Ġam bitious
Ġrep et
ph or
Ġac ute
Ġdest ined
Ġcommer cial
Ġindu ce
possess ion
consider ation
Ġfan cies
Ġmisf ortunes
educ ation
ĠLys ander
C ON
R et
r ating
v i
it ations
th rop
ous ness
Ġno bles
ag raph
con ceived
Ġsub mission
Ġoff ering
Ġsuff ice
Ġsc attered
Ġvar ied
certain ly
Ġendeav ours
Ġtot ality
Ġconvers ion
Ġaccur ate
Ġhunt ing
- **:
d ata
r ough
Ï ħ
Ġ il
Ġt ub
Ġb ought
en joy
es y
ed ge
Ġn erv
Ġre ce
Ġan ch
th ou
Ġex tends
ge ance
og ical
ĠR h
Ġdes cent
Ġass ault
Ġvar iations
Ġfore going
Ġlear nt
Ġleg itimate
appe ared
Ġfool s
ĠPer haps
Ġfif teen
Ġphilosoph ic
Ġtre acher
last ing
Ġconfirm ed
Ġimpart ial
Ġcontinu ance
Ġextravag ant
Ġtang ible
! âĢĶ
l anguage
n ial
n icious
s il
Ġre aches
Ġg ate
os er
ĠW ere
be yond
ber ry
Ġappe nd
ten ess
Ġtrans gress
Ġcap it
Ġexpl o
igh th
ĠCon tr
THE R
Ġund oubtedly
fort une
ĠLaw es
AR T
polit ical
Ġsuperflu ous
he ment
Ġu l
ĠT ime
ig uity
os o
qu et
Ġv otes
Ġk iss
per ate
Ġthan k
Ġthan ks
Ġrel atively
Ġprop ag
Ġaccount ed
Ġimport ation
ĠInd ians
Ġconcl uded
Ġextend ing
origin al
Ġdece it
Ġnobl est
Ġcel estial
m oney
r an
ed er
Ġf iction
ic ations
Ġre wards
ur ches
Ġfor s
ĠS cience
em in
Ġv ivid
ĠP o
Ġdis like
ĠM AN
Ġpl under
cess ion
Ġem an
Ġconst ancy
Ġ4 8
Ġlo ving
Ġmin isters
ĠRe g
Ġresembl es
Ġexcl ude
Ġenc ourage
ĠSe condly
phys ical
ĠLuc ullus
A g
H ence
R ec
c ustom
d et
f aith
l ab
r ig
Ġw est
er ke
Ġh ook
Ġth under
ot ent
st ates
ĠC am
ri er
Ġcomm ence
ang ed
Ġimp r
Ġoff ensive
Ġend ed
Ġmet allic
Ġver bal
Ġweak er
Ġann ihil
plic ated
Ġtempor al
Ġfing ers
f lu
i arly
t emper
Ġs aints
Ġp ious
om ed
ad y
Ġsu ited
Ġtr ick
Ġun natural
Ġun usual
Ġcont ents
bl er
Ġgr amm
Ġcl ay
Ġfl av
Ġmor ally
Ġwork men
Ġins piration
Ġsign ifies
Ġexpl icit
Ġfac es
spe aking
ĠMar cus
Ġprofess ed
Ġinse parable
ĠChar les
Ġerect ed
Ġmonop oly
Ġatmosp here
5 5
P OL
f erence
on nes
it he
Ġc unning
Ġm ock
Ġp owder
ot er
Ġre joice
th ren
ac ent
ĠH ave
Ġim plied
pl ain
Ġus age
Ġdisc retion
Ġwar like
Ġval idity
Ġinter val
Ġins ignific
Ġpain t
Ġlab oure
Ġrul ing
Ġsend ing
answ er
Ġsplend id
begin ning
F ore
e ur
in it
Ġs or
ir ies
ĠT ending
ill es
ol ve
Ġr ation
ĠC ong
ĠC OM
ĠH en
ĠH or
ĠH istory
un to
te xt
Ġem peror
ĠCh apter
Ġca ution
Ġaw ake
Ġthousand s
Ġeff icient
Ġrelations hip
Ġfurn iture
aff airs
lim ited
Ġprejud ices
Ġabund ant
Ġfulf il
Ġforbid den
Ġproced ure
b ow
d iss
f ight
f ield
t em
he aded
in tend
in oz
Ġs aint
Ġf idelity
an ias
Ġh oney
os pel
ie ves
Ġch amber
pl aces
ĠL it
ult iv
ĠIt alian
Ġworld s
Ġval ued
Ġsubst antial
Ġtra g
Ġpassion ate
Ġwind ow
change able
Ġvig orous
Ġach ieved
Ġrig id
bu ild
6 0
P HA
S he
b an
d emonstr
i pt
w ind
Ġw ard
id able
Ġab ilities
ap se
Ġsupp oses
Ġthr owing
Ġdisc ord
ĠV ar
Ġco inc
Ġcivil ization
IT H
ĠJew ish
Ġsymbol s
Ġlad y
Ġspont aneous
etern al
Ġcontriv ance
Ġavar ice
m ir
as soci
ĠI X
cl osed
Ġbl ock
Ġseem ing
Ġadv ise
Ġdem ocratic
Ġmain ly
ell us
Ġconsist ed
ĠRe volution
Ġhabit ual
pass ions
Ġexcl uded
ole on
Ġdeser ves
Ġaffirm ed
nes se
Ġsafe ly
Ġax is
Ġdig est
Ġstead y
ĠCreat or
streng th
m other
es p
Ġto w
Ġwe e
qu ar
Ġman age
Ġsh op
Ġ. ..
Ġob taining
so on
ish ness
Ġind ispensable
Ġwhere with
Ġref uge
att ention
Ġallow ing
Ġmetaphys ics
ĠPe ace
Ġvoy age
ĠSup reme
d ro
l atter
en a
or ge
om uch
il ful
Ġex er
qu er
em ies
ra cus
ci o
ĠW ould
Ġad ult
Ġcons uls
Ġover throw
Ġpublic ly
Ġcomple ted
Ġback ward
Ġcommand ers
mat he
ĠUn ivers
Ġendeav or
Con f
Ġwind s
Ġpred icate
Ġrevol utions
Ġassum ption
ĠSomet hing
Ġtheore tical
ivol ous
Ã¦s ar
g ments
o be
p sych
s ed
on ents
al us
Ġbe get
ĠT wo
Ġst eal
ra ft
ĠW H
ĠM el
act s
Ġqu it
Ġoff end
Ġstr ing
Ġadm ired
Ġmain tains
Ġtemper ature
ER S
ĠWill iam
Ġtroubles ome
Ġsulph ur
M ore
a ired
c ence
l ers
w isdom
x im
he alth
Ġl osing
Ġfor bear
il iar
ol id
Ġr am
ie l
Ġdis d
Ġpl ans
bl ood
fe it
Ġut tered
Ġinj urious
inst inct
ĠHer acl
Ġinse ct
Ġstart ing
Ġclot hing
Ġregul ations
Ġsym pt
ĠPlut arch
E th
S ince
i ently
en ch
Ġm ood
Ġp ound
ĠA c
ĠA uthority
ĠD uke
oy al
Ġfl ood
Ġprodu cts
Ġopp ress
Ġinv ited
Ġcommand ing
Ġmag ic
Ġallow s
Ġver b
Ġpursu its
after wards
oe ot
Ġcapt ains
Ġcollect ively
ĠÃ Ĩ
Ġvig our
wr ong
Ġencoura ged
Ġceremon ies
ĠIDE AS
MEN O
L L
Ġt ast
Ġf als
Ġl aughter
ĠA cad
od ies
ĠS il
ĠTh ings
Ġsp are
Ġbr ute
Ġrep ugn
Ġexpress ly
Ġpossess ing
Ġcur ve
Ġexc itement
reason ing
Ġsus pected
Ġpsych ological
Ġult imately
ĠCons isting
phenomen a
cclesiast ical
Ġbrill iant
d ict
p red
w s
Ġd rug
Ġwh ither
Ġfr amed
ĠC he
ĠO R
ri ages
su perior
Ġnow here
ph i
ph ic
Ġsc ul
Ġpres cribed
Ġpract ised
Ġrespect ive
igh ter
cont ro
Ġsecret ly
Ġpron ounce
ĠOther s
difficult y
Ġelev ated
Ġnomin al
Ġclo ak
N ote
` `
g ives
p ure
Ġs tern
Ġp omp
Ġd on
Ġwe ig
Ġv o
Ġun its
ĠG ent
Ġj est
ĠE arth
bl eness
ru le
Ġra v
Ġsim ult
omen es
Ġappl icable
Ġdest ructive
Ġden ial
Ġbenef icial
Ġcateg ory
Ġsynthe tical
âĢĲâĢĲâĢĲâĢĲâĢĲâĢĲâĢĲâĢĲ âĢĲâĢĲâĢĲâĢĲâĢĲâĢĲâĢĲâĢĲ
Ġlin en
POL US
C an
al most
Ġhe ll
Ġv est
Ġsh ade
ĠB Y
Ġwor m
Ġdis positions
Ġfl ux
Ġfact or
Ġins pire
Ġstand ards
know ing
Ġ4 9
ell ow
Ġneg lig
Ġdistingu ishing
spe cies
Ġdimin ished
Ġentertain ed
determ ined
ĠVen us
ĠSomet imes
Ġamuse ment
PHA ED
5 6
W ill
g one
g ave
m ic
Ġt enth
ce tic
op l
ag an
not ion
here nce
Ġhon ors
Ġspeak er
Ġsever ity
Ġ4 7
Ġstud ent
Ġneg ation
Ġeng ra
Ġfig ur
Ġwa iting
Ġtransp arent
Ġconstruct ed
N E
f ast
i ency
s ided
Ġw et
Ġb at
Ġp ipe
Ġcon ver
ĠA rab
ore r
ĠC oun
ĠP an
Ġper nicious
ry ing
ex c
Ġinf ect
Ġel abor
Ġmin or
Ġpra g
Ġclear ness
Ġconv ince
Ġinvol ving
Ġexhib ited
look ed
tole my
Ã¦st hetic
A ss
O G
P P
R US
b ri
h undred
Ġt ar
Ġw ider
.) ;
est eem
ĠP RO
Ġim plicit
pl ed
ĠL oc
Ġind icated
be comes
ru c
sh ow
Ġhon esty
eng ers
Ġassoci ate
Ġhonor able
Ġdefin itions
Ġdepart ed
Ġcompan ies
Ġcompe l
Ġinstruct ed
Ġsurr ound
ĠChar acter
Ġpup ils
Ġrespons ibility
Ġremo val
Ġdram atic
D el
g od
p ical
r ul
u ble
x ious
Ġt ract
Ġp ays
ĠT itus
ay ed
us ually
pe ace
Ġme al
ĠL iv
wh y
Ġform ula
Ġher oes
ĠCh rys
Ġnecess aries
Ġsc ales
Ġdoub ts
gg ests
ĠX XX
itu ated
Ġcomb ine
Ġinfer red
lex ible
Ġod d
Ġsyll ogism
Ġpresum ption
Ġtransl ated
Su per
Ġconject ure
Ġsev enty
ĠAbs olute
ĠSoci ety
5 7
N ever
S pe
b ird
Ġh ills
Ġhe d
th ird
ter m
Ġfr ank
ĠS uppose
Ġun avoid
av id
ĠL at
Ġrel ieve
Ġint ol
Ġgener ations
Ġdisc er
Ġshe lls
Ġansw ering
Ġresult ing
cell us
fer red
Ġbes ie
supp osed
Com p
Ġafford ed
sch ool
Ġnerv ous
P rop
o is
Ġt all
Ġs ap
Ġs iege
Ġm old
Ġf ung
im a
Ġu g
ol ate
Ġso f
Ġr h
ĠO d
ans hip
ĠW isdom
Ġind ignation
Ġ1 00
Ġdiff ering
Ġapp lying
Ġfound ations
Ġshe pher
Ġgover ning
Ġhon oured
str ous
Ġmus cles
ĠBe fore
Ġdecl ine
az us
Ġinj uries
augh ters
ĠLe g
Ġsuggest ion
Ġdimin ution
matter s
OU R
Ġweap ons
Ġmagnific ent
c ases
d ing
f ire
r ain
Ġp ack
Ġd uly
st ra
ent ive
Ġl uck
us k
ist ence
ist ical
Ġv ic
ĠP eter
Ġch lor
Ġun necessary
ĠO nce
Ġdis pose
Ġown er
ia e
com position
Ġexp ans
Ġcor p
Ġadv ised
cont empl
Ġrul ed
Ġver te
cret ion
Ġann ually
Ġoccur red
Ġgar rison
satisf action
fam ily
Ġenthus iasm
ĠCath olic
Ġcriter ion
A cc
D ec
l iv
s in
s ix
Ġb ath
Ġf able
Ġin equality
Ġh ated
Ġth ine
le ment
le ft
Ġsu ck
Ġch a
act or
Ġbr ut
Ġro ll
Ġext ract
Ġrec ur
Ġcontr asted
alt ies
Ġbur nt
Ġmist akes
Ġtit les
Ġmal ice
Ġattend ing
Ġslight ly
disc over
Ġappet ites
ĠLy curgus
mor ality
Ġsolit ary
Ġexhaust ed
pie ce
inoz a
P hilosop
Q U
l est
u er
in ally
Ġs outhern
om on
st ru
st ep
ur all
Ġfe aring
Ġres erve
." ]
cre ation
Ġro d
Ġless on
ĠSt ill
Ġstreng then
Ġbenef ic
Re ason
Ġexcl usively
hand s
Ġdiscuss ed
ĠPers ians
const ant
Ġpron ounced
Ġindul gence
arg ument
ĠEmp ire
' ,
A M
S al
a uthor
d ue
Î º
ou is
ar a
Ġg alle
ĠT iber
Ġwe igh
Ġst y
Ġpro c
ĠP aus
ĠB OOK
Ġcons olation
Ġfl ag
Ġsoci eties
Ġappro aching
Ġdecl aration
Ġsus ceptible
Ġcryst als
Ġmechan ism
Ġillust rious
Ġalt ru
Ġdedu ced
div ine
wr itten
Ġpunish ments
Ide a
ĠComp are
Ġdeem ed
ocrit us
Ġannex ed
S ch
S te
p it
v able
Ġha w
ĠI d
the s
ill ation
Ġr ust
Ġpr ime
el le
ĠM ade
ap hor
ass ert
cer ning
ĠY ork
Ġland lord
Ġbelong ed
sy mp
Ġden omin
Ġbar ren
mat ism
sp ace
St ate
Ġactual ity
Ġdiscover ies
Ġdep ra
Ġlack ing
Ġhistor ian
Ġtu be
Ġaug ment
Ġsolit ude
Ġambassad ors
Ġcove t
Ġfeather s
5 9
B J
B ST
r ad
Ġo v
Ġw ishing
Ġs ag
Ġb oot
Ġc ert
Ġp ap
Ġn ucle
Ġas ks
ĠI mp
qu iet
ĠThe mistocles
Ġse ction
Ġde x
Ġme ets
Ġup wards
ĠM ount
Ġad ul
ne ighb
Ġgr an
hes es
Ġra ises
Ġref ers
Ġcountry men
Ġrelig ions
Ġsign ified
cur y
Ġve hement
Ġstates man
Ġexec uted
Ġcompre hension
Ġattain ment
Ġge omet
Ġentertain ment
Ġsurr ounding
Not hing
Ġwand ering
c ut
l iving
Ġs aving
Ġc ured
Ġm ast
ĠThe ss
um ble
Ġr om
oc ation
Ġspe eches
pro cess
Ġnecess ities
Ġcol umn
Ġcontin ent
dis ci
Ġacqu isition
arm y
yl ind
Ġrestr icted
ĠSe a
cle ar
Ġcontempt ible
lar ge
Ġconven ience
entire ly
s ort
Ġc ab
Ġh it
Ġre bell
ul ates
ĠThe bes
ble m
ol at
em n
Ġr ib
ĠB oeot
Ġch ron
Ġun s
Ġcont racted
Ġsens itive
Ġeffect ual
Ġwis est
ĠCon taining
Ġbus y
Ġ17 7
spe cul
Ġyield s
Ġtrib unes
Ġexceed ingly
ĠRep resent
Ġbread th
TU RE
Ġcoward ice
lev ant
Ġegg s
hig her
5 8
c ogn
e an
p ires
he lp
re ne
Ġm ould
Ġf o
Ġf elicity
ig ue
um m
ac it
ĠP ract
be aring
Ġacc use
Ġover whel
Ġfact ion
Ġgl ance
Ġstre et
Ġ4 6
uls ive
pass ed
yl us
Ġsix th
Ġant it
Ġbuild ings
Ġcommun icate
Ġdelight ed
Ġbless ings
Ġdemonstr ate
Se condly
pur su
Ġprison er
Ġwitness es
ĠComm ons
Ġisland s
Ġrecord ed
Ġinev itably
Ġvary ing
Ġtranqu illity
c ourage
l ay
p est
w omen
an imate
ar c
Ġd ies
il ine
Ġex alted
ge nd
ac us
un ately
Ġdis orders
ĠTh ought
su ggest
Ġser pent
Ġtrans cend
Ġemploy ing
Ġproceed ings
ĠCon sequently
Ġdesp otism
perfect ion
comp are
Ġguard ian
supp ose
Ġban ks
Ġhop ed
Ġdemonstr ated
Ġcollect ive
Ġcav ity
div ision
opin ions
Ġprepar ing
Ġremo ving
Ġweap on
tw enty
f ts
l ock
p he
p ing
t ion
y ear
Ġs ke
Ġb attles
en ger
Ġl amp
Ġl ung
ĠP al
ĠP res
Ġdo c
ĠM al
ĠF aith
Ġpl acing
ĠD isc
ru it
Ġdist rust
Ġdifferent ly
lat ors
Ġstre ets
Ġcare less
RA N
ĠCon stitution
Ġeff icacy
pers u
ĠCa ius
Ġsus pended
Ġexec utive
Ġmathe matic
sens ible
consequ ences
Ġcircul ation
I r
d og
l ived
u an
in ement
er ical
is then
Ġp eren
an ic
Ġh al
Ġre aching
ac cept
Ġup ward
ĠO ct
Ġsa ge
Ġbr ass
Ġreg ret
Ġchar ges
Ġra b
Ġdr unken
Ġut ilitarian
Ġtreat y
ruct ed
Ġendeav oured
Ġcolor less
Ġdeb ts
Ġresol ve
Ġtrust ed
Ġplan ets
Ġmut ually
Ġcamp aign
Ġrev iew
person al
Ġstim ulus
Ġbond s
Ġflatter y
compre hensible
Ġembra ced
Ġcalam ity
aet etus
Ġremed ies
ĠPyrr hus
ogene ous
Ġp hil
Ġf itting
Ġd ancing
om at
Ġhe ars
ĠS l
Ġne ut
ight s
ĠB ody
Ġar rest
act ivity
oc ity
Ġhimself e
pre v
Ġcap acities
ae a
Ġserv ile
Ġlo ad
Ġpriv ately
amp ed
Ġfac ility
Ġoccup ations
Ġattack s
Ġmyst ical
Ġda wn
Ġdeliber ation
sim ple
Ġtradition al
Ġconstitu ent
Ġtheat re
Ġcott on
PHAED RUS
8 8
B esides
S k
g age
he aven
Ġc ylind
om ination
Ġg irl
if ted
Ġse lected
Ġman aged
un ge
ud ent
Ġar ithmet
ĠF OR
Ġen ables
Ġag ents
ĠR em
Ġown ers
Ġint ensity
Ġimp ious
urn ished
Ġte ar
Ġte le
Ġworld ly
ser ve
Ġequ ip
Ġlight s
Ġrequ iring
Ġwant on
gr and
ĠAr atus
ĠPh oc
Ġmagn etic
Ġprim arily
philosop her
opp ort
long er
never theless
sens es
Ġgrat ify
Ġinflict ed
Ġingen ious
Ġrepet ition
B ar
T ra
Ġa qu
Ġs ir
Ġto ler
Ġre comp
Ġas leep
Ġhe ter
ol f
um s
Ġen sl
ĠN ote
ĠN atural
Ġoff ended
Ġdef icient
Ġcor ner
Ġadm on
Ġcirc ular
ĠAt t
Ġsle w
stit utions
An other
interest s
Ġopport unities
Ġeat en
Ġdedu ction
Ġextrem es
rac use
Ġprint ed
obl ig
Ġjuris diction
Ġinsignific ant
P le
d ire
d ays
m ber
v ii
he ard
on ists
is er
al ism
Ġn ick
ow l
ĠT ake
Ġfor b
et te
ess ential
Ġfr ivolous
ol ite
ĠS oul
Ġse al
Ġde als
Ġsh ared
Ġsh oes
ach ment
Ġunder taking
Ġsc r
Ġvar ieties
Ġview ed
dis p
Ch ar
Ġsw ords
AN D
des p
Ġunt r
ext ra
Ġ18 7
Ġpreser ving
mind s
Ġdeb au
imm ing
car ried
Ġmir ror
Ġpal m
ĠSpart ans
hor se
follow ing
friends hip
Ġaud ience
ĠAch aeans
ĠSat urn
Ca esar
ĠDest itute
A Y
C at
c ision
g il
g race
m its
w ent
w ant
Ġt ed
Ġd aring
Ġre in
Ġst ories
Ġpro se
Ġthem e
pl ess
ue en
be coming
ĠR ead
de em
ob edience
Ġopp osing
Ġins ens
Ġworth less
EN CE
ĠQ uality
Ġmist ress
Ġasser ts
Ġsuffer ings
cor respond
Ġcorrespond ence
Ġsweet ness
Ġdepart ure
ĠGr ote
Ġsex es
heart ed
Ġschol ars
bea uty
anth rop
Ġbrid ge
Ġgymn astic
Ġinherit ance
ĠSovere ign
Ġfoss il
4 4
I ll
t akes
u v
Ġh ole
Ġd inner
Ġst iff
ĠS upp
em b
ud ge
Ġob viously
Ġsp oil
Ġform idable
Ġimp reg
Ġreg ulation
Ġconf ident
Ġcr ust
Ġcirc uit
oph anes
ĠPro f
Ġneighb or
Ġcultiv ate
ref lection
met aphys
Ġassum es
Ġconfess ed
ĠAd am
ĠPers on
Ġconform able
Ġdam age
immedi ate
Arist otle
Ġchap ters
Ġindirect ly
Ġordin arily
Ġthro at
ĠFab ius
G erm
S to
f ly
he ts
in str
at ched
it ur
Ġc rop
ce t
Ġsu ggests
ĠC Ã¦sar
vers ed
ond e
Ġmod ification
Ġcle ver
Ġprov idence
Ġexpl ains
Ġenc ounter
Ġsymp athetic
eas ily
follow s
Ġencoura gement
priv ate
pop ular
ĠGorg ias
P ers
n ut
Ġa we
is ons
it ates
Ġh all
se ason
Ġre now
il ib
ĠS P
ĠS ituated
ĠC o
Ġk in
Ġim possibility
ĠM em
ĠG auls
Ġad orn
Ġsp ots
ĠN ic
Ġinf ancy
Ġca ut
Ġanim ated
Ġconsequ ent
Ġphys ic
Ġche st
Ġbre ach
Ġsepar ately
Ġph ase
Ġwood en
Ġmagn et
Ġtor ment
thr own
inst ead
col ored
Ġreflect ions
Ġpret ence
dest roy
ĠGl au
ester day
Ġdyn am
Ġalle ged
Ġtrag ic
E ven
P al
Ġ ÏĦ
on om
on se
Ġb ab
Ġc ourses
Ġp or
Ġe cclesiastical
st e
Ġl aud
im us
Ġor th
ow ered
ĠI r
ĠC ret
ĠH oll
Ġdis aster
Ġper il
Ġkind ly
Ġhapp ily
Ġass imil
Ġmod ified
Ġdet est
," [
Ġunderstand s
Ġperform ing
Ġpop ul
gener ally
Ġdisci ple
Ġpreced ed
Ġgrad ual
Ġing red
Ġhypot hetical
Ġfle e
Ġalt ar
Ġenlar ged
absolute ly
Ġelectric ity
Ġlegisl ative
Ġster ling
Ġveh icle
Ġsof ten
P ost
f uture
r ations
v y
v ice
or i
Ġf ut
ar row
Ġg est
Ġas hes
am en
op es
ĠP ubl
Ġdo st
Ġch ains
Ġch allen
Ġab rid
Ġpl aus
pro ved
Ġbl amed
fe w
Ġprev ails
Ġdoub ted
Ġtra ve
Ġmer its
do ctrine
Ġviol ation
Ġconce iving
Ġbreak s
Ġunf it
Ġbare ly
Ġinnoc ence
Ġmyth ology
Ġsong s
Ġenqu iry
Ġrecol lect
Ġdescrib es
ĠProdu cing
N D
c at
m ut
y gen
Ġc ree
Ġf ant
Ġn erve
Ġl ink
ĠH ind
ard ed
Ġdis advantage
ish able
Ġind ig
Ġstate ments
pro gress
ond s
rib ution
cer ity
Ġsl ip
Ġ3 1
Ġpain ted
wor m
uous ly
Ġoccasion ally
ĠDe ath
ĠSy racus
Ġamount s
ĠAp ostles
Ġunjust ly
Ġreve al
Ġspect acle
Ġkill ing
Ġindul ge
obser ved
Ġfert ile
ĠCarth agin
advent ure
Ġanch or
ĠHen ry
A ccording
m ethod
p ence
Ġb order
Ġp ine
an al
ess ence
ad o
Ġex pend
Ġex position
and al
op ing
ĠP HIL
ĠP aine
ĠH ob
pl aced
con ceive
Ġpl ates
we ak
Ġdes iring
cept ive
Ġcl ub
ex pect
ond as
Ġsm oke
Ġcontr ived
ck ed
Ġele vation
dis position
Ġsatisf actory
Ġoblig ations
az ed
Ġindepend ently
Ġintrodu ction
Ġtrib un
Ġdefend ed
contin ued
Ġneighbour hood
produ ce
Ġlaug hed
Ġconsec rated
isthen es
D ist
E ss
r ass
x es
Ġo mitted
or se
al ks
ar ise
ut en
ut eness
ĠT ar
ra cies
est ant
per ceived
ment al
ag ore
ag ues
ĠM ex
ĠM ontaigne
ness es
oc y
ex cl
Ġobject ivity
Ġcomp aring
Ġsupp er
pr on
Ġequ ity
Ġlight ly
Ġess ences
ĠAt l
Ġsun k
dist inction
rog ative
Ġrestr ained
ĠDem osthenes
Ġquiet ly
Ġpoison ous
Ġqual ified
Ġindic ating
ĠMacedon ians
" --
E ur
H aving
R IN
a em
d ed
l ives
r im
s pir
z o
z ing
á ¿
Ġo re
Ġw ave
er ated
at eness
it is
it ig
Ġm ature
Ġl ays
Ġg ay
ĠT HAT
am ous
âĢ ¦
Ġsh ot
ĠH uman
ĠD ist
ok ing
ĠPlat onic
certain ty
Ġmult ip
Ġdelight s
jo in
Ġearli est
Ġomn ip
ĠTs ze
Ġju ice
Ġenlight ened
Ġsimil arly
empir ical
M P
h au
o of
w onder
Å ĵ
Ġwe aring
am ount
Ġpro posal
Ġun cle
ost le
we et
Ġshould ers
Ġbel ly
Ġcle arer
Ġstand point
oun cing
no ble
Ġabst ain
acc o
Ġcomb inations
Ġinvol untary
Ġsen ators
Ġbless ing
Ġorn amental
feel ings
Ġincor por
sing le
Ġtransfer red
Ġnit rogen
Ġerrone ous
8 0
A meric
F e
S m
a ft
is is
it ous
Ġm oll
Ġm atch
Ġh int
se a
Ġl ime
Ġl az
Ġre ception
Ġst eep
Ġv ow
Ġat taining
ri ans
ĠM ill
ace a
ress ions
Ġam iss
Ġint entions
Ġapp le
Ġfl ies
Ġshall ow
ĠCh i
Ġest ates
Ġco ff
Ġlar gest
wor ks
Ġacqu iring
Ġbre thren
Ġarr ange
Ġx iii
Ġsol ic
Ġsol idity
Ġappro aches
Ġeduc ational
Ġremain der
Ġredu cing
Ġstri p
urb ed
exist ing
hon our
supp ort
Ġcompre hensive
add le
Ġfulf illed
Ġexert ion
Ġcalam ities
Ġfest ival
Ġalcoh ol
Ġenorm ous
f und
o i
re land
Ġw ander
on a
Ġc iv
Ġm ud
or ate
an ity
im ism
ĠC ount
ri p
Ġob e
ĠF our
act ly
ĠL ouis
int rodu
Ġafter ward
ĠCh uang
ĠJ ul
Ġwar rant
Ġgu ards
Ġaffect ing
IN D
gr own
Ġx ii
TI C
Ġredu ction
Ġpursu ing
Ġdiscover ing
Ġremem brance
comp any
Ġexec ute
Ar ch
Ġinstinct ive
inist ration
bre ak
Ġblessed ness
Ġextrem ity
Ġapprehend ed
ĠON E
sacr ific
Ġstopp ed
Ġperen nial
W hether
f requ
g iver
ic he
Ġbe et
Ġhe ap
ĠA e
Ġwith al
ul f
Ġse cts
Ġsh orter
ĠP tolemy
un ch
ĠF ree
Ġpart ake
ject ion
pos itive
Ġcl am
li ad
Ġlong ing
Ġcol ored
ĠK ung
Ġemploy s
Ġlab ours
Ġappl aud
Ġbad ly
ĠIs a
urd ens
Ġpen alties
Ġclaim ed
Ġsail ed
individual s
consequ ence
sim ilar
Ġcheer ful
Ġren ounce
Ġhydro car
sacr ifice
Ġug ly
F E
S ol
m ity
Ġt ies
is ive
Ġm ol
Ġwe ek
qu ite
Ġse curing
ĠW ords
oc al
Ġimp rison
Ġjust ification
Ġequ als
Ġjud icial
ici as
Ġauthor ities
ric ate
Ġimport ed
Ġbu ff
Ġsupport s
Ġve ins
equ ally
Ġimpress ed
Ġfruit ful
ĠWhere as
Ġliqu or
ĠMe g
Ġconsum ed
Ġste am
Ġdefect ive
Ġstat ues
Ġcalcul ation
Ġrecol lection
Ġissu ed
ĠPelop onnes
Ġintegr ity
b attle
o om
t est
v iii
er als
it ality
en emies
Ġc ock
ar ity
Ġd y
se ct
Ġl ob
Ġst ability
um pet
ĠC ent
ĠP un
ĠP hys
per man
ject ed
ass es
ber y
ath on
Ġposs ibilities
pr im
Ġread iness
Ġprev ents
Ġcur ved
Ġden ies
Ġconnect ions
Ġoper ates
ĠDe f
bar bar
bar rass
ey e
Ġprotect ed
Ġintu itive
Ġmyst er
Ġpot ential
Ġimperfect ion
Ġobst in
ĠScript ures
arn ab
ĠEgypt ian
creat ures
Ġven geance
Ġachieve ment
Ġadvers ary
Ġconting ent
G ood
f are
l ies
n orm
p ort
p ast
r ound
Ï ī
Ġ ``
Ġ Ã¦sthetic
he nt
Ġw ilt
Ġf ost
Ġn ice
et t
th ly
qu is
act ing
ĠD avid
for ces
ĠIn ter
ĠIn stead
oy alty
Ġinf ant
Ġmor bid
Ġconf ounded
Ġshe w
Ġrec ords
Ġadm ission
Ġgu ess
Ġdr iving
Ġmar gin
Ġden oting
Ġinflu enced
ĠSy racuse
Ġconce ives
TION S
aff irm
Ġharmon ious
Ġcorrect ed
Ġhind ered
Ġfast ened
Ġpal ace
po et
ĠHell as
Ġdialect ical
Ġmess age
Ġdestro ys
ĠProv idence
mag ist
Ġimpreg n
ilib rium
G e
R ed
b acco
d uty
s itu
u all
w ife
Ġt urb
Ġw aking
Ġf ountain
Ġin ve
al together
ic ip
Ġd w
se arch
st ers
ĠC oven
Ġch urches
Ġdis regard
Ġcont ention
ĠTh ras
Ġinto x
Ġsay ings
Ġcl ust
Ġgener ated
vers ation
Ġfl ute
Ġrest ing
Ġel astic
Ġchild hood
Ġoccasion al
amm ation
Ġscar city
ref lect
Be ing
Ġyellow ish
Ġorn aments
atur ity
pun ishment
hig hest
Ġrenew ed
Ġaxi oms
A re
s per
u ce
Ã ¢
Ġs li
im ilar
Ġst ing
ac ob
Ġdis par
-- "
ĠL ao
Ġind ivid
Ġint emper
Ġbr utes
pect ive
su cceed
ph ab
ĠAn ax
Ġsm ile
Ġadv ances
Ġcr ies
Ġsens ual
tr ad
olog ists
Ġprop ortions
Ġpain ter
Ġfa ire
Ġconstit utions
ane an
mat ics
Ġwise ly
Ġviol ently
ĠSp inoza
ĠQ ueen
Ġremark ed
Ġassum ing
pleasure s
affect ed
Ġestim ation
Ġattach ment
ĠNum a
pra ise
Ġsubdu ed
ĠHoll and
D isc
G u
P art
c oun
g over
an cient
ic y
st ock
ess or
Ġex cel
Ġde alt
Ġch im
Ġab ide
ĠM ithridates
int uition
Ġhuman e
Ġopp os
Ġopp ressed
Ġpres ume
Ġincl ine
Ġed ible
Ġconsist ency
iment ary
rem ains
Ġeng agement
Ġty pical
Ġexcl aim
Ġpot ent
Ġdisturb ance
ĠSto ic
Ġcalcul ated
Ġnav al
NO W
Ġmerc en
distingu ished
open hau
Ġcro oked
Ġdisd ain
Ġdex ter
openhau er
A TE
g ins
Ġo un
at ra
Ġd ign
id ation
Ġhe e
Ġhe arer
Ġst aff
Ġsh ining
Ġr um
op ed
Ġun conditioned
Ġar isen
ĠM aj
Ġpl astic
Ġqu ad
ne um
ord in
ok es
pre jud
Ġele ph
ĠWhen ce
Ġappl ause
Ġmon strous
Ġground ed
Ġfew er
where as
Ġarr ival
Ġdepend ing
Ġvict ims
amm ed
Ġcommun icated
Ġcorrespond s
Ġreflect ing
Ġmaj or
const ruction
Ġpref ix
Ġphr ases
Ġtext ure
Ġdro ve
usal em
Ġcas ual
Ġlect ure
ĠPHIL O
E xt
M or
N either
R em
X L
e ight
i ots
w all
y t
Ġs edu
at i
Ġc ub
Ġin adequate
ct ive
ci ve
pl ication
ap her
av ish
Ġcont raction
Ġsp aces
Ġgener osity
Ġrec overed
Ġexam ining
Ġlight ning
Ġneed ful
Ġprev al
RA C
Th ough
Ġfac ilit
rem ark
Ġexc ites
des ign
char ge
Ġpoet ical
Ġcho osing
Ġemb ry
Ġmaj esty
possess ed
proper ly
concer ned
Ġdisgrace ful
Ġadvoc ate
ĠTiber ius
Ġlung s
C he
H ipp
T e
p owers
s aw
w in
in ister
ing e
an ks
ad der
th ians
Ġst am
ĠThe aetetus
and om
ĠS O
Ġde af
ĠC orn
ĠC HAPTER
op y
ĠP ure
per m
Ġpr ices
Ġpart ially
Ġimp ost
ex ec
Ġrep ute
Ġrep air
Ġorder ly
Ġtra ck
Ġpar ish
Ġdecl ares
Ġlust er
Ġillust rate
Ġsurpr ising
Ġinsol ence
Ġassembl ies
Ġemph as
Ġadvent ure
Ġmour ning
Ġconvention al
Ġconfer red
Ġvo ices
ĠPaus anias
S I
U nd
a cies
w ish
Ġt ick
at tain
Ġb osom
Ġm es
Ġm as
Ġto ols
or ius
Ġd iverse
ce re
ir able
od ium
ter ms
ĠS EN
ĠS erv
Ġse q
Ġch ances
Ġab hor
Ġen erg
ang ular
Ġgr ade
Ġimp iety
Ġover fl
pr ison
Ġsl aughter
Ġwar ri
ons ense
Ġ3 2
Ġins ensible
Ġobser ves
Ġcontin uity
Ġfore told
Ġjudg ements
Ġord ained
Ġconstit uting
unt il
ĠOr igin
Ġeff iciency
crib es
Ġpat ron
Ġident ified
ey es
cor rect
Ġcompl aint
power ful
Com m
ĠMe gar
Ġpurch ased
Ġaccur ately
Ġaltern ative
Ġceremon y
Ġflo or
Ġscept icism
ĠNO T
Ġarchitect ure
4 2
6 6
A CE
V ol
n et
z er
re ceive
Ġs ore
at is
Ġp ush
ĠI reland
od ox
ĠS in
Ġse p
Ġse lection
to p
ĠC H
ac red
un ctions
Ġdis persed
Ġar omatic
ab ilities
Ġsp in
Ġpartic le
Ġwar ning
Ġcr ude
Ġfore sight
ĠX I
Ġ5 7
Ġhelp s
Ġpoet ic
ER N
Ġplan et
ĠGerm ans
Ġpress ing
Ġod ious
Ġcontrib uted
Ġadapt ation
Ġburn ed
Ġhyd rogen
Ġwarm th
Ġlik es
among st
var ious
Ġabsor bed
ĠAugust ine
Ġgramm ar
D iv
D UC
M ed
c as
he nds
Ġa th
Ġo mit
ar l
om a
se ud
us hes
ĠS te
Ġat tends
ac compl
ĠW E
ĠW ITH
Ġdis agreement
Ġar d
ĠM o
ru p
Ġcomp ulsion
com posed
ren cy
Ġarm or
Ġmar ble
Ġdeterm in
Ġ4 5
Ġestabl ishing
Ġph osph
Ġtax ation
Ġ17 9
stit ious
set tled
Ġcontempl ate
Ġdial ogue
Ġregular ly
subject s
Ġgrat ification
disc uss
Ġfrag ments
Ġhero ic
Ġinconven ience
Ġcart il
Ġconspir acy
resist ible
independ ent
Ġmembr ane
Ġwel come
oso ever
Ġted ious
E r
c un
d ivided
Ġthe ological
Ġc ow
Ġp yr
Ġin comp
Ġe cl
id ious
ig g
ĠA E
ĠA R
ĠA uthor
ch i
the st
ĠS ense
Ġsh ake
ĠM ars
ĠG o
Ġqu i
ĠJ ap
Ġval iant
Ġprop ensity
Ġexpl aining
Ġclass ification
Ġder ives
Ġrevol t
Ġkingdom s
ĠLacedaemon ian
Ġspecul ations
mist ry
def in
Ġridic ule
Ġspect ators
Ġimper ative
Ġreform ation
Ġfab ulous
book s
Ġaston ished
Ġdestro ying
Ġsecre ts
develop ment
Rom ans
C ap
E l
M ON
S n
S ur
e cess
k ward
u ced
at ics
Ġb uck
Ġf are
ar ist
Ġn oun
Ġe c
se y
ent ertain
ĠC ur
Ġun reasonable
ord inate
Ġint est
ian a
Ġrep orts
Ġopp ression
Ġmod ifications
adv antages
Ġideal ism
Ġacid s
jud ge
Ġpost ure
De f
Ġinstit uted
Ar t
Ġunf old
Ġfavor able
ĠEgypt ians
ĠSub st
chang es
acqu ainted
Ġprint ing
Ġble nd
onym ous
Ġanteced ent
Ġil leg
4 3
c id
d le
d rew
f if
g on
Ġt in
Ġb red
en cing
Ġto pic
an while
Ġd iet
Ġd aughters
om orph
ot al
ent ious
Ġor ange
il ian
Ġare a
Ġst ake
the ned
iv isible
em inate
Ġy esterday
Ġv ag
Ġman ly
Ġwhe els
un iverse
Ġsome where
Ġthink ers
Ġdisc oura
Ġread ers
Ġcare er
sp oken
Ġvict ories
Ġcontrad ictions
Ġyield ed
Ġconfess ion
Ġdepart ment
Ġobst inate
represent ation
pract ice
Ġdescend ed
Ġbrief ly
Ġdram a
Ġtouc hes
Ġassembl ed
Ġdrop s
contrad iction
Ġaccus ation
Ġdisgu ise
ĠLiber ty
Ġchann el
Ġaggreg ate
Ġmyster ious
J ust
c ific
k et
l aid
Ġa ust
Ġo ak
Ġc u
Ġc um
Ġc ob
Ġp est
Ġp uff
Ġto ol
Ġto mb
as cal
om it
Ġl ake
Ġan gel
Ġha ught
th al
Ġst out
ol ves
Ġde formity
ant ity
ĠP ur
ĠP sych
Ġdo e
ag o
Ġnat ives
du cation
ĠD utch
Ġend ow
Ġcommon s
uc us
Ġes se
ON D
Ġcur se
Ġmis er
Ġche aper
sc ape
Ġdecl aring
ship s
Ġhabit ually
Ġtemper ament
perfect ly
opp osite
ĠMar cellus
Ġtor n
Ġcontrad ictory
ĠCle omenes
Ġshame ful
Ġcontro lled
produ ced
Ġnav y
ĠMet ellus
ĠEpic ure
Ġindic ates
Ġmanufacture rs
Ġmamm als
Ġexpans ion
L a
f aces
n the
Ġt et
Ġc ode
ou bled
Ġe ag
im en
ig ram
am a
Ġex empl
Ġde pre
ere m
ĠG host
ĠE ither
ĠL ack
ĠAn arch
Ġdef iciency
Ġfound er
In f
Ġins in
Ġins omuch
Ġdra ch
Ġlim itation
Ġwrong ly
EN E
ĠAny thing
rest rial
Ġdeep est
suff iciently
Ġcast le
ĠHer od
Wh ile
anim al
ĠPers ia
So cial
How ever
Ġresp onse
Ġgrand eur
Ġprophe cy
effect s
Ġmarch ing
Ġtender ness
affect ion
osc ope
Ġtort ure
Ġincred ible
; ;
E pic
h ouses
i astic
Ġt ied
st art
Ġl ent
Ġre ly
ĠI T
ch ievous
iv orous
em ic
Ġman s
Ġwas ted
Ġr ip
Ġne at
ĠM E
Ġob li
Ġsome one
ĠL ogic
ĠIn f
Ġcl imate
ex peri
Ġcomp ounded
Ġend uring
Ġple ad
les se
pr udence
Ġmean ness
ĠY Ã¼
Ġreal m
sc rib
Ġbo iling
Ġabstract ed
comm od
che l
Ġassoci ations
Ġintu itions
Com mon
Ġliter ally
Ġimprove ments
Ġecon om
Î¿ ÏĤ
Ġbind ing
Ġfrag ment
Cont rol
connect ion
Ġconvin cing
Ġfer ment
Rep ublic
Ġappoint ment
ĠVir gin
Ġrele ase
Ġeman cip
ĠChrys ippus
Ġunavoid able
4 1
F F
c ry
r ont
t re
w ed
in ities
Ġm ask
Ġm aketh
Ġto bacco
Ġf ox
Ġan at
et ing
ul ations
pe cul
Ġcom plicated
Ġch air
ĠO UR
ast y
-- _
av y
Ġout come
Ġspe ar
int ention
âĢĿ âĢĶ
Ġend ured
Ġwork man
Ġmean ings
.âĢĿ (
Ġgu arant
Ġsign ifying
Ġsuper intend
ĠAt tic
Ġvict im
Ġsus p
exist ent
Ġmusic ian
Ġbound aries
Ġarrang ements
bes ides
look ing
sign ific
Ġdisplay ed
Ġrecon cile
Ġinterf ere
Ġhol iness
Ġembod ied
ĠPhaed rus
osh ua
Ġtast es
a en
m aj
r iment
Î ³
Ġof t
en cer
Ġp ist
Ġp our
ing er
om n
ĠT ro
pe ls
um ption
ĠP ast
ĠP oss
ĠH es
Ġany body
Ġun changeable
ĠO h
ĠO ut
ud den
ĠM od
ĠG aul
act ual
Ġunder taken
ber t
Ġwhere fore
ĠâĢľ _
com pet
Ġexp ensive
Ġass ure
Ġvar iable
Ġhard ness
gr ad
ell a
Ġsil ly
Ġcal umn
inter pret
Ġsimilar ity
law ful
Ġmount ed
Ġcra ft
Ġox ygen
Ġroad s
Ġcounsel s
ym ph
Ġpenet rate
Ġhorn s
employ ed
ĠSubject s
Ġchast ity
Ġsequ ence
exerc ise
Ġrhyth m
h ath
n el
r h
t ill
u ish
z ed
in ias
Ġs urn
an o
Ġn ur
le ave
om as
Ġbe have
Ġbe lee
ot a
im um
Ġhe ir
Ġhe ated
ĠA cc
if ting
if orn
Ġr ush
ac ulous
Ġtr ies
Ġqu od
Ġact or
ĠL astly
The ir
ict itious
Ġlaw y
Ġrep uted
ater nal
Ġlet ting
Ġgl or
Ġdra ught
pir ing
Ġsk et
Ġbegin nings
ĠThese us
.âĢĶ _
RO M
anim ous
Ġbold ness
Ġdescend ants
Ġsyll able
Ġnobl er
ĠStr anger
Ġnovel ty
Ġinfirm ity
Lacedaemon ians
Ġelabor ate
ĠLoc ke
arnab azus
apher nes
6 9
8 9
A ng
K ing
d eep
f ool
i ad
i atic
m ur
p ress
r atus
Ġc ave
or um
al ia
Ġd ried
ill ery
un ion
Ġind is
ĠN ero
Ġem er
Ġgener ality
own ed
com fort
Ġcount ed
Ġtrans form
men cy
gr am
sc ope
rem ain
Ġdecl ined
Ġoccur rence
ĠAnt ip
Ġid leness
Ġjo ining
off ice
Ġelement ary
Ġmedi ation
Ġexceed s
common ly
Ġkn ife
Ġobst ruct
Ġbreat hing
amin ondas
Ġstup idity
Ġmulti plicity
Ġdim ensions
Ġdescrib ing
ĠHs i
ĠFlore nt
ĠHapp iness
7 0
: âĢĿ
M al
s pecial
v id
Ġp y
ar ious
se us
Ġsu its
ra w
Ġpro ving
ac cur
per form
Ġle an
ĠE xt
Ġcomm ended
iz ations
Ġdes perate
Ġrel uct
Ġwr ath
Ġexist ences
Ġaff inity
Ġins isted
Ġinc ap
Ġallow ance
Ġcreat ive
ĠAl though
Ġvict orious
Ġcry ing
Ġpecul iarly
Ġpost erior
hand ed
Ġjoy s
Ġdiss olution
Ġep it
Pr inci
Ġbold ly
your self
bre v
Ġthreat ened
import ance
mem ory
Ġow es
Ġselfish ness
Ġrecipro cal
ĠMO RAL
philosoph ical
Ġcommence ment
Ġbesie ged
L D
R U
T im
r ons
t rib
w art
y ss
Ġ ÏĢ
in i
it ol
Ġb ud
Ġb urdens
en et
Ġth ir
Ġn ull
Ġl ords
ĠA mb
ch ant
Ġex terior
ĠS ab
ĠS cy
Ġat om
ĠB ac
ĠB udd
per ceive
ĠM ark
Ġind ol
ĠN A
ult ure
pos ure
Ġpre l
su es
Ġart istic
Ġext r
Ġinv al
Ġmar vel
Ġlim b
dist ance
Ġstri kes
Ġmagn animity
suff er
ĠSome what
Ġfavour ite
Ġhind ers
Ġliter al
Ġinterpre ted
Ġpositive ly
Ġcross ed
gl ory
Ġfill ing
sent iments
Ġdeliver ance
Ġquarrel s
Ġuniform ity
Ġascertain ed
Ġemph asis
Ġvac uum
Ġvex ed
Ġpert urb
Ġlaug hing
Ġpropriet or
Ġhoriz on
Ġimagin ative
Ġtol erable
Ġspo ils
opport unity
A ut
L uc
O d
n one
Ġa kin
on ous
as ive
am ph
Ġr ipe
ind ust
ĠP at
Ġun m
ri x
Ġqu een
Ġent rusted
Ġvar iance
Ġcur rency
Ġplay er
right ly
Ġfoot ing
ref erence
mod ern
Ġsucceed ing
Ġmouth s
Ġrepublic s
Ġprosper ous
Ġetern ally
inv est
Ġenlar ge
Ġsust ain
Ġtempt ation
Ġprohib ition
ignor ance
Ġming led
ĠCass ius
A IN
B ecause
M at
n ames
t ail
Ġc ards
al er
Ġn u
as ury
Ġan terior
ro id
Ġv ind
Ġde er
ind ing
art ic
con cil
ab und
ĠL i
ĠTh rough
Ġgr ieve
cl amation
Ġher d
pre ced
Ġvar ies
empt ion
ae an
Ġmar vell
Ġrepresent atives
Ġden ote
ĠX IV
Ġattempt ing
Ġdeser ted
Ġdiss ip
cle arly
Ġsail ing
lear ning
Ġfeed ing
Ġconstr ained
oet he
Ġnarr ative
ĠTur k
Ġdivid ing
Ġcompos ite
ruc cio
Ġdw elt
L F
S qu
T ri
c ourt
l ist
l ie
s ure
Ġs ine
is able
Ġth o
Ġd ye
im achus
ro ll
ay er
am ple
ĠB al
Ġun w
Ġun iting
ĠM uses
Ġen mity
ĠL ight
ib n
hes ion
su bs
Ġthr ows
read ing
Ġcor relative
Ġequ ilibrium
Ġinter ven
mer ly
Ġchild ish
Ġill s
Ġph ant
Ġvarious ly
imp ly
imp ression
Ġvis ited
az z
ilit ary
suff ering
ĠDo ctrine
Ġlegis lators
Ġattend ant
human ity
Ġperpet ually
disc overed
Ġshad ows
prov ided
ĠSocial ism
imil arly
Ġpil ot
Ġhoriz ont
Ġdoct or
facult y
ĠCre te
Ġintol erable
Ġantit hesis
ĠHob bes
a er
in ety
Ġf ables
Ġin complete
Ġre deem
ĠA RE
od erm
ul i
Ġse lling
Ġsh aped
Ġr andom
ĠB o
ast rop
Ġdis appoint
ab ol
we ar
ĠR ed
ĠD ev
Ġpre ca
ĠIn st
Ġoff ense
ĠCh ild
Ġchar iot
pro positions
Ġbl oss
Ġhapp ier
Ġcor rection
Ġaw kward
cur s
ger y
Ġfur ious
Ġdel usion
ev idence
Ġcreat es
Ġfalse ly
let on
Ġfail ing
king dom
Ġdeser ving
Ġdiss olved
Ġdelight ful
Ġpal p
Ġpet ition
Ġsyll ables
Am ong
Ġconsul ship
Christian ity
Ġconstitu ents
Ġcompens ation
fig ure
ĠJer usalem
E lect
M el
a que
Ġt el
Ġb acter
Ġc f
Ġm ars
Ġm aturity
Ġf ills
Ġn inet
pe ction
qu isite
Ġab ode
con j
act ed
Ġen force
ĠN ext
Ġapp er
hil st
inci ble
Ġappe ll
Ġconf eder
Ġset t
Ġrec o
Ġinv entions
Ġ3 3
Ġdown ward
Ġmet aphor
Ġsol icit
Ġsepar ating
Ġpeace ful
Ġavoid ing
Ġmanifest ly
Ġdeb ate
Ġhusband s
Ġexceed ing
Ġhypot heses
Ġsust ained
Ġego ism
Ġabol ished
Ġlat ent
Ġrat io
Ġaccompany ing
Ġproc ured
ĠGlau con
A lexander
L y
M any
c hen
v isible
he red
in ating
Ġthe olog
it a
Ġb ills
Ġm ent
Ġm ission
Ġto oth
ing ing
Ġd uke
ut t
Ġg ently
Ġnot iced
Ġme nd
ĠW OR
ĠM iddle
ĠG en
ĠL I
Ġcons cient
Ġag itation
oc us
bl ind
Ġcl oser
Ġcomp rom
ĠCh al
Ġatt raction
Ġdid st
Ġgu ides
use ful
Ġacqu ies
Ġtra ces
ĠBe aring
des ires
Ġ6 0
Ġheat hen
apt ism
Ġfit ness
Ġcommun ion
Ġrequire ments
col lect
ĠDem ocritus
oh ammed
Ġspr ung
requ ire
father s
ĠDel phi
Ġnour ishment
Ġdepos it
Ġsev enth
Ġmart yr
Ġviv acity
Ġinfall ible
ĠCong ress
Ġneut ral
Ġenerg ies
O US
b ore
b oy
i per
r anch
Ġto es
Ġin animate
as ia
Ġbe ating
ir ls
ig e
ch y
am er
Ġsu icide
Ġex alt
Ġy oke
Ġsh ine
Ġal phab
ĠP ir
ĠB abylon
per pet
Ġun pleasant
act ually
ang s
Ġgr ades
Ġdisc rimin
Ġstr iving
de ad
Ġopp onent
Ġopp onents
ins ically
Ġimmedi acy
ĠX II
ĠCon st
ĠRe f
Ġpra et
ĠAl mighty
Ġperform s
Ġenjoy s
Ġpreser ves
Ġcourage ous
ĠEvery thing
Ġban ishment
Ġtrad itions
Ġpath s
lim inary
Ġpret ensions
Ġobserv ance
Ġexperiment al
spirit ual
Ġcoward ly
Ġcolle ge
Ġafflict ed
ĠBet ween
H om
P ol
a ic
p arent
r ice
y ield
Ġt ired
he at
in fer
Ġto ss
Ġh og
al ians
ar b
st ri
if er
ad ise
iv ate
ĠS erving
Ġse l
Ġall usion
ĠC yn
Ġthere to
Ġcan on
ri ver
ĠE s
ĠN icias
hy pot
ip ed
atter ing
Ġart ifice
.âĢĿ âĢĶ
Ġland ed
dis course
tic ally
Ġdistingu ishes
Ġexc iting
Ġmoment ary
inter j
Ġconce ivable
Ġcho oses
Ġbra very
Ġvan qu
Ġcomplex ion
Ġsovere ignty
chang ing
Ġastr onomy
Ġlect ures
Athen ians
Ġderiv ative
opter a
ĠPort ugal
Ġfeud al
dire ction
P ompey
R ome
a fe
b irth
e lect
g a
m acy
t ics
Ġa ux
re pe
Ġw its
er xes
Ġp ile
Ġp uzz
Ġf ern
Ġh ier
Ġis olation
ul um
ĠS eneca
ra ble
Ġper mission
Ġob edient
ass ist
Ġad orned
Ġfe ign
Ġsp ark
ither to
ip se
Ġart ists
ĠJ acob
Ġext ant
ick en
sem en
Ġrespect ed
rem ember
ert orius
acc ident
Ġenjoy ing
Ġprot est
Ġdisp uted
Ġconce it
Ġconstitution al
Ġdep ths
ĠSe cond
Ġmyst ic
Ġcompar atively
eterm inate
ograph ical
Ġtim id
imag ine
Ġcontract s
Ġglad ly
Ġcontinu ing
Ġadjust ment
compre hend
Ġweep ing
ialect ic
rend ered
BJ ECT
ĠPract ical
Ġpopul ace
H T
T wo
s un
u pe
Ġs au
is an
or ia
as hes
Ġe ighth
ig s
the ory
ist les
op od
Ġim b
Ġle ap
pl an
Ġqu am
ĠTh ree
Ġag rees
iz er
Ġreason ably
Ġinst antly
pro position
Ġprodu ctions
Ġsc our
Ġmot or
know s
Ġsk ilful
cont empt
rel ated
Ġ5 9
cip ient
ask ed
anim als
EC TION
Ġeight een
Ġsorrow s
Ġhistor ians
Ġliquid s
ele ments
Ġeloqu ent
Ġenqu ire
Ġuneas y
appl ication
Ãª ng
Ġhes itate
Ġphysi ological
Ġded icated
Ġsummon ed
Ġprolong ed
Ġwholes ome
Ġobli que
iforn ia
D r
R oman
T O
e nder
m anship
p ath
r ors
Ġb ishop
Ġd ur
Ġn onsense
Ġg aining
if iable
il oqu
Ġst o
ĠS outhern
Ġsh oe
ĠP ont
Ġch ase
Ġper v
au x
Ġres id
Ġref erring
Ġconst ell
Ġcar pent
Ġinter rupted
Ġcomple teness
Ġarg ued
Ġpolit ic
Ġmus cle
Ġmus cular
Ġoblig e
Ġmed ical
comm unity
Ġforeign ers
ĠEx perience
Ġutter ance
ĠHer acle
Ġfirm ness
pres ervation
Î¿ Î½
ĠJud ge
Ġneighbour ing
Ġvill ages
Ġcir cles
Ġlad ies
Ġearnest ly
Ġprohib ited
Ġenterpr ises
ĠOb ject
ĠCarth age
Ġresc ue
B ra
B ook
D ion
G reat
I D
M aster
T et
e f
f air
l am
in stitutions
is ans
Ġm oth
Ġin ert
Ġh oles
ig er
ĠA lex
Ġex ceptions
ist le
Ġse ated
Ġk ins
ĠP ublic
ff ic
ong ru
Ġdis h
Ġab ounding
ĠM u
ĠL ucius
ee per
Ġrel ish
Ġres idence
Ġfl ows
Ġra w
Ġref lex
ĠJ un
Ġco ven
Ġpublic ation
Ġret ail
app ropri
Ġprov iding
Ġexpl os
Ġir resistible
Ġfear ful
LE D
Ġaim ed
Ġund ist
fort unately
Ġfurn ishes
enes is
Ġexhib its
Ġstart ed
Ġveget ables
prof itable
answ ered
Ġsettle ment
Ġbetray ed
Ġvap or
bro ken
Ġtreacher y
Ġsympt oms
ĠCoven ant
P ur
c ate
e con
l ines
r ast
Î ¯
Ġt on
Ġt is
at ile
Ġb ias
Ġf ictions
Ġd umb
as hed
ot ence
Ġre cept
Ġre place
us ks
am orph
Ġr ide
our ce
pt ic
Ġper ished
Ġcont ext
Ġpre rogative
ful f
Ġdiff used
Ġdist ances
Ġfl ock
Ġro be
ĠJ oshua
Ġsubject ivity
Ġsc ant
Ġbeg ged
Ġnew ly
att ack
Ġreal ised
Ġneed le
Ġsubst ant
Ġrespect ively
Ġincl osed
gr ateful
Ġhy mn
Ġdev ote
Ġmaster y
Ġoper ating
az ing
enth am
object ive
dra w
Ġeight y
Ġhast y
Ġslight est
represent ed
obser vation
Ġprofession al
oty pe
Ġdetect ed
Ġreconcil ed
Ġinhab ited
Ġdilig ence
Ġcontempor ary
Ġost ent
obe y
More over
Ġplaus ible
6 7
A h
A ct
C irc
h ome
h usband
Ġt ight
Ġm oss
Ġf u
Ġf ug
an ism
Ġin ability
as tern
ent ric
ut her
ut hes
Ġg um
ĠT usc
ad ays
pe ll
ill ust
ra ise
Ġcom ic
ĠC imon
ĠP et
Ġpr ick
Ġper ceptible
Ġact ors
ĠL ep
Ġag gress
Ġpo ems
eth ods
ĠJ ames
ob st
Ġdiv or
ĠK NOW
Ġdirect s
Ġru ins
Ġacqu ires
Ġsk ull
Ġinqu ired
Ġmanifest ed
Ġcourt esy
eterm ined
Ġbarbar ian
Ġinvest ed
Ġtyrann ical
Ġmort als
Ġprepar ations
ĠComm and
Ġstream s
ĠPyth agore
ĠSam uel
Ġprevail ing
Ġconsult ed
Ġsym met
Ġcit adel
prob ably
Ġham mer
ĠPrinci ples
E v
N ew
Y our
d am
g onde
m ad
m arch
m aker
n ations
n amed
s ound
t ree
Ġthe ft
re sembl
it as
Ġb ree
ic ature
as hing
Ġbe es
Ġg host
Ġfr iction
ol i
Ġal b
ĠW r
Ġar row
Ġar dent
ĠM at
ass y
Ġen com
ens ation
Ġsp heres
Ġsub mitted
urn ing
Ġreg ister
Ġexp edi
Ġref ute
Ġeffect ually
Ġadm inister
Ġever lasting
Ġreal ities
Ġperfect ed
une gonde
oid al
Ġsever ally
Ġfour teen
Ġmin ority
ca pt
Ġcreat ing
Ġver ily
Ġservice able
Ġamb iguous
Ġcommun ities
Ġsin cerity
Ġaffirm s
Ġdefend ing
Ġdom ain
determ ination
Ġproject ing
Ġshr ink
sent iment
ĠDes c
Ġfrag rant
product ive
gover ned
B et
P RE
T y
a ust
c ounter
f ashion
h ope
i ades
n ob
s cientific
Ġt acit
Ġp ars
Ġf ictitious
Ġre pt
od ius
ul gar
Ġst ops
iv a
Ġso oth
Ġsh un
ĠP O
Ġme ad
ri pp
Ġen h
we ight
Ġres olute
ty r
Ġwhere upon
Ġher ald
Ġexist ent
Ġye a
Ġgovern s
Ġreal ized
cons ists
Ġmon ument
Ġmis eries
Ġden ying
Ġsw allow
Ġgra v
Ġfin est
Ã¦ us
cret ius
RE E
ĠPh arnabazus
Ġinqu iries
Ġcorrect ly
Ġlabor ious
Ġblind ness
ING S
Ġaut omatic
Ġox en
Ġhost ility
Ġsubord ination
creat ed
Ġschol ar
ĠCal ifornia
ĠUnder standing
Ġinsol ent
Ġrecommend ed
ĠSoph ocles
Ġrepl aced
Ġstret ch
Ġswell ing
Ġdismiss ed
Ġrece ipt
Never theless
Ġfung i
ĠDesc artes
G ods
H ist
c ateg
f unction
i ology
m ine
s en
Ġth ief
Ġd ense
im age
Ġre b
Ġre ver
ĠT w
ĠThe odorus
ra ged
Ġde composition
sel s
ant us
ĠH E
ĠG ra
Ġli ver
Ġsp orts
oc racies
ang ement
Ġro oted
Ġtrans mitted
Ġcle ans
fe ll
Ġserv itude
Ġmon ster
Ġfort ified
Ġconnect ing
Ġsuper stitious
Ġswe ep
iqu es
Ġpreced ent
Ġox ide
ĠWho ever
Ġtop ics
IC H
Ġtrem bling
-------- --------
Ġmoist ure
ĠSyracus ans
Eur ope
situ ation
A G
A ff
A bs
C ur
L ife
L aws
P y
T hy
t t
u ction
v ict
x y
y outh
at tend
it z
Ġm alt
Ġp agan
ce nds
Ġl es
Ġl ift
Ġg ly
Ġde ception
Ġr isen
ĠP RIN
Ġdo ll
ĠO ver
ĠO ri
ĠW estern
ĠM ary
ĠF ROM
ĠG old
Ġnat urall
ĠTh ra
ĠN atur
Ġout line
ĠFor merly
Ġrep ay
Ġthink er
Ġpresent ing
Ġconf ound
Ġgl ob
Ġfore most
ock et
Ġfort ress
Ġx iv
no v
Ġdistinct ive
Ġve in
reason s
Ġant ip
Ġwealth y
Ġhind rance
ĠNew ton
Ġdefinite ly
Ġindu ction
Ġcompet ent
Ġter restrial
Ġlimit ations
gent le
Ġabund antly
Ġhang ing
bur g
Ġdict ator
Ġflo ating
Ġgather ing
Ġdiver t
Ġeleg ant
Hor ace
ĠGre cian
Ġarithmet ic
ĠMex ico
6 1
H em
L o
R h
S eneca
U pon
c ord
i ates
in ic
in ch
Ġthe r
Ġw ra
Ġs ack
it ud
Ġm arsh
Ġf oe
ar us
le ading
Ġwh ale
ce phal
ut ary
im per
Ġhe aling
Ġcon joined
ĠA ffect
Ġwe b
th o
Ġsu ng
Ġsu persed
iv ation
Ġcom edy
ĠP RE
per iment
pl ined
Ġdis interested
Ġab d
ĠF ar
Ġpl at
Ġen rich
Ġcont ag
wh ite
ĠN E
Ġgr ievous
ĠIn cl
Ġres ort
Ġimp et
Ġem ulation
oll en
Ġsupp lying
Ġass ass
Ġsl oth
Ġfact ions
Ġfam ine
ec k
Ġobser ver
ck er
Ġrespect able
cont ented
US T
Ġtax ed
Ġhorse back
Ġstri pped
Ġaccept ance
Ġpleas urable
Ġpos itions
acher s
Ġhappen ing
Ġmir aculous
Ġsuggest ions
Ġunf av
Ġmach ines
Ġobey ed
abs urd
rep utation
ograph ic
Ġeager ness
Ġaccur acy
Ġmess enger
ĠVen ice
ta ire
Ġadvoc ates
Ġtru ce
Ġstret ched
Ġavail able
incre ase
Ġextingu ished
ĠArcad ians
Ġcapit als
Ġfigur atively
Ġcha os
Ġtribun al
; [
P et
d ise
j our
s ick
t alk
Ġt act
Ġw ag
Ġb ub
Ġp ace
Ġin sufficient
Ġin ternational
Ġe cho
Ġfor um
ul g
Ġbut cher
Ġcom eth
ĠP or
Ġun limited
ĠM il
now led
ĠE qu
ish ments
ian ces
urn al
Ġlaw giver
ack nowled
su itable
Ġstr ife
Ġref usal
ick er
ob serv
Ġinv ite
cond em
lu x
Ġele ven
Ġback ground
Ġche at
Ġliber ality
Ġmin istry
AN CE
Ġbar rel
Ã¦ n
Re f
Ġappre ciation
Ġdog ma
Ġamount ed
Ġindust rious
car ry
Ġtrib une
Ġsail ors
Ġexhib iting
trans cendental
found ation
comple x
Ġdischar ged
satisf ied
Ġestim ated
Ġdecre es
Ġdecre ed
Ġinit ial
Ġincident al
ĠVir gil
Ġcandid ate
Ġadject ively
Ġsimpl est
ĠFlore nce
ĠMart in
Ġsor ry
ultiv ated
E nt
E mb
L ord
M er
M ost
i ards
l ow
p an
r ition
t or
w are
Ġt un
Ġd ressed
ir ation
ig en
ĠA C
ĠA S
Ġnot able
il ic
Ġst ress
Ġse vent
ind ifferent
reat h
ĠH A
Ġag encies
Ġpre liminary
âĢĿ ;
li k
me chan
Ġcol on
Ġconsider ably
Ġgl and
Ġinc ome
sc ar
Ġstud ents
eng aged
EN D
Ġhelp ed
uit ous
Ġsix teen
Ġasser ting
co very
Ġattack ing
Ġrid ing
Ġintrodu cing
Ġassist ed
Ġur ge
conf idence
Ġobst acles
determ ine
Ġlik ed
Ġmyth ical
obser ve
difficult ies
Ġglo omy
Ġembra ces
turn ed
Ġextravag ance
Ġconstr aint
Ġlod ged
Ġpropriet ors
Ġenact ed
ĠCast ruccio
Ġrighteous ness
ĠHon our
Ġusur p
virt ues
ĠAtl antic
5 1
5 2
D ep
E qu
O ther
T RO
W or
Y e
d ream
g old
l iction
l ength
v ictory
Ġt ales
Ġo m
re et
Ġw ore
Ġw ire
er ately
Ġs i
Ġs nat
on ism
Ġth orn
Ġd art
Ġn est
ess ing
ul ch
ble ms
Ġso ot
um en
um enes
ie g
Ġtr icks
Ġle ague
ĠW ant
ĠM ohammed
con qu
Ġcont ests
ĠL ib
Ġind ivisible
ĠN ations
cl ot
Ġimp erson
ink le
Ġperson ally
Ġpoint ing
Ġnew sp
Ġgl oss
app ing
part y
Ġimag inations
Ġfort itude
Ġtra vell
Ġstud ying
atch ing
Ġdeal ings
Ġswe ar
Ġred dish
Ġguard ed
Ġstra w
Ġsleep ing
Ġcontrib utes
Ġbreat he
ĠCommon wealth
Ġproject s
Ġsyll og
war f
ĠSch openhauer
IR ST
former ly
distingu ish
Ġhes itation
conce ivable
Ġkne es
ozo a
Ġflatt erer
ĠLeg is
ĠPhoc ion
Ġhydrocar bon
cun iary
Ġincomp atible
pecul iar
A ges
L aw
P at
P res
T w
_ ?
c iful
f aced
h o
o ble
r ase
t own
u ating
w orship
Ġb ite
le ge
Ġbe er
Ġre tains
Ġg ird
ĠT y
ro ph
ci ed
Ġr ounded
op o
op oda
Ġwor ms
el ing
Ġdis appear
ang es
ĠD an
ĠD uring
Ġinf erences
Ġbl unt
Ġdef ray
Ġless ons
Ġsuff erer
Ġsc enes
Ġgovern ors
Ġrec ently
Ġco vers
Ġimm aterial
err or
Ġill um
Ġdev oid
Ġve il
crib ing
ĠArist ides
fact s
Ġelect rical
Ġtrib ute
cise ly
ĠCor oll
Ġregular ity
Ġrepro ached
def inite
Ġreve als
Ġmetaphys ic
Ġstay ed
Îµ Î¹
master s
Ġmulti plied
Ġthread s
Ġrout ed
Ġspl it
Ġinser ted
harmon y
Ġlaboure rs
Ġcaut ious
ĠCarthagin ians
Ġeag le
M in
P an
V ir
c ule
v oc
x imate
z a
Ġt ab
Ġf isher
ou ched
Ġl ame
Ġcon gen
ĠC ivil
ant ile
ose ph
ĠP resent
Ġun intelligible
Ġar rows
Ġab omin
Ġab yss
ĠG oethe
act yl
wh olly
Ġem barrass
ced e
Ġoff ences
ater n
Ġref using
ĠJ ove
Ġequ itable
Ġimm od
Ġsur faces
Ġfore see
oun ces
Ġtem pest
Ġmis chievous
Ġtra its
Ġsw ay
AN S
Ġeff eminate
Ġlay er
Ġexerc ising
AS ON
Ġexcl usion
ĠEx p
Ġdog matic
Ġprofess ions
Ġintrodu ces
Ġtalk ed
Ġcollect ing
Be fore
quest ions
Ġdomin ions
Ġcontro lling
Ġcheck ed
ĠSol omon
Ġadjust ed
ĠAugust us
Ġbag gage
Ġimpat ient
Ġnucle us
Ġrebell ion
olat ry
Ġaqu atic
9 0
G o
G ener
b red
d a
Î ´
Ġt une
Ġo vers
re ve
it o
Ġp all
Ġp airs
Ġf oes
Ġd uck
le arn
Ġre ap
ir p
ĠT ao
ect or
ĠP os
un ci
-- [
ĠG overn
ĠE tern
ens is
ĠN one
ang ing
ĠD I
ip at
int s
me as
Ġsent ences
ĠU t
Ġfore ver
Ġland scape
Ġtra ced
Ġhist ories
ĠX III
Ġliber ties
acc ord
Ġorgan isms
Ġvis ions
ext reme
inter rupted
Ġplant ed
verse ly
Ġmanifest ations
ey ed
Ġpred ecess
Ġdiss ent
Ġsal ts
Ġaffirm ative
Ġlust re
ĠAb ra
Ġinstruct ions
ĠNe cess
Ġprophe cies
del iber
Ġfulf ill
Ġthreat en
ĠAch illes
mem bers
Ġhosp itality
Ġbon um
fund amental
6 8
7 7
C ES
F urther
g ia
m id
m isf
p ay
t ruly
v ir
he never
Ġc am
an ct
Ġh ire
st im
ut ors
Ġas cetic
id ate
ch oice
os ure
ci bly
ĠC A
ĠC LE
op atra
ĠB entham
ag us
ĠM ust
ass ed
ĠTh ing
bl ance
ang les
ex cess
Ġcar n
ob ranch
Ġimm oral
ĠY e
Ġtrans f
ĠAs iatic
Ġshow y
Ġfre emen
br al
ctr ines
Ġpun ct
Ġconscious ly
Ġfin ish
Ġexpect ations
Ġrestr aints
Ġdiscuss ing
Ġdiss atisf
princi p
imm ias
hold ing
Ġsupre macy
Ġfast en
Ġep igram
Ġconsum m
Ġimperfect ly
Ġaut hent
Ġdedu ce
Ġlic ense
sight ed
ĠMed it
Ġflour ish
Ġfoll ower
Ġconc ord
Ġmurd ered
Ġalleg iance
Ġdegener ate
Ġwond ered
5 4
S up
Ġp ushed
Ġin comprehensible
Ġh uge
ic acious
Ġe ther
se ven
id y
ad a
ol er
ac cess
ĠH an
ĠH as
Ġch aste
un c
Ġim poses
con versation
Ġad here
Ġad herent
ĠE ducation
ĠTh omas
ĠTo o
ĠD ec
ĠD omin
Ġpre gn
iz able
erm ost
Ġexp and
Ġsc ore
Ġcol um
Ġinv asion
pend ix
Ġreal ize
Ġgu ests
Ġimag ining
Ġorigin ated
there by
Ġdec isive
Ġprom inent
TI VE
Ġdesign ate
Ġstates men
Ġendeav ored
AR Y
Wh ich
erv a
sens ation
pres ence
Ġcost s
Ġspread ing
ĠWor k
Ġinfl amed
Ġincur able
ĠGe orge
Ġvir gin
Ġinhab iting
Ġextern ally
ĠAustral ia
ĠRuss ia
respons ible
instr ument
ĠMaj esty
ĠHes iod
Ġalphab et
6 3
6 4
C ounter
U p
Z arathustra
i om
r ays
s qu
u k
u cy
Ġt ame
Ġa pe
re plied
it ories
Ġb idding
Ġp oured
Ġf ishing
Ġd ors
Ġbe ard
ir is
ĠS E
ĠS age
Ġse nds
est im
Ġall oy
Ġsh ift
ĠH o
ĠH ume
av age
Ġj ew
Ġqu o
Ġqu ote
Ġsa ils
te e
ĠD arius
Ġimp lying
der ived
Ġreg ress
ph ors
Ġsc andal
ange l
Ġdiv ination
Ġins cription
Ġinc hes
Ġclass ed
Ġbur ial
ĠPar men
Ġexcess ively
Ġmother s
Ġreflect ive
const ancy
Ġmel ody
ĠÎ º
Ġtempt ed
ĠLa elius
ME G
ĠCall icles
Ġbenevol ent
bene f
ILL US
ĠTar quin
C e
M es
N ay
S upp
_ --
c rates
c ross
d ides
i ata
j ug
m el
in tegr
Ġm ac
an thes
Ġin cess
Ġn ails
Ġn inety
** -
Ġbe f
Ġl it
Ġor bit
ich te
il ies
ĠS enate
Ġde arest
Ġtr umpet
Ġim posing
ud ic
ĠM uch
ĠM ach
of old
Ġqu id
ne xt
Ġag itated
iff erence
Ġout rage
ave l
su pre
Ġref rain
Ġdet ached
Ġreal ization
Ġunderstand ings
Ġanim ate
br other
Ġhard er
Ġhar vest
Ġpolit icians
Ġdev ised
io chus
Ġconv icted
Ġdepend ed
bec ame
present ed
Ġpen ny
right eous
IS M
Ġsav ages
Ġmal icious
Ġgrant ing
Ġgar ments
amb o
Ġdisco vers
Ġimper t
ĠCons ider
Ġtransp ort
ĠBook s
ĠCap itol
Eng land
Ġpatri otism
Ġhung ry
Ġpresupp oses
Ġrepent ance
defin ition
C all
E gypt
K E
K ant
M od
P hys
S ir
S uppose
h oly
r ise
r ules
t ax
t aste
u f
Ġs erm
Ġs edition
on ant
at ius
at io
Ġb ri
Ġc ul
Ġf uel
Ġh ates
Ġd urable
Ġl uminous
ĠA h
ĠA ff
Ġwith drew
ter ing
Ġex ult
and y
Ġde ities
Ġsh apes
ĠC ott
ĠB ishop
Ġtr unk
ĠF am
ish ops
ne id
be h
Ġgr iev
Ġgr ateful
ĠD er
Ġpre tends
Ġimp ure
pre vent
In s
Ġprop hes
row ing
Ġcaus ation
Ġpar agraph
Ġdev ices
Ġchange able
Ġproportion ed
Ġhabit ation
.-- _
Re g
Ġbound ary
Ġelect ors
Ġcre ed
Ġconvers ant
Gree ks
Ġcogn itions
Ġgre ed
Ġdimin ishes
Ġassert ions
Ġvers ion
Sp irit
Ġlist ened
Ġobst acle
po or
requ ires
ĠEp aminondas
Ġcost ly
according ly
Ġwear iness
orph ous
Ġeld est
success ful
Ġxv i
Ġanticip ate
ĠHebrew s
Ġparticip ation
Ġconve ying
Ġdisple ased
mult itude
Ġrepugn ant
Ġaltru ism
Ġlaz y
Ġtel esc
5 3
L ove
M ult
X en
d ark
u ptuous
Ï Ĩ
in ers
at en
at ag
Ġp ac
al ogue
as i
Ġbe held
Ġe b
se ction
id al
ĠT roy
Ġex changed
ĠS imon
ĠS imilarly
ge on
Ġde leg
Ġsh ades
Ġr ans
ĠC ause
ĠP oll
Ġdis content
ĠF urnished
Ġpl uck
Ġad du
ĠE t
are th
ne ar
ple ased
not withstanding
Ġam ple
ĠD ial
ĠD IS
oll ary
ug h
over ty
Ġdef er
Ġdet er
iss aphernes
vel ation
Ġins pection
Ġhere in
Ġdel icacy
Ġsuccess fully
Ch urch
Ġfav ors
Ġmer ry
Ġbar gain
THE S
sp here
pass ing
some what
Ġblood y
Ġexact ness
ĠSh ould
Ġsen seless
Ġpreced es
Ġcondem nation
ĠAd d
ĠQu int
head s
ĠHell enic
Ġdeliber ately
Ġinward ly
ele ment
Ġassured ly
ATION S
Ġconquer or
Ġamid st
Ġvel ocity
ĠCam illus
Ġfant astic
Ġexpend iture
Ġmultip ly
ĠAbra ham
B el
P olit
e go
f urn
l ate
p ict
p owered
v ention
Î Ń
Ġw ed
Ġb ury
or ian
Ġin ch
ct ic
Ġre igned
ĠA ge
am ic
Ġex posure
the e
and ria
ill ary
ĠS ur
Ġat omic
Ġde arer
Ġman hood
Ġr ay
ĠC ard
ac id
Ġsome body
Ġag ed
Ġsub lim
Ġshould er
ip ter
Ġpo pe
Ġover thrown
Ġappe als
de b
Ġass ail
Ġinv incible
Ġcontr ive
Ġinter rupt
omen a
Ġtrans formed
Ġeas tern
Ġsk ins
Ġhor semen
Ġav owed
ĠOr der
Ġcivil isation
ĠArist ippus
Ġmed itation
Ġaccept able
Ġprogress ive
Ġbound less
Ġexcess es
Ġrestr ict
Ġdemonstr ations
Ġfles hy
eas y
contin ually
mar ried
mar riage
Ġflour ished
minded ness
ĠCorinth ians
main tain
Ġvoc al
fav our
danger ous
ĠVar ro
ĠAcad emy
Ġscr ut
ĠAntip ater
rast us
ucy dides
MEG ILLUS
6 2
A B
M em
S over
] --
m aid
s af
Ã ł
Ġa the
Ġa fore
Ġw oven
er k
on ge
nd ical
Ġc ited
Ġf ires
se cret
st able
ur ate
ist ratus
est ion
Ġde ck
un ited
Ġim pe
ĠW ater
Ġper chance
Ġper adventure
ĠM ir
ĠM aking
ĠM arch
Ġpl ague
ple ase
Ġsp aring
ĠN ational
Ġpre text
ip hon
peri ors
Ġwar fare
Ġhand ed
Ġhand ling
Ġtrans actions
Ġtrans formation
Ġlear ns
Ġsatisf actions
ĠSp encer
Ġten ant
Ġtend ed
Ġthird ly
Ġswe at
plic able
Ġelect ions
Ġaffirm ation
Ġsucceed s
Ġwa ited
Ġresp ond
Ġalter ations
cher y
Ġdomin ant
Ġhair s
ĠJud ges
del ight
Ġvill ain
ĠProp hets
Ġolig arch
Ġperplex ed
Ġperplex ity
Ġbreed ing
ibr anch
Ġscru ple
Ġconcur rence
Ġadj acent
ĠWH ICH
Philosop hy
ĠRead ing
ĠProf essor
norm al
Ġdexter ity
Ġmarvell ous
I liad
J ud
P ass
X I
_ :--
i op
n us
s ciences
Ġo live
en able
Ġf ren
Ġf iber
Ġf asc
Ġf lexible
Ġin most
Ġn urs
Ġbe ak
Ġas under
ĠT art
ul ity
em otion
ra it
Ġpro pos
ĠH ist
Ġcan non
ĠM iss
ĠF inally
Ġad verse
ĠTh irdly
ĠD ay
Ġstr ings
Ġseem eth
Ġrest less
Ġinter ruption
app arent
Ġill ness
like wise
Ġeng ines
ival ve
ĠSy ria
inst ances
Ġep och
Ġliqu ors
ĠAm ph
Ġunf air
Ġwalk ed
Ġric her
Ġdistrib ute
Ġdistinguish able
Ġcop ies
Ġfan cied
citiz en
Ġstir red
ĠCont ract
Where fore
Ġinconsist ency
Ġinterf erence
Ġmour n
result s
Ġreprodu ction
Ġtow er
Ġshepher d
' ll
8 7
A mb
C rit
N A
T her
l uck
r ative
s ake
in habit
Ġw estern
Ġd ice
Ġwh is
Ġor acles
am ia
ul ly
Ġex ig
Ġex quisite
Ġst atus
ĠS er
ĠS ever
Ġpro poses
Ġsh rew
ĠP itt
el ia
Ġen ric
ĠL ong
ĠL acon
ne ys
Ġfe igned
Ġsub sequently
ĠD ep
Ġpe nd
Ġpe cuniary
ĠIn capable
Ġbr on
ib i
Ġoff ender
ĠCh ron
Ġpur ified
Ġref uses
ĠJ an
pr ince
Ġmod ify
tr ust
Ġever green
err anean
Ġexpress ive
cons cience
oid s
Ġdeterm inations
Ġ4 3
Ġdec isions
Ġche ese
Ġsuccess ors
no on
Ġgra cious
rodu ction
Ġforth with
Ġenv ious
Ġdiscuss ions
hold s
Ġcapt ure
Wh atever
dra wn
conf usion
ĠCr own
ĠNe g
Ġtransp orted
acqu aintance
Ġsevere ly
ĠAg athon
Ġembra cing
Ġinconven iences
Ġtranqu il
Ġfro st
Ġreconcil iation
Ġrail road
Ġobstin acy
Ġstam ens
! --
S at
b rates
c raft
f ounded
l od
l ost
l ated
n ine
o en
t ong
Ġa le
Ġh ired
ic on
ar ians
ro st
il iary
Ġex iles
Ġse ats
ci um
ac compan
ĠP ain
ĠP ost
Ġme als
Ġim itated
ĠO pin
Ġdis proportion
ĠF reedom
ĠG ospel
Ġsome how
ĠL ook
ĠTh ales
ĠD am
âĢĶ âĢľ
Ġchar ming
Ġless en
Ġbeg ot
Ġhand led
Ġgl ut
Ġcap ric
Ġhead long
Ġinc idents
Ġhar p
Ġconduct ing
Ġsuccess or
Ġprom oting
Ġfav ours
Ġfin er
Ġsle e
Ġdevelop ing
spe ech
Ġenc amped
Ġdise ased
Ġoccup ies
Ġprevent ing
Ġdeser ts
ĠSe uthes
Ġhur ry
ĠLe ibn
ĠCle archus
Ġdial ogues
requ ired
Ġclot hed
Ġgrace ful
Ġpol ice
ĠProt estant
Ġnav igation
ĠSch ool
Ġwithdra wn
circumst ance
Ġsink ing
Ġmerc antile
Ġego istic
hard ly
Ġlegisl ature
Ġrepl ies
direct ly
Ġissu es
Ġdegr aded
Ġaccum ulated
Ġremind ed
ignor ant
Ġarrog ance
ĠEu cl
ĠHor ace
Ġnur se
C O
E mp
S yn
f resh
g al
g nor
Î ¸
re r
re ven
an x
al ong
Ġe pic
Ġl ac
Ġor ators
id ian
Ġfor fe
et es
us cript
Ġfr ail
ĠS ent
Ġpro str
ĠC unegonde
ĠP ac
ĠP sal
ĠB odies
ard y
Ġun ites
Ġun real
el ed
ĠW ang
Ġab brev
ĠM axim
Ġev ap
Ġli br
Ġsp her
ru el
Ġres ign
Ġem inence
Ġexp orted
pr ise
Ġcr isis
olog ically
Ġdiv isible
Ġdeath s
Ġcaus al
Ġexpl an
Ġut il
where in
Ġsw imming
Ġx l
Ġestabl ishes
Ġign ore
ret ched
Ġbo il
Ġeng aging
Ġwrong s
my st
ĠQ U
Ġwind ows
Ġdog mas
Ġempir ically
Ġmyst icism
ĠAp pendix
exp ressed
ocr atical
Ġban quet
Ġtre asury
follow ed
consist ent
Ġflu ct
OM E
Ph ot
Ġbitter ness
Ġstead ily
ĠRight s
Ġschol astic
Ġachieve ments
appl ied
Ġaston ishment
Ġordin ances
phenomen on
ophy ll
ĠContr asted
Ġgalle ys
assert ion
Ġgeomet rical
cogn ition
Ġoppos ites
Ġec st
ĠFlorent ines
ĠMedit erranean
D I
M oral
e er
f ruit
in ently
in justice
Ġc ath
Ġm and
le th
Ġe re
ent iful
Ġl oyalty
im prove
Ġg am
ur ic
Ġfor cibly
et ime
op erate
ĠH ier
Ġgo at
Ġun lawful
Ġpr ote
ĠM ass
ĠM ilt
Ġind ication
Ġgr ains
Ġpre cision
ip es
ian us
Ġcl ock
Ġover t
Ġbl ade
Ġbl iss
me ant
ĠJ es
ĠWe i
Ġimm utable
Ġcle mency
Ġbea uties
unt ing
ĠAr men
oph rastus
Ġneg ot
Ġexpect ing
ĠFr anc
hens ions
isc rimin
Ġmechan ics
Ġcra ck
common wealth
Ġkn ight
Ġobserv able
Ġeager ly
Ġattract ive
commun ication
contrad ictory
Ġrout ine
Ġresour ce
dep art
keep ing
writ ing
concl usion
Ġdrag ged
Ġlev ied
Ġfib ers
Ġimpr inted
Ġsimult aneously
symp athy
Ġhorizont al
Ġcomprom ise
Ġdors al
? âĢĻ
C ent
F our
H im
L iber
W erke
a ignty
k y
l ings
m ilitary
Î ¬
Ġt as
he ar
Ġa ught
Ġw alks
at ious
Ġp ess
ou bles
ar is
ce ls
Ġ( Â§
Ġas pir
ĠT em
ur ous
Ġcon g
ig ma
ĠA lp
ad apt
ĠS ertorius
Ġse lls
Ġall otted
Ġpro clamation
Ġthere upon
Ġdis pleasure
ri ers
Ġab rupt
ĠM agn
con tained
con nexion
ĠE nt
ĠL ab
Ġsp ared
not ions
bl ack
Ġacc ustom
ĠD iod
Ġpre ach
Ġfl ames
ific ial
ater al
Ġatt racted
Ġchar ms
Ġbl ush
In c
str ict
Ġimag ines
Ġfall acy
Ġlab ors
Ġclass ic
Ġarg uing
ĠInd ividual
eng age
Ġcomb ust
ext ension
Ġphenomen al
Ġcut s
ĠCa using
che ty
Ġvan ish
rid ge
Ġhast ily
Ġbal anced
represent ative
Ġsn ake
Ġfix ing
Ġsubtle ty
ĠIDE A
Eng lish
Ġfarm ers
ĠPol us
Ġreckon ing
ĠPelop idas
Ġdoct ors
facult ies
Ġexplo its
Ġdrug s
Ġsty led
Ġsag acity
Ġrenow n
Ġfu nds
' .
F rance
P O
V ER
m ort
m outh
Ġo ily
Ġo men
re pro
Ġw omb
en v
Ġm un
Ġp ir
Ġd ol
Ġg irls
et ite
Ġhe els
ul ence
Ġst ub
Ġr ow
op hil
per ceptions
Ġdis k
Ġdis posal
ke pt
Ġam end
Ġrel ieved
Ġhum il
ĠJ eh
Ġorder ing
ĠY ao
Ġret al
Ġterm ination
what soever
Ġdirect ing
will ingly
Ġleg ions
kind s
Ġden omination
ĠX V
Ġsw allowed
Ġhor rible
Ġdev out
ĠBe a
ann y
right s
Ġenc ro
Ġpursu es
Ġmass ive
cor rupt
Pro v
ĠAfric anus
Ġfamiliar ity
Ġpref ers
div isions
mus ic
ĠCol onies
udd y
Ġvit ality
Ġjoint s
Ġaug mented
gra v
Ġinher ited
Ġoath s
Ġsurv ive
Ġpull ed
cho ose
Ġdepos ited
pri ori
Ġcorpor ation
ĠMess iah
Ġprem ises
ĠEss ence
Ġadject ive
Ġsubstit uted
Ġexer ted
Ġweig hed
Ġhaw k
Ġdepra ved
Ġrecomp ense
G en
G ra
H el
M ag
S omet
S cipio
b ach
b ted
j ury
m ill
s oph
s leep
s udden
t ro
w a
in ia
in ius
Ġw oe
is se
Ġb ot
ll ogism
Ġfor cing
od ont
ill er
em inence
Ġy ard
op ic
ie h
Ġun grateful
ĠW HAT
ĠM antine
ĠG rac
Ġen forced
ĠR ec
ĠD ream
Ġunder t
int r
Ġher ds
Ġsupp ressed
Ġac ad
Ġro lling
Ġval or
pend ing
ici ally
Ġread s
end ar
Ġfre eman
ĠU N
Ġincl ose
Ġsign if
Ġmar riages
Ġ4 4
Ġfull er
Ġsuccess ively
Ġbu ying
Ġshort ly
ev ent
Ġ5 8
Ġappro val
Ġgra pes
acc ustomed
when ce
Con cerning
happ ens
opp osition
Ġtest ed
:âĢĶ âĢľ
Ġcapt ured
Ġfriendship s
Ġadvance ment
Ġaut umn
ropri ety
Ġmel ted
Ġvig il
cal cul
consid ering
Ġtong ues
Ġaccompan ies
ĠAg is
ym achus
bal ance
Ġlic ence
Ġdict ates
........ ........
Ġcolle ague
ĠArg os
Ġbull ion
Ġaccum ulation
endeav our
compar ison
ĠCharacter ized
ĠIr ish
Ġapper ception
TRO DUC
' ;
S cript
T est
U RE
W agner
n ay
n ant
t ry
t aught
Ġt ide
Ġt read
in ced
Ġm entions
ed ocles
ic ulars
Ġd re
ut hy
ve red
Ġl un
Ġl ap
Ġg n
ĠT ell
am is
Ġex pelled
Ġv ile
ind ar
ĠP ascal
Ġcan al
out s
ĠM A
Ġpart ed
Ġj ump
Ġsp urious
Ġam ph
Ġam iable
Ġacc ent
hed ral
Ġide ality
Ġres in
Ġres ide
Ġdist illation
me al
ren ces
ged y
TE D
Ġfore tell
Ġchief s
Ġarr ay
amp s
des cription
Ġspec ified
Ġappre nt
Ġbas ic
Ġcompl aints
Ġz inc
ĠLe on
Ġpray ed
Ġstruct ures
Ġcontrib ution
ÏĦ Î±
Ġcounter feit
Ġdisorder ly
Ġbond age
Ġtu ber
ĠScot ch
Ġadvers aries
Ġspont aneously
Ġdegr ad
Athen s
Ġenlight en
separ ate
Ġparas itic
ĠAustral ian
ĠRuss ian
ĠGal ba
ĠJul ius
ĠPsych ology
Ġtis sues
A ch
G OR
L u
M o
M ac
a es
d aughter
i ative
Ġt ones
Ġw are
at ial
Ġm irth
ar um
Ġn im
as per
se cure
ot el
ut ations
Ġfor give
ĠA ri
ter r
Ġst ems
ĠS immias
ge bra
Ġv ot
Ġle gend
ĠO THER
ĠM ah
Ġpl ough
one ly
ĠL o
ĠL ev
Ġsub serv
aw are
Ġint ricate
ex ists
ex hib
Ġobject ed
ract s
Ġbl adder
Ġsc or
Ġfore seen
Ġill usions
Ġdec ent
St ill
bel ieved
Ġ8 0
see k
Ġid ols
Ġloss es
Ġhur ried
Ġcorrespond ent
ocr isy
Ġattend ance
ĠCle inias
ĠCle opatra
Ġban ish
Ġpal ate
Ġspir al
Ġing rat
OO T
Ġpol ished
Ġtrif les
NO TES
priv ile
Ġscru p
Ġambassad or
Ġsanct ity
Ġrele ased
Ġdiam eter
Ġcou ple
Ġpredomin ant
Ġflav or
ĠGent iles
Ġdrunken ness
Ġnitrogen ous
magist rates
ĠPRIN CI
6 5
C oll
C ato
M ay
P H
S il
S un
W E
b able
h ill
i at
m axim
y on
he th
Ġb ug
Ġc rest
Ġm aker
ed ing
Ġin cul
ic an
ar iness
ar ches
Ġd irt
Ġd ared
Ġd iction
se ed
ur ality
qu antity
ĠS urely
um ing
Ġsh aken
Ġwas h
ĠC in
Ġk ai
ie ur
ĠH al
Ġun seen
ĠO cc
Ġob liv
Ġpl aster
Ġpl edge
ĠE umenes
Ġen l
Ġsp ur
te nder
ĠN ame
Ġgr ieved
Ġpre face
Ġpre miss
ee ch
Ġdes criptions
Ġtw isted
Ġop ens
form ing
Ġdisc redit
Ġra g
tern ally
Ġspeak eth
cur rent
oph us
Ġver tical
Ġneg ro
Ġsum s
Ġmanifest s
happ ened
Ġcast ing
Ġcrit ics
occ asions
Ġprefer able
Ġartific ers
subject ive
regard ing
def ence
point s
Ġsacrific ing
Ġmort ality
Ġconflict ing
Ġextrem ities
Ġconquer ors
Ġanticip ation
Ġspeed ily
Ġcatch ing
Ġow ed
Ide as
ĠVol taire
ĠPri est
Ġcontempor aries
init um
build ing
opl asm
Ġinsens ibly
Ġvanqu ished
Ġcolum ns
D S
F OOT
K n
M us
O h
_ ),
k n
s hed
t ailed
Ġt reason
in ine
re ach
Ġs ne
is ement
Ġb ru
Ġm itig
Ġin considerable
ar iety
Ġd ances
Ġd irty
Ġl ighter
Ġre bel
ĠT reat
Ġha y
am ine
Ġsu periors
Ġsh ares
ĠC ond
ĠP a
Ġno str
Ġpr one
ĠW al
Ġper verted
Ġab used
Ġab uses
ĠM ac
Ġpl ed
Ġen velop
Ġli z
Ġind ist
ĠN ation
Ġcomm enced
oc he
ĠR o
ract ing
Ġwork ers
Ġlar v
part ial
aps ed
Ġfall acious
Ġprov ides
Ġmon key
igh s
ane ity
Ġsuccess es
Ġunivers als
do or
Ġign oble
Ġsepar ates
Ġappro ached
io let
Ġten ets
prop ri
imp ressions
ext ent
Ġexcl udes
Ġyouth s
elf th
Ġcompre hends
Ġstra it
add ed
Ġperman ence
intellig ent
Ġlux urious
Ġforbid s
Ġstorm s
educ ated
subst ances
ĠSu ccess
Ġadvers ity
ari wise
sus pic
ĠBra z
Ġappreci ate
prot ect
viol ence
belong s
Ġbrut al
Ġbenefic ence
Ġchallen ge
Ġguarant ee
Ġthir teen
upe f
ĠJun o
LED GE
Ġdegrad ation
. âĢ¦
7 9
G IAS
O ct
f ord
f ixed
o ard
p ine
s enate
s imply
t al
it eness
Ġc ant
an cer
ot omy
st all
Ġl apse
Ġor ation
Ġg ang
ir a
ur ity
ĠA D
ol us
ol ia
Ġat tains
Ġal ly
Ġal oud
ind ul
ĠB ay
un just
ag g
ab and
ĠN a
oc ent
be gan
ang loss
ĠR est
ip id
Ġcl an
Ġend urance
li x
li est
Ġple a
ĠAn n
ĠJ oseph
de al
de fect
Ġjud icious
adv ance
Ġdr um
atic ally
Ġru ff
Ġ4 1
IN E
Ġdel ine
ruct ure
Ġtra ffic
Ġmin erals
vere nce
Ġbar ley
Ġvol atile
Ġeng ross
Ġdecl ining
Ġhence forth
Ġph ases
Ġ6 4
ĠEx cess
Ġ7 0
rid ic
Ġpreced e
think s
ĠPl ace
occ ur
Ġaccident ally
contin ue
Ġprophe tic
urke y
Ġpretend ing
Ġbright ness
Ġmess engers
pun ished
Ãª n
Ġfoll ies
ĠTheb an
Ġly re
Ġinterv ention
mot ive
Ġcandid ates
Ġaxi om
Ġchann els
Ġvener ation
stud y
erke ley
Ġnick name
Ġlaud able
ĠAnax agoras
scrib ed
ĠTurk ish
supre me
H istory
P ed
P yth
m ach
Ġt inct
Ġthe ater
re volution
Ġb atter
om ous
Ġwh ir
ĠT ri
ur bs
Ġfor so
am bers
th ian
th orough
il is
and ise
ra ges
ĠC ity
ĠC overed
ĠP ole
pt ions
Ġch orus
Ġcan v
ĠO p
Ġab ate
Ġob tains
Ġob liter
Ġpl ains
ap art
Ġj aw
Ġj aws
og ram
Ġsub due
Ġunder took
Ġpe ar
ĠIn fl
Ġapp ertain
Ġfl ax
Ġhum ours
akes pe
cer n
Ġlet s
Ġinv iol
Ġinter m
Ġaff ording
cons ul
Ġed ges
ric ians
dis posed
Ġback s
Th irdly
AN THES
LE C
alt ry
Ġstreng thened
imin al
Ġorgan isation
ĠDe ce
pass age
Ġant iqu
ĠPh ry
An y
Ġinqu iring
gener ation
Ġspec if
ĠMar x
ĠSh ih
Ġneighb ors
Ġassoci ates
Ġcompl ained
Ġz o
Ġexper t
Ġdimin ishing
ĠMen o
character istic
Ġarbit r
produ ction
Ġhate ful
arg uments
ĠMacedon ia
Ġabol ish
Ġfert ility
Ġclim bing
Ġdeceit ful
Ġration ality
Ġembry o
Ġbacter ia
infer ior
GOR GIAS
F orm
H ave
P o
S part
U T
f at
r ome
u able
w alk
Ġt am
it ual
Ġto ken
or ax
Ġf el
ou the
Ġd arts
Ġl ur
Ġre ins
Ġor ph
her self
ĠT her
Ġhe al
Ġst ain
Ġpro gram
Ġsh aft
ĠC el
per ors
cc a
Ġar ter
Ġar oused
ĠG OD
Ġen closed
Ġcons ume
ĠR et
cept ibility
itt y
Ġcomp onent
Ġfl ocks
Ġnow adays
Ġbl ast
Ġdisc ours
Ġconf ron
ĠJ ob
Ġsc ent
Ġgu est
atic ism
Ġtra it
Ġarr ives
Ġmark ets
Ġvol umes
Ġbenef actor
Ġdesp otic
Ġnight s
happ en
Ġtor ments
Ġterr ors
Ġcompar ative
Ġmal ignant
Ġimperfect ions
Ġcross ing
Ġstart s
Ġmel ting
Ġpurch asing
ĠEp hes
particular ly
truth s
Ġadminist ered
find ing
Ġcand le
Ġregul ating
Ġcircul ating
Ġingen uity
Ġfleet ing
obl igation
ĠCe bes
Ġmurd erer
Ġconverse ly
Ġinvestig ate
Ġirre levant
xx x
Ġcher ish
sole te
Ġsecre cy
prep ared
Ġwond ers
Ġscul pture
specul ative
Ġindivid ually
Ġhaught y
Princi ples
Ġsooth say
TRODUC TION
C ong
F rench
G al
H uman
R Y
T ur
X II
_ âĢĶ
d ivers
d imin
f ail
f elt
p y
w icked
y ard
re vol
Ġb eds
en um
Ġto ugh
as ian
Ġbe am
Ġwh ip
im et
im pl
Ġre taining
Ġu mb
ro c
ĠA es
Ġsu nt
Ġst ature
Ġst ores
the w
iv ocal
ol o
ĠS em
Ġse izing
Ġsh o
Ġk it
Ġk id
Ġk ills
ĠP ER
ke eper
Ġj ury
fore ign
ĠD en
for get
ict etus
ract icable
cy cl
Ġref inement
de fe
Ġsc ur
Ġtrans itory
Ġindividual ism
Ġmoral ists
Ġlo aded
Ġsil icate
sy nthe
Ġcreat or
Ġpast ure
Ġeff icacious
ĠIs lands
Ġph Ã¦n
Ġbes et
Ġterr itories
Ġevent ually
Ġhop ing
const antly
Ġperman ently
Ġvent ured
Î¿ Ïħ
ĠJud gment
Ġimper ial
concer n
Ġcrown ed
exam ination
ĠÎ µ
Ġappropri ated
Ġhonest ly
ĠMin erva
enn y
fin ally
Ġarist ocratic
adm inistration
ĠMon arch
expl ained
ov able
oper ations
Ġwing ed
Ġmagnific ence
Ġpersist ent
restr ained
Ġproclaim ed
Ver ily
Ġpier ce
Ġrap idity
Eth ics
Ġimplicit ly
ĠLiv ius
contempl ation
Ġowners hip
Germ an
frequ ently
Ġpest il
Ġcoven ant
scar ce
Ġcong ru
9 8
A st
J esus
M ind
O S
S er
b ill
b ott
c ers
d i
d uring
h urt
j an
in able
re ed
er d
er at
Ġs angu
it ia
Ġc ement
Ġm ul
Ġm ile
Ġf its
ing en
Ġh ides
Ġl ock
ĠT en
ch in
ter ate
em inent
ra ised
um bling
all ing
un uch
ĠW rit
Ġdis li
ap ers
ĠE ury
Ġen su
Ġen cre
Ġfe eds
Ġsp ar
Ġam mon
Ġtw ofold
Ġbr ide
Ġdist racted
Ġap ology
li um
peri od
Ġent ry
Ġhapp iest
Ġcor ps
Ġrest ed
Ġcar b
Ġsl ay
Ġcr ushed
Ġtrans m
den ial
Ġexpl ication
Ġsing ly
._ [
reg ards
Ġsol ve
ext ensive
Ġcivil ised
het orical
Ġann ounce
Ġund ue
Ġinstrument al
ogra pher
Tr uth
isc us
Ġphilosoph ies
Ġresist ing
Ġremember ing
Ġendeavour ing
ĠAb ounding
Ġrob bed
Ġintr insically
inn ate
Ġsec ular
organ ic
Ġflour ishing
Ġtransl ate
Ġastr ay
ĠSpan iards
ĠVal er
Ġwrest ling
Ġexagger ated
Ġawaken ed
Ġharb our
ĠHeracl itus
Ġoppress ive
Ġscul pt
Ġdiscer ning
Ġdiscer ned
step s
Ġpreval ent
Ġsket ch
Ġscrup ulous
L ike
N ext
P ort
P ART
a ire
b one
b are
c ens
h ast
n arrow
t ot
t able
v ision
Ġt asted
Ġo y
Ġw age
Ġw ines
er get
at ivity
at iable
Ġb ounded
Ġc ess
Ġp athetic
Ġn od
as al
Ġwh osoever
Ġl ance
Ġl ace
Ġl uc
Ġg own
Ġwith stand
us p
os itions
em ilius
Ġal lev
ac itus
ĠP ART
ĠB ene
Ġun b
Ġpr izes
out ward
Ġpl entiful
Ġmy ths
ĠTh ine
Ġind eterminate
be ings
Ġam orphous
Ġunder lying
Ġbr ush
ian ism
Ġhum or
Ġbl oom
Ġref uted
Ġref resh
pr us
Ġass ented
ĠV e
Ġval ley
Ġmean while
ĠY en
Ġpres cribe
Ġold est
Ġquestion ed
vol untary
Ġmeasure ment
ev ents
Ġpra ising
inter pre
present ly
Ġdisp atched
Ġwonder fully
Ġid ol
Ġdep ression
cor por
Ġmanufact ured
Al as
Ġhast en
Ġkn ock
Ġheight s
Ġstat ute
appro ach
appro bation
Ġvalu ation
Ġconfirm ation
Ġloose ly
Ġadequ ately
ĠComm un
Ġthreat ening
Ġbind s
ĠMin ister
Ġenlar gement
ĠSpe ech
Ġsem blance
ĠTim oleon
cap acity
Ġcompens ate
ĠArg ives
ĠSU BST
Ġwhit eness
Ġartic ulate
Ġbenefic ent
Ġdoc ument
ĠOct av
destroy ed
According ly
Ġconscient ious
ĠPir aeus
Ġconstell ation
opo emen
akespe are
7 8
M r
M art
N ESS
X IV
i aceae
l ot
m ethods
s ource
u ven
